{"<pad>":0,"<unk>":1,"<cls>":2,"<sep>":3,"<mask>":4,"<S>":5,"<T>":6,"0":7,"1":8,"က":9,"ခ":10,"ဂ":11,"ဃ":12,"င":13,"စ":14,"ဆ":15,"ဇ":16,"ဈ":17,"ဉ":18,"ည":19,"ဋ":20,"ဌ":21,"ဍ":22,"ဏ":23,"တ":24,"ထ":25,"ဒ":26,"ဓ":27,"န":28,"ပ":29,"ဖ":30,"ဗ":31,"ဘ":32,"မ":33,"ယ":34,"ရ":35,"လ":36,"ဝ":37,"သ":38,"ဟ":39,"ဠ":40,"အ":41,"ဤ":42,"ဥ":43,"ဦ":44,"ဧ":45,"ဩ":46,"ဪ":47,"ါ":48,"ာ":49,"ိ":50,"ီ":51,"ု":52,"ူ":53,"ေ":54,"ဲ":55,"ံ":56,"့":57,"း":58,"္":59,"်":60,"ျ":61,"ြ":62,"ွ":63,"ှ":64,"ဿ":65,"၀":66,"၌":67,"၍":68,"၎":69,"၏":70,"▁":71,"▁တ":72,"ို":73,"▁က":74,"င်":75,"ော":76,"▁ပ":77,"▁မ":78,"▁လ":79,"▁အ":80,"ဲ့":81,"ယ်":82,"က်":83,"▁ရ":84,"▁န":85,"▁သ":86,"ား":87,"▁ကို":88,"ွေ":89,"စ်":90,"င်း":91,"▁ခ":92,"▁0":93,"န်":94,"့်":95,"တ်":96,"▁တွေ":97,"▁တယ်":98,"▁1":99,"▁ပါ":100,"ို့":101,"▁ဘ":102,"▁တဲ့":103,"▁မှ":104,"▁စ":105,"▁ပြ":106,"▁တော":107,"▁ဆ":108,"ီး":109,"▁ဖ":110,"▁ကြ":111,"▁တော့":112,"ေး":113,"်း":114,"ုံ":115,"ပ်":116,"▁မှာ":117,"▁ထ":118,"ောက်":119,"▁တာ":120,"▁နေ":121,"ချ":122,"ူး":123,"▁သူ":124,"▁ရှ":125,"▁ဆို":126,"▁တစ်":127,"င့်":128,"▁ဒ":129,"ိုင်":130,"▁နဲ့":131,"ြစ်":132,"ိုး":133,"ောင်း":134,"ုံး":135,"▁လို့":136,"▁လို":137,"ုပ်":138,"▁ဘူး":139,"▁ပြီး":140,"▁ရှိ":141,"ော်":142,"ကြ":143,"▁ပဲ":144,"▁ဖြစ်":145,"ိတ်":146,"▁ချ":147,"န်း":148,"ည်း":149,"▁ဟ":150,"ေါ":151,"ရာ":152,"ောင်":153,"မှ":154,"မ်း":155,"▁ရဲ့":156,"▁ကျ":157,"ယ့်":158,"▁လဲ":159,"▁လူ":160,"▁ခဲ့":161,"▁နိုင်":162,"▁လာ":163,"ွား":164,"▁ရင်":165,"▁မယ်":166,"▁စိတ်":167,"▁မျ":168,"ည်":169,"ိမ":170,"▁လိုက်":171,"▁အတ":172,"▁ဒါ":173,"ကျ":174,"ြင်း":175,"▁ကိုယ်":176,"▁တို့":177,"တာ":178,"ပြ":179,"ွက်":180,"မှု":181,"▁သွား":182,"ုတ်":183,"စား":184,"▁င":185,"လို":186,"▁ယ":187,"ွန်":188,"▁ဖို့":189,"▁ဒီ":190,"မြ":191,"▁ဆိုတာ":192,"▁ဟာ":193,"ရှ":194,"▁ပေါ":195,"▁လုပ်":196,"▁အခ":197,"▁ကိုယ့်":198,"▁ဘဝ":199,"▁တတ်":200,"▁သင်":201,"▁ဘယ်":202,"ည့်":203,"▁ခြင်း":204,"▁အချ":205,"မျ":206,"ိုင်း":207,"ွှ":208,"ောင့်":209,"▁လေး":210,"▁နှ":211,"▁ထား":212,"▁အောင်":213,"ေ့":214,"▁အဲ":215,"တော်":216,"▁ပေး":217,"▁ပျ":218,"ဒီ":219,"ိုက်":220,"▁ပြော":221,"ိန်":222,"▁ကောင်း":223,"▁သင့်":224,"▁မင်း":225,"▁ထဲ":226,"▁ကျွန်":227,"▁စေ":228,"ေမ":229,"▁အလ":230,"▁လည်း":231,"▁ခု":232,"▁ဘာ":233,"▁ငါ":234,"▁ချင်":235,"▁ဝ":236,"▁ဟုတ်":237,"ွေး":238,"▁အသ":239,"▁အရာ":240,"▁ယောက်":241,"▁အဲဒီ":242,"ကို":243,"▁အရ":244,"▁မိ":245,"ဆုံး":246,"▁ကြီး":247,"▁အတွက်":248,"▁သိ":249,"ခြ":250,"ကြီး":251,"ွဲ":252,"ချက်":253,"ိမ်":254,"ိမ့်":255,"ပါ":256,"လဲ":257,"▁ပို":258,"▁ပေါ့":259,"▁သူ့":260,"▁ခံ":261,"▁ကျွန်တော်":262,"▁နှစ်":263,"▁နောက်":264,"▁အား":265,"▁ပြန်":266,"နာ":267,"▁ပျော်":268,"▁မြ":269,"▁အချိန်":270,"▁လက်":271,"ရင်":272,"▁မျိုး":273,"သား":274,"ကား":275,"▁လိမ့်":276,"ဖြ":277,"နေ":278,"ပေမ":279,"▁တက":280,"▁ဒါပေမ":281,"▁စာ":282,"▁များ":283,"များ":284,"လုံး":285,"▁အခါ":286,"▁ကြည့်":287,"မြင်":288,"▁ဆိုရင်":289,"ွှင်":290,"ရွှင်":291,"လေး":292,"▁ပြီ":293,"ကောင်း":294,"▁အကြ":295,"▁လေ":296,"▁ဖြ":297,"ွယ်":298,"နှ":299,"▁ချစ်":300,"▁လှ":301,"▁တကယ်":302,"▁စကား":303,"ခြား":304,"ွင့်":305,"ော့":306,"▁အပ":307,"▁ပျော်ရွှင်":308,"▁အလုပ်":309,"ုန်း":310,"ေါ်":311,"န့်":312,"သူ":313,"ကိုယ်":314,"ိပ်":315,"▁သာ":316,"ခံ":317,"▁စရာ":318,"▁ကြောင့်":319,"▁အဖ":320,"▁တွေ့":321,"ချင်း":322,"▁တစ်ခ":323,"မာ":324,"သက်":325,"▁တိုင်း":326,"▁သေး":327,"▁အဲ့":328,"ဦး":329,"▁တခြား":330,"ံ့":331,"ငယ်":332,"တိ":333,"သာ":334,"ရေး":335,"▁ထိ":336,"ွမ်း":337,"ွာ":338,"ွေ့":339,"ထား":340,"နည်း":341,"▁ကြိုး":342,"▁ရောက်":343,"ယူ":344,"ရား":345,"▁နည်း":346,"▁ပေါ်":347,"▁ခံစား":348,"ျှ":349,"▁ထက်":350,"စ္":351,"▁ဒါပေမဲ့":352,"▁ပြောင်း":353,"▁အထ":354,"▁ကြိုးစား":355,"▁ဦး":356,"ွန်း":357,"▁တန်":358,"▁နား":359,"▁မယ့်":360,"▁အကြောင်း":361,"စ္စ":362,"▁လမ်း":363,"▁ကိုယ့်ကိုယ်":364,"▁နာ":365,"▁နံ":366,"ုန်":367,"▁အမှ":368,"▁အောင်မြင်":369,"▁အပြ":370,"ဖိုး":371,"▁လော":372,"ကျင်":373,"ဏ်":374,"▁အမြ":375,"ရှိ":376,"▁လား":377,"▁သလို":378,"▁ထင်":379,"▁အဆ":380,"▁တန်ဖိုး":381,"ဆောင်":382,"ချို့":383,"လည်":384,"▁ကိုယ့်ကိုယ်ကို":385,"▁ယုံ":386,"▁တောင်":387,"▁သုံး":388,"▁မျှ":389,"▁ဘယ်လို":390,"ခြင်း":391,"▁ဘဲ":392,"ွှတ်":393,"လောက်":394,"▁တွေး":395,"ပါတ်":396,"ဉ်":397,"▁နံပါတ်":398,"▁ဖူး":399,"▁လောက":400,"တိုင်":401,"▁ဒီလို":402,"နေ့":403,"ပျ":404,"ကြောင့်":405,"▁အိမ်":406,"▁အများ":407,"▁ဆက်":408,"အား":409,"▁ဂ":410,"▁နေ့":411,"ကြည်":412,"ြေ":413,"ဆိုင်":414,"ညာ":415,"▁ပြောင်းလဲ":416,"မျိုး":417,"တော့":418,"▁ကနေ":419,"▁ထွက်":420,"▁ဆုံး":421,"▁နေရာ":422,"တ္":423,"▁လျှ":424,"▁အကောင်း":425,"▁ယုံကြည်":426,"တင်":427,"▁သဘ":428,"▁မှု":429,"▁မြင်":430,"▁သား":431,"▁လောက်":432,"▁ဘယ်သူ":433,"▁အဲဒီ့":434,"က္":435,"▁ကလေး":436,"▁ည":437,"▁တစ်ခု":438,"▁မလဲ":439,"▁ရှာ":440,"▁အမြဲ":441,"ဒါ":442,"▁ပုံ":443,"▁ဆီ":444,"ရှုံး":445,"▁ဒါပေမယ့်":446,"▁ရာ":447,"▁အိပ်":448,"မျှ":449,"ရည်":450,"က္ခ":451,"ပါး":452,"ျား":453,"▁ကိုယ်တိုင်":454,"▁ပေမ":455,"▁ပေမဲ့":456,"▁သေ":457,"▁အားလုံး":458,"ဆို":459,"▁မှန်":460,"ဉ်း":461,"▁အစ":462,"ော်လ":463,"▁အချစ်":464,"ခဲ":465,"လှ":466,"လွှတ်":467,"▁သဘော":468,"ဿနာ":469,"▁အန":470,"▁မျက်":471,"▁သတိ":472,"ရှင်း":473,"▁မေး":474,"▁အကျ":475,"▁ရော":476,"ဓာ":477,"▁တချို့":478,"ွင်း":479,"▁ဆရာ":480,"▁အသက်":481,"ဆံ":482,"ေါင်း":483,"တော":484,"ွတ်":485,"▁ဖြတ်":486,"▁ပတ်":487,"စု":488,"▁ဒေါ":489,"ရဲ":490,"ဉာ":491,"▁ပြဿနာ":492,"▁အပေါ်":493,"▁အမ":494,"▁မိမ":495,"▁ကြောက်":496,"▁အတူ":497,"▁မိမိ":498,"တရား":499,"▁အခြေ":500,"▁ဒေါသ":501,"▁တူ":502,"▁လုံး":503,"▁စား":504,"▁တော်":505,"▁ရွေး":506,"▁အရေး":507,"နက်":508,"ွန့်":509,"▁ကြာ":510,"တိုင်း":511,"▁ဘယ်လောက်":512,"ဉာဏ်":513,"ိတ်ဆ":514,"▁ယူ":515,"▁အဖြစ်":516,"▁နားလည်":517,"စာ":518,"လား":519,"လုပ်":520,"ိစ္စ":521,"▁တက်":522,"▁အတွေး":523,"လာ":524,"▁ရင်း":525,"▁ဒု":526,"▁အခု":527,"▁မျှော်လ":528,"▁မျှော်လင့်":529,"ထောင်":530,"မ္":531,"▁မေ့":532,"ပင်":533,"▁အဓ":534,"▁သော":535,"▁ချက်":536,"▁အများကြီး":537,"▁လျှောက်":538,"▁သစ်":539,"▁စဉ်း":540,"▁နာကျင်":541,"လေ":542,"▁ပေါင်း":543,"▁အသိ":544,"▁ရှေ့":545,"▁အချက်":546,"▁စဉ်းစား":547,"▁ကိစ္စ":548,"တစ်":549,"▁တိုး":550,"▁ကြုံ":551,"▁လိုအ":552,"▁လူ့":553,"ရှင်":554,"▁ဖြေ":555,"စိုက်":556,"တက်":557,"တမ်း":558,"▁ရေး":559,"ဖက်":560,"▁ခွင့်":561,"▁ဝင်":562,"▁အဓိ":563,"ဆက်":564,"▁ပစ်":565,"▁လုံ":566,"▁ရက်":567,"တွေ့":568,"စုံ":569,"▁ပြည့်":570,"ပြု":571,"▁လိုအပ်":572,"ပေး":573,"ဖြစ်":574,"▁ဗ":575,"▁ငါ့":576,"▁ဝမ်း":577,"▁ထိန်း":578,"▁ခံစားချက်":579,"မား":580,"▁ပြု":581,"ပန်း":582,"သန်":583,"▁တုန်း":584,"▁စစ်":585,"▁တစ်ခါ":586,"▁အကောင်းဆုံး":587,"▁ဒုက္ခ":588,"ဝန်":589,"ညီ":590,"ရီး":591,"▁ပင်":592,"▁လေ့":593,"▁အက":594,"▁ကံ":595,"▁ကြား":596,"▁အခက်":597,"စိတ်":598,"တူ":599,"အုပ်":600,"▁အာ":601,"▁ရေ":602,"▁စောင့်":603,"ဆယ်":604,"▁ကုန်":605,"▁ရဲ":606,"ချယ်":607,"▁နောက်ဆုံး":608,"ရု":609,"ဝင်":610,"▁ဥ":611,"▁ခြ":612,"▁မိန်း":613,"ဓာတ်":614,"▁တော်တော်":615,"လမ်း":616,"▁သက်":617,"ေါက်":618,"▁အရင်":619,"ကန်":620,"သန်း":621,"▁စွန့်":622,"▁ငယ်":623,"▁ခေါင်း":624,"▁ခက်":625,"▁ဒါကြောင့်":626,"▁သိပ်":627,"ဖြတ်":628,"ယောက်":629,"ြိမ်":630,"▁တည်း":631,"▁သမျှ":632,"▁ငါး":633,"▁ရွေးချယ်":634,"နပ်":635,"အခဲ":636,"▁တည်":637,"▁ရှင်":638,"▁အခက်အခဲ":639,"▁ခင်":640,"ပြေ":641,"▁အဆင်":642,"ချိန်":643,"▁သူငယ်":644,"▁ချိန်":645,"ယာ":646,"▁ရိုး":647,"▁အမှား":648,"ျက်":649,"▁မှား":650,"ီးကျ":651,"ကြုံ":652,"မှတ်":653,"▁နှစ်သက်":654,"▁သူငယ်ချင်း":655,"ကူး":656,"န္":657,"မွန်":658,"▁ပိုင်":659,"မ်းသာ":660,"▁အမှန်":661,"▁အခြေအ":662,"▁ဆင်း":663,"ချာ":664,"တော့်":665,"ိတ်ဆွေ":666,"▁ဝမ်းနည်း":667,"▁အခြေအနေ":668,"ထိုင်":669,"▁ဇ":670,"▁ပန်း":671,"▁မို့":672,"▁မိတ်ဆွေ":673,"▁ရယ်":674,"▁သလဲ":675,"▁ကျွန်တော့်":676,"▁ဝေ":677,"▁စာအုပ်":678,"▁အဲ့လို":679,"▁အကျိုး":680,"ကလေး":681,"တည်":682,"▁ဆိုင်":683,"ပြင်":684,"စေ":685,"▁အသစ်":686,"ကိုင်":687,"ဘာ":688,"မီး":689,"ိမ်း":690,"▁အမျိုး":691,"▁ရပ်":692,"ုံ့":693,"▁အပြစ်":694,"ဟုတ်":695,"▁ရုပ်":696,"▁ထုတ်":697,"ပျက်":698,"▁ရှင်သန်":699,"စီး":700,"ဇူး":701,"▁တိုက်":702,"▁ကောင်":703,"▁အနာ":704,"▁ကျေး":705,"▁သင်ယူ":706,"ဖြည်း":707,"ဝန်း":708,"▁စိတ်ကူး":709,"▁အခွင့်":710,"ဖြင့်":711,"▁ဆုံးရှုံး":712,"စက်":713,"▁လွယ်":714,"▁ခရီး":715,"▁စိတ်ဓာတ်":716,"▁ဂရု":717,"ပ္":718,"ရောက်":719,"ချုပ်":720,"▁ကျောင်း":721,"ခြုံ":722,"▁ဖြတ်သန်း":723,"ခါ":724,"တလေ":725,"မက်":726,"ရွက်":727,"▁ခါ":728,"▁ကျန်":729,"▁ရင်ဆိုင်":730,"▁လှပ":731,"▁တိုးတက်":732,"▁မိန်းကလေး":733,"အရာ":734,"▁မနက်":735,"▁အင်":736,"▁တစ်ယောက်":737,"▁ကျေးဇူး":738,"ပညာ":739,"မဟုတ်":740,"ရက်":741,"▁ဖတ်":742,"မြတ်":743,"ခင်":744,"▁သံ":745,"ချင်":746,"▁ဖြစ်ဖြစ်":747,"▁ငွေ":748,"▁အသုံး":749,"▁ကြီးပ":750,"▁မျှော်လင့်ချက်":751,"ဝန်းကျင်":752,"ခိုက်":753,"ငြိမ်":754,"ဆင်":755,"နား":756,"▁ကိုး":757,"▁ခေါ်":758,"▁မှန်း":759,"▁တစ်သက်":760,"နှစ်":761,"ကွဲ":762,"ထွက်":763,"ရွယ်":764,"▁မှတ်":765,"လက်":766,"▁သတ္":767,"▁နေထိုင်":768,"▁ဆိုး":769,"ကျင့်":770,"▁အရေးကြီး":771,"▁လုံခြုံ":772,"▁ဥပ":773,"ရုံ":774,"ေတ်":775,"▁တရား":776,"▁မွေး":777,"▁ဖန်":778,"ကြာ":779,"▁လက်ခံ":780,"▁အဲ့ဒီ":781,"စဉ်":782,"မင်း":783,"▁အို":784,"▁တာဝန်":785,"ပြော":786,"▁ပတ်ဝန်းကျင်":787,"▁ပိုင်ဆိုင်":788,"ွင်":789,"မ္ဘာ":790,"ထုတ်":791,"ပေါက်":792,"▁ပိုက်":793,"▁အမြင်":794,"▁ထပ်":795,"▁ထူး":796,"▁အတွေ့":797,"▁ဒါမှ":798,"▁အဲဒါ":799,"▁ပျောက်":800,"▁ချစ်သူ":801,"▁တစ်ခါတလေ":802,"▁ဆင်းရဲ":803,"လျှ":804,"▁ပညာ":805,"▁အောက်":806,"▁ပါစေ":807,"▁စွမ်း":808,"မှန်":809,"ရှား":810,"▁နှလုံး":811,"▁ပျော်ရွှင်မှု":812,"▁တန်ဖိုးထား":813,"တို":814,"ပန်":815,"ဝါ":816,"ဝေ":817,"ှက်":818,"▁ကမ္ဘာ":819,"▁ရည်":820,"▁ထည့်":821,"▁အကြောင်းအရာ":822,"▁ဖြေရှင်း":823,"▁ပိုက်ဆံ":824,"စွာ":825,"ပိုင်":826,"▁ခေတ်":827,"▁ပြင်":828,"▁တစ်ချို့":829,"▁လူတိုင်း":830,"▁ငြ":831,"▁မိဘ":832,"▁မိသား":833,"▁များများ":834,"▁ဆုံးဖြတ်":835,"▁မိသားစု":836,"ခိုင်":837,"ခေါ်":838,"ပွဲ":839,"ဖန်":840,"သင်း":841,"▁မလား":842,"▁အနေ":843,"▁စီး":844,"▁နည်းနည်း":845,"လှမ်း":846,"▁ဒါမှမဟုတ်":847,"တန်း":848,"▁တင်":849,"▁နော်":850,"ပြန်":851,"▁ပျက်":852,"▁အထီးကျ":853,"▁ယုံကြည်မှု":854,"▁သတ္တိ":855,"▁အထီးကျန်":856,"န်မာ":857,"▁ပါး":858,"▁ရှု":859,"▁ရှင်း":860,"န်းမာ":861,"▁ကောင်းမွန်":862,"▁အရမ်း":863,"လ်":864,"လျ":865,"▁အတိုင်း":866,"▁အထိ":867,"▁ခြောက်":868,"ပိုင်း":869,"သမီး":870,"ုသ":871,"▁မိုး":872,"▁အကြီး":873,"▁ခဏ":874,"▁ဆိုလို":875,"▁လူငယ်":876,"▁အခွင့်အ":877,"ခု":878,"ဒ်":879,"▁ကူ":880,"▁ရန်":881,"▁ရုံ":882,"▁သတ်":883,"▁ခွန်":884,"▁ကျန်းမာ":885,"▁ယောက်ျား":886,"▁ထိခိုက်":887,"▁အောင်မြင်မှု":888,"ခန်း":889,"ထွေး":890,"နစ်":891,"ရိ":892,"့ကြောင့်":893,"▁အစား":894,"▁ကြံ့":895,"▁သူများ":896,"▁အဓိပ္":897,"▁စွန့်လွှတ်":898,"▁ရှောင်":899,"▁လုပ်ဆောင်":900,"▁နှလုံးသား":901,"ထက်":902,"လို့":903,"▁လွှတ်":904,"▁ခြေ":905,"▁ဆောင်း":906,"▁တစ်နေ့":907,"▁ကောင်းကောင်း":908,"▁ထိန်းချုပ်":909,"တီး":910,"ဖတ်":911,"ရီ":912,"▁ပစ္စ":913,"ပါယ်":914,"▁ဆက်ဆံ":915,"▁အသိဉာဏ်":916,"▁အဓိက":917,"▁အဆင်ပြေ":918,"▁ဂရုစိုက်":919,"▁ဥပမာ":920,"▁အဓိပ္ပါယ်":921,"ဂတ်":922,"▁အေး":923,"▁အဆုံး":924,"▁ပြီးတော့":925,"▁ချမ်းသာ":926,"ကျယ်":927,"ဖြန်":928,"နှာ":929,"▁ပတ်သက်":930,"▁သစ်ပင်":931,"▁မနက်ဖြန်":932,"ကမ်း":933,"ညစ်":934,"ေနပ်":935,"ိုလ်":936,"▁အလို":937,"▁ခွဲ":938,"▁စွာ":939,"▁အနာဂတ်":940,"▁လုံခြုံမှု":941,"ကူ":942,"ငံ":943,"ဈေး":944,"တည်း":945,"ထု":946,"▁ဉာဏ်":947,"▁ကာ":948,"င်နာ":949,"▁နောင်":950,"ီးမ":951,"▁ရှုံး":952,"▁လိုချင်":953,"▁အပြင်":954,"▁သေချာ":955,"▁မျက်ရည်":956,"▁ကူညီ":957,"ခွန်း":958,"ဖော်":959,"သတ်":960,"သီး":961,"▁ဘု":962,"▁ဘက်":963,"▁တောင်း":964,"▁သူတစ်":965,"မှန်း":966,"▁လေးစား":967,"▁စာဖတ်":968,"နှောက်":969,"▁အဖေ":970,"▁ဝေဖန်":971,"▁အခွင့်အရေး":972,"▁ခွန်အား":973,"▁သူတစ်ပါး":974,"စရာ":975,"ထောင့်":976,"ရပ်":977,"ဝေး":978,"▁ပူ":979,"▁သီ":980,"▁သို့":981,"▁သလား":982,"▁ချင်း":983,"ကျည်း":984,"▁ငို":985,"မြဲ":986,"▁အလှ":987,"▁မြင့်":988,"▁ဦးနှောက်":989,"▁အဆင့်":990,"▁မေးခွန်း":991,"ာဝ":992,"ေတ္":993,"▁ပု":994,"င်းချင်း":995,"▁ဆုံ":996,"▁တစ်ဖက်":997,"▁လူမျိုး":998,"▁အတိတ်":999,"▁အချင်းချင်း":1000,"ပျော်":1001,"▁ကံကောင်း":1002,"▁ကြီးပြင်း":1003,"စံ":1004,"ဆင်း":1005,"ဏာ":1006,"ထပ်":1007,"▁ကား":1008,"▁မဆို":1009,"▁ပြုံး":1010,"ိုးရ":1011,"▁စိတ်ခံ":1012,"▁ပြောပြ":1013,"▁အာရုံ":1014,"ေတ္တာ":1015,"▁စိတ်ခံစား":1016,"ကာ":1017,"စပ်":1018,"ဆိုး":1019,"▁ဆေး":1020,"▁ကြည်":1021,"▁သူတ":1022,"▁စိတ်ရှ":1023,"▁စိတ်ညစ်":1024,"ဖြေ":1025,"နှီး":1026,"▁အထင်":1027,"▁အတူတူ":1028,"တန်":1029,"ပွား":1030,"ဖျ":1031,"ရင်း":1032,"▁ဈေး":1033,"▁မူ":1034,"▁မဲ့":1035,"▁မန်":1036,"▁မီး":1037,"▁လွတ်":1038,"▁ဆယ်":1039,"▁ကျေနပ်":1040,"▁အတွင်း":1041,"▁ပုံစံ":1042,"▁ခွင့်လွှတ်":1043,"ရိုက်":1044,"သွား":1045,"▁လွမ်း":1046,"▁ရင့်":1047,"▁ဆယ့်":1048,"▁ကြောင်း":1049,"▁ကြိုက်":1050,"ချမ်း":1051,"▁ကျရှုံး":1052,"▁နိုင်ငံ":1053,"▁ဝေး":1054,"▁ပြည့်စုံ":1055,"▁အပြစ်တင်":1056,"ရောင်":1057,"အမ":1058,"အကြုံ":1059,"ုဏ်":1060,"▁လွန်း":1061,"▁နင်":1062,"▁စည်း":1063,"▁ဖော်":1064,"▁နည်းလမ်း":1065,"စ္စာ":1066,"▁နေ့ရက်":1067,"န္ဓာ":1068,"▁အတွေ့အကြုံ":1069,"လျှောက်":1070,"▁ကြံ့ခိုင်":1071,"▁ပစ္စည်း":1072,"▁သူတို့":1073,"▁မန်ကျည်း":1074,"နို":1075,"သဖြင့်":1076,"▁နွေး":1077,"▁စီ":1078,"▁ကြင်နာ":1079,"▁ငြင်း":1080,"▁အရည်":1081,"▁လက်ရှိ":1082,"▁အလုပ်လုပ်":1083,"▁အပြုံး":1084,"▁တွေးတော":1085,"▁ဂုဏ်":1086,"▁သတိရ":1087,"▁အမေ":1088,"▁ငြီး":1089,"▁ရှုထောင့်":1090,"တိုက်":1091,"ထူး":1092,"ဗျား":1093,"မဲ့":1094,"ယွင်း":1095,"ရေ":1096,"လူ":1097,"လင်း":1098,"ဥ်":1099,"▁ကွာ":1100,"▁မော":1101,"▁သထက်":1102,"▁ခန္ဓာ":1103,"▁ဆွဲ":1104,"ကြား":1105,"ကြောင်း":1106,"ကြည့်":1107,"▁ဒါ့ကြောင့်":1108,"▁ပေါက်":1109,"▁ဘယ်တော့":1110,"▁အရွယ်":1111,"▁အားက":1112,"▁လှည့်":1113,"▁အဲ့ဒါ":1114,"▁အိပ်မက်":1115,"▁ခင်ဗျား":1116,"▁ဘုရား":1117,"▁စိတ်ခံစားချက်":1118,"နိုဒါ":1119,"ခင်း":1120,"ညံ့":1121,"ထမ":1122,"▁ပထမ":1123,"▁မေတ္တာ":1124,"▁လွှ":1125,"▁ဖွင့်":1126,"▁ကြေ":1127,"ကျော်":1128,"ွှား":1129,"▁နှုတ်":1130,"▁ပြောဆို":1131,"▁အရာရာ":1132,"▁အိမ်ထောင်":1133,"▁အမြဲတမ်း":1134,"▁မျက်နှာ":1135,"▁ဆရာကြီး":1136,"▁ပင်ပန်း":1137,"▁နောင်တ":1138,"ဆီး":1139,"ဖိ":1140,"မည်":1141,"▁ကွဲ":1142,"▁လျ":1143,"▁ဘေး":1144,"▁ရှစ်":1145,"▁ချီးမ":1146,"▁ကိုယ်ပိုင်":1147,"▁သာယာ":1148,"▁နားထောင်":1149,"▁မျှဝေ":1150,"▁အကျင့်":1151,"▁လျှောက်လှမ်း":1152,"▁အိုနိုဒါ":1153,"တွား":1154,"လပ်":1155,"သီ":1156,"ွံ့":1157,"▁ရုန်း":1158,"▁ထိုင်":1159,"▁ကျော်":1160,"▁စိတ်ဖိ":1161,"ကျက်":1162,"▁ကျွန်မ":1163,"▁ဘာသာ":1164,"▁နာမည်":1165,"▁ဂျ":1166,"▁ဘယ်သူ့":1167,"▁အမုန်း":1168,"▁အခြေခံ":1169,"▁ရှေ့ဆက်":1170,"▁ပြုလုပ်":1171,"▁လေ့ကျင့်":1172,"▁တည်ငြိမ်":1173,"▁လွှတ်ချ":1174,"▁စိတ်ရှုပ်":1175,"▁အရည်အ":1176,"ဓံ":1177,"ပုံ":1178,"သေ":1179,"သမား":1180,"▁စု":1181,"▁ပြင်း":1182,"▁ဒဏ်":1183,"▁ဒီနေ့":1184,"▁စာရေး":1185,"▁များစွာ":1186,"▁သာမ":1187,"▁လောကဓံ":1188,"▁ပေါင်းသင်း":1189,"▁ခက်ခဲ":1190,"▁ဇာ":1191,"▁သတ်မှတ်":1192,"▁ခန္ဓာကိုယ်":1193,"စွမ်း":1194,"ဆာ":1195,"ဆယ့်":1196,"တင်း":1197,"ိန်း":1198,"▁မကြာ":1199,"▁လွဲ":1200,"▁ရရှိ":1201,"▁သောက်":1202,"▁ကိုင်":1203,"ုပ်ရှား":1204,"ကြေး":1205,"▁ဝါ":1206,"▁လက်မ":1207,"▁စကားလုံး":1208,"▁အဆိုး":1209,"▁အနိုင်":1210,"▁လေ့လာ":1211,"ငန်း":1212,"ဆန်":1213,"ပေါ်":1214,"ဖွေ":1215,"▁တံ":1216,"▁တို":1217,"▁ကု":1218,"▁အရှုံး":1219,"▁အဖြေ":1220,"▁သည်း":1221,"▁သည်":1222,"▁သိမ်":1223,"▁ပြတ်":1224,"▁ဆင်":1225,"▁စိတ်ချ":1226,"▁လုပ်ငန်း":1227,"▁ဝယ်":1228,"▁ဝန်":1229,"▁အားပေး":1230,"▁ကြုံတွေ့":1231,"▁အမျိုးသမီး":1232,"▁ဖန်တီး":1233,"▁ရင့်ကျက်":1234,"▁ချီးမွမ်း":1235,"ကွယ်":1236,"နဲ့":1237,"လျား":1238,"ုတ":1239,"ေသ":1240,"္ဂ":1241,"▁ကင်း":1242,"▁သလောက်":1243,"▁စမ်း":1244,"▁ပြေး":1245,"▁အလွန်":1246,"▁ဘာကြောင့်":1247,"များများ":1248,"▁ရှာဖွေ":1249,"▁အတွေးအ":1250,"▁ရင်းနှီး":1251,"▁ရိုးသား":1252,"▁စိတ်ဖိစီး":1253,"▁အရည်အချင်း":1254,"▁ဇာတ်":1255,"▁ဆင်ခြ":1256,"စိ":1257,"စီ":1258,"ပူ":1259,"ရိုး":1260,"သေး":1261,"▁တဖြည်း":1262,"▁ကဲ့":1263,"▁ကြမ်း":1264,"▁ရှည်":1265,"▁ချို့":1266,"မြက်":1267,"▁လက်လွှတ်":1268,"▁တကယ့်":1269,"▁အဖော်":1270,"▁သုံးဆယ်":1271,"▁ညံ့":1272,"▁မှန်ကန်":1273,"▁အသက်ရှင်":1274,"▁တော်တော်များများ":1275,"ဖျင်း":1276,"▁နွေးထွေး":1277,"▁ကြေကွဲ":1278,"▁တဖြည်းဖြည်း":1279,"ကုန်":1280,"ခွင့်":1281,"စင်":1282,"တရ":1283,"နိုး":1284,"လယ်":1285,"လွန်":1286,"▁ကတည်း":1287,"▁ပွင့်":1288,"▁လွန်":1289,"▁အနည်း":1290,"▁ရွှ":1291,"▁စတင်":1292,"▁ဆောင်":1293,"▁လူသား":1294,"▁အလင်း":1295,"▁အသံ":1296,"▁အဲဒီလို":1297,"▁လက်တွေ့":1298,"▁တကယ်တမ်း":1299,"တ္ထု":1300,"▁သတိထား":1301,"ိတ်ဆိတ်":1302,"▁ရည်မှန်း":1303,"▁ကျန်းမာရေး":1304,"ွဲ့":1305,"▁မကျ":1306,"▁စွဲ":1307,"▁စိုးရ":1308,"▁စသဖြင့်":1309,"▁စိတ်တို":1310,"ကျိုး":1311,"▁ခံယူ":1312,"▁အနား":1313,"▁နာကျင်မှု":1314,"▁ဆိုင်ရာ":1315,"▁ကျေးဇူးတင်":1316,"▁ရည်မှန်းချက်":1317,"ကပ်":1318,"ဂို":1319,"ဆန်း":1320,"ညှ":1321,"နိုင်":1322,"မင်":1323,"မပြေ":1324,"သံ":1325,"ျာ":1326,"ှဉ်":1327,"▁သန်မာ":1328,"▁ကြိမ်":1329,"မြောက်":1330,"ရှည်":1331,"▁သင်ခန်း":1332,"▁ပျင်း":1333,"▁အလေး":1334,"▁ဦးတည်":1335,"▁နာရီ":1336,"▁အမှတ်":1337,"▁သဘောပေါက်":1338,"▁အကုန်":1339,"▁ခေါင်းဆောင်":1340,"▁အဆင်မပြေ":1341,"န္ဒ":1342,"▁ကျောင်းသား":1343,"▁ရည်ရွယ်":1344,"▁အလိုလို":1345,"▁မကျေမ":1346,"▁စိုးရိမ်":1347,"▁သင်ခန်းစာ":1348,"ကင်":1349,"ကနေ့":1350,"ခဏ":1351,"ထောက်":1352,"နယ်":1353,"လိပ်":1354,"▁အော်":1355,"▁ရယူ":1356,"▁ခွက်":1357,"▁ထိုက်":1358,"▁တစ်ချိန်":1359,"▁ချောင်း":1360,"ပြတ်":1361,"▁ဒီကနေ့":1362,"▁အကြံ":1363,"▁အဲ့တော့":1364,"▁သဘောထား":1365,"မားဆုံး":1366,"▁ငွေကြေး":1367,"▁ပြင်ဆင်":1368,"▁ယောက်ျားလေး":1369,"▁မူတည်":1370,"▁သည်းခံ":1371,"▁မကျေမနပ်":1372,"ခွက်":1373,"ဂါ":1374,"စွဲ":1375,"တက":1376,"သိမ်း":1377,"▁ကစား":1378,"▁ပို့":1379,"▁ရွာ":1380,"▁နု":1381,"▁နင့်":1382,"▁နဂို":1383,"▁ခိုင်":1384,"▁ထိုး":1385,"ချစ်":1386,"▁ကျယ်":1387,"▁စိတ်မ":1388,"▁ခုနှစ်":1389,"▁ပြန်လည်":1390,"▁မြန်မာ":1391,"▁တစ်ခုခု":1392,"▁ချက်ချင်း":1393,"▁သစ်ရွက်":1394,"▁ရွေးချယ်မှု":1395,"▁အင်အား":1396,"▁အနေနဲ့":1397,"▁အကြီးမားဆုံး":1398,"▁သာမန်":1399,"ခွာ":1400,"ပတ်":1401,"ရဲ့":1402,"▁တုံ့":1403,"▁မာ":1404,"▁မုန်း":1405,"▁တောက်":1406,"▁ဆန်":1407,"▁ဖုန်း":1408,"▁တစ်ရာ":1409,"ကြွ":1410,"▁ချို":1411,"▁ပျော့":1412,"▁မင်းသား":1413,"▁ဘာလို့":1414,"▁မြေ":1415,"▁မြန်":1416,"▁စကားပြော":1417,"▁အပြု":1418,"▁ယုံကြည်ချက်":1419,"▁သဘာဝ":1420,"▁မျက်စိ":1421,"▁အသိပညာ":1422,"▁ပင်လယ်":1423,"▁ငယ်ငယ်":1424,"▁ရိုးရှင်း":1425,"▁ကြီးပွား":1426,"▁တစ်သက်တာ":1427,"▁စွမ်းအား":1428,"▁လျော့":1429,"ခွဲ":1430,"တောင်း":1431,"နူး":1432,"မကျ":1433,"အတ":1434,"အင်":1435,"အပျက်":1436,"ဥ်း":1437,"ွံ":1438,"▁တမာ":1439,"▁အမျှ":1440,"▁ရွက်":1441,"▁နိုး":1442,"▁စိုက်":1443,"▁ဖမ်း":1444,"▁ထောင်":1445,"▁တစ်မျိုး":1446,"▁စိတ်နေ":1447,"▁အတော်":1448,"ပြည့်":1449,"▁အကြိမ်":1450,"▁လှမ်း":1451,"▁ဒေါသထွက်":1452,"▁အဖြစ်အပျက်":1453,"▁တည်ဆ":1454,"▁စီးပွား":1455,"▁ပျက်စီး":1456,"▁ဖော်ပြ":1457,"▁ငြီးတွား":1458,"▁လွှဲ":1459,"▁သိမ်ငယ်":1460,"▁ကဲ့ရဲ့":1461,"▁ချို့ယွင်း":1462,"▁တုံ့ပြန်":1463,"ဆပ်":1464,"မစိုက်":1465,"သိ":1466,"သပ်":1467,"▁မြင်း":1468,"▁လင်း":1469,"▁အံ့":1470,"▁ရသ":1471,"▁သယ်":1472,"▁သန့်":1473,"▁သနား":1474,"▁ခွန်း":1475,"▁ဆိတ်ဆိတ်":1476,"▁ဖက်":1477,"▁ကြို":1478,"▁ကြက်":1479,"▁ရှုပ်":1480,"▁ရှိရှိ":1481,"▁ဖြစ်ပေါ်":1482,"▁ချော":1483,"ပြား":1484,"▁မြှ":1485,"▁ထက်မြက်":1486,"▁ညှ":1487,"▁ပုံပြင်":1488,"▁ရာထူး":1489,"▁ဆရာမ":1490,"▁ဗီ":1491,"▁ဇွဲ":1492,"▁ရုပ်ရှင်":1493,"▁ထူးခြား":1494,"▁သီချင်း":1495,"▁ရုန်းကန်":1496,"▁ဂျပန်":1497,"▁စိတ်ချမ်းသာ":1498,"▁စိတ်ဖိစီးမှု":1499,"▁ညံ့ဖျင်း":1500,"▁ရည်ရွယ်ချက်":1501,"▁တည်ဆောက်":1502,"ခို":1503,"တွဲ":1504,"နီ":1505,"နိမ့်":1506,"ဘော":1507,"ယော":1508,"ယှက်":1509,"လင်":1510,"သုံး":1511,"သည်":1512,"အိမ်":1513,"ူအ":1514,"▁ပိတ်":1515,"▁အုပ်":1516,"▁ရုတ်":1517,"▁ရိုက်":1518,"▁စော":1519,"▁စုံ":1520,"▁ဆဲ":1521,"▁ထမင်း":1522,"ကြိမ်":1523,"▁ချည်း":1524,"မြှ":1525,"▁နှိုင်း":1526,"▁ပေးဆပ်":1527,"▁လက်ဆောင်":1528,"နှုန်း":1529,"▁အပျက်":1530,"▁အပြော":1531,"▁အပြည့်":1532,"ပျို":1533,"▁အများစု":1534,"▁ဖြတ်ကျော်":1535,"▁ကြာကြာ":1536,"▁ယူဆ":1537,"▁ရုပ်ရည်":1538,"▁ခါး":1539,"▁တာဝန်ယူ":1540,"▁ဆောင်းပါး":1541,"▁အာရုံစိုက်":1542,"▁ပထမဆုံး":1543,"▁အတွေးအခေါ်":1544,"ခွင်":1545,"ဆော်":1546,"တုံး":1547,"ပယ်":1548,"ပိုး":1549,"ဘေး":1550,"မီ":1551,"မလေး":1552,"ယဉ်":1553,"အေး":1554,"ီအ":1555,"္တ":1556,"▁တပ်":1557,"▁ပေ":1558,"▁မည်":1559,"▁ရောင်း":1560,"▁နီး":1561,"▁မှီ":1562,"▁ပြစ်":1563,"▁တောင့်":1564,"▁ထောင့်":1565,"▁နေရောင်":1566,"▁ချန်":1567,"▁အဲလို":1568,"▁ကျွန်ုပ်":1569,"▁နောက်ထပ်":1570,"▁မြတ်":1571,"ွယ်ဝ":1572,"▁လှုပ်ရှား":1573,"▁အဖိုး":1574,"▁နားမ":1575,"▁ရောဂါ":1576,"▁ရေးသား":1577,"▁လုံလောက်":1578,"▁ဂရုမစိုက်":1579,"▁သံယော":1580,"▁အသုံးချ":1581,"▁စည်းကမ်း":1582,"▁သံယောဇ":1583,"ကွက်":1584,"ခတ်":1585,"စစ်":1586,"စည်း":1587,"ဆရာ":1588,"ထိုး":1589,"နဲ":1590,"ဖျက်":1591,"ဘတ်":1592,"မော":1593,"မြစ်":1594,"သောက်":1595,"▁တွဲ":1596,"▁တွန့်":1597,"▁ကုသ":1598,"▁မီ":1599,"▁လိပ်":1600,"▁သမီး":1601,"▁ခိုင်း":1602,"▁စူ":1603,"▁ဆုပ်":1604,"▁ဖျက်":1605,"▁ဟို":1606,"▁ကျွန်း":1607,"▁နောက်ပိုင်း":1608,"▁အားနည်း":1609,"▁အားဖြင့်":1610,"ဖြိုး":1611,"▁စာပ":1612,"▁အကြာ":1613,"▁အစွမ်း":1614,"▁လုံးဝ":1615,"▁စစ်မှန်":1616,"▁အမှန်တရား":1617,"▁ထုတ်ဖော်":1618,"▁ဆုံးဖြတ်ချက်":1619,"▁မကြာခဏ":1620,"▁နှိုင်းယ":1621,"ဆင့်":1622,"တနာ":1623,"နီး":1624,"ပိ":1625,"မူ":1626,"မိုက်":1627,"ယို":1628,"ရံ":1629,"လံ":1630,"လွှ":1631,"လဒ်":1632,"သောင်း":1633,"အထ":1634,"▁တွန်း":1635,"▁ကယ်":1636,"▁မက်":1637,"▁ရလဒ်":1638,"▁နွေ":1639,"▁သစ္စာ":1640,"▁စို့":1641,"▁ထူ":1642,"▁ထောက်":1643,"ိုးထောင်":1644,"▁မျောက်":1645,"▁ကိုယ်ချင်း":1646,"▁ကိုယ်စီ":1647,"ပြာ":1648,"▁ငြိမ်":1649,"▁ကောင်းကင်":1650,"▁အရင်း":1651,"▁အရောင်":1652,"▁လှေ":1653,"▁တွေ့ကြုံ":1654,"▁အထက်":1655,"▁အမြင့်":1656,"▁လျှော့":1657,"▁ရာသီ":1658,"က္ခာ":1659,"▁မိန်းမ":1660,"▁အမှန်တက":1661,"▁အမျိုးမျိုး":1662,"▁စိတ်ကူးယဉ်":1663,"▁ဖန်ခွက်":1664,"▁အတွေ့ကြုံ":1665,"▁လွတ်လပ်":1666,"အမူ":1667,"▁အားကိုး":1668,"▁ဒဏ်ရာ":1669,"▁ဆင်ခြင်":1670,"▁တောက်ပ":1671,"▁နှိုင်းယှဉ်":1672,"▁အမှန်တကယ်":1673,"ကောင်":1674,"ခိုး":1675,"ငါ":1676,"ဆေး":1677,"ဆုံ":1678,"ဆွတ်":1679,"ဏီ":1680,"တဲ့":1681,"နု":1682,"နတ်":1683,"ပွင့်":1684,"ပေါင်း":1685,"ပဏီ":1686,"မို":1687,"မတ်":1688,"ရုတ်":1689,"ဝဲ":1690,"ဝတ်":1691,"အောင်":1692,"▁ကနေ့":1693,"▁လင်":1694,"▁လက္ခ":1695,"▁အရှ":1696,"▁နိ":1697,"▁နစ်":1698,"▁စူး":1699,"▁စိန်":1700,"▁ပြုတ်":1701,"▁ဆန်း":1702,"▁ဖယ်":1703,"▁ကြွယ်ဝ":1704,"▁ထာဝ":1705,"▁တစ်စုံ":1706,"▁ဟော":1707,"▁ကျင့်":1708,"▁လူမှု":1709,"▁ရင်ဘတ်":1710,"▁အတင်း":1711,"ိုင်းစ":1712,"▁အလေ့":1713,"▁အရက်":1714,"▁ကြီးကြီး":1715,"▁ကြီးကျယ်":1716,"▁အပေါင်း":1717,"▁အဖေ့":1718,"တိယ":1719,"▁လမ်းကြောင်း":1720,"▁နေ့စဉ်":1721,"မ္ပဏီ":1722,"▁ထိန်းသိမ်း":1723,"စိတ်ထား":1724,"▁အိုမင်း":1725,"ဝါး":1726,"▁ရှင်းပြ":1727,"▁ကာလ":1728,"▁ရှုံးနိမ့်":1729,"▁သို့သ":1730,"▁ကုမ္ပဏီ":1731,"▁ပျော့ညံ့":1732,"▁အပြုအမူ":1733,"▁စိတ်နေစိတ်ထား":1734,"ပြည့်စုံ":1735,"▁ကိုယ်ချင်းစာ":1736,"▁လက္ခဏာ":1737,"▁ထာဝရ":1738,"ကသ":1739,"ငွေ":1740,"ဆုပ်":1741,"တံ":1742,"တန့်":1743,"ထင်":1744,"ထန်":1745,"နောင်း":1746,"မွေ့":1747,"ရစ်":1748,"လော":1749,"ဝိုင်း":1750,"အကိုင်":1751,"္ကသ":1752,"▁မြစ်":1753,"▁သီး":1754,"ားအ":1755,"▁ခလ":1756,"▁စဥ်း":1757,"▁ထနောင်း":1758,"▁ချမ်း":1759,"▁ချီးကျ":1760,"▁ကျောက်":1761,"▁ကျော်လ":1762,"▁လဲကျ":1763,"▁လူကြီး":1764,"▁စိတ်ပျက်":1765,"ပြီး":1766,"ပြည်":1767,"လိုက်":1768,"ရှာ":1769,"ရှောက်":1770,"▁အလွယ်":1771,"▁ခုနစ်":1772,"▁ဝတ္ထု":1773,"▁အရသာ":1774,"▁သိမ်း":1775,"▁အားကျ":1776,"▁ပျော်ပျော်":1777,"▁မြို့":1778,"▁တက္ကသ":1779,"▁ဖြည့်":1780,"▁အပင်":1781,"▁အလုပ်သမား":1782,"ပျောက်":1783,"▁နေ့တိုင်း":1784,"▁အစီအ":1785,"▁သတိပေး":1786,"▁ကိစ္စရပ်":1787,"ဆက်ဆံ":1788,"▁စောင့်ရှောက်":1789,"▁စွန့်စား":1790,"▁ကောင်လေး":1791,"▁စိတ်ဓာတ်ကျ":1792,"▁သီလ":1793,"▁ကြည်နူး":1794,"▁အားကစား":1795,"▁သာယာမှု":1796,"▁ရွှေ":1797,"▁အလေးထား":1798,"▁စီးပွားရေး":1799,"▁အံ့ဩ":1800,"▁သံယောဇဉ်":1801,"▁ဆုပ်ကိုင်":1802,"▁စိန်ခေါ်":1803,"▁သို့သော်":1804,"▁ချီးကျူး":1805,"▁တက္ကသိုလ်":1806,"ငြ":1807,"စမ်း":1808,"တိုး":1809,"ရင့်":1810,"ဝှက်":1811,"သစ်":1812,"ျော်":1813,"▁ကော":1814,"▁ကရု":1815,"▁ပိုင်း":1816,"▁မုန်":1817,"▁မနေ့":1818,"▁ကိုချစ်":1819,"▁ပြည်":1820,"▁ဖခင်":1821,"▁ဖွံ့":1822,"▁တစ်လျှောက်":1823,"▁ပြီးပြည့်စုံ":1824,"▁ဖြစ်ပျက်":1825,"▁ဟန်":1826,"ကျေး":1827,"ပြေး":1828,"▁ငရုတ်":1829,"▁လုပ်ကိုင်":1830,"ွှေး":1831,"▁ဝတ်":1832,"▁အကြည့်":1833,"▁လေလေ":1834,"▁လှုံ့":1835,"▁ထက်မြတ်":1836,"▁လောကကြီး":1837,"တ္တ":1838,"▁သဘောကျ":1839,"▁အနု":1840,"မ္မ":1841,"ဝင်စား":1842,"▁သက်ဆိုင်":1843,"▁တိုက်ပွဲ":1844,"▁ကောင်မလေး":1845,"▁ငြိမ်း":1846,"▁အေးချမ်း":1847,"▁တောင်းဆို":1848,"▁လွမ်းဆွတ်":1849,"▁နှုတ်ဆက်":1850,"▁ဝန်ထ":1851,"▁အနည်းငယ်":1852,"▁မှီခို":1853,"▁နားမလည်":1854,"▁လိပ်ပြာ":1855,"▁စဥ်းစား":1856,"▁အစီအစဉ်":1857,"▁ကရုဏာ":1858,"▁မုန်တိုင်း":1859,"▁ဖွံ့ဖြိုး":1860,"▁ငရုတ်သီး":1861,"▁လှုံ့ဆော်":1862,"ကဲ":1863,"ကင်း":1864,"တဆ":1865,"တွယ်":1866,"တရက်":1867,"မိုး":1868,"ယား":1869,"ရယ်":1870,"လစ်":1871,"လောင်":1872,"သင့်":1873,"သိမ့်":1874,"အစား":1875,"အရွယ်":1876,"ွပ်":1877,"▁ဓ":1878,"▁နယ်":1879,"▁နိမ့်":1880,"▁သွေး":1881,"▁သုတ":1882,"▁ခန့်":1883,"▁ခွာ":1884,"▁ပါရ":1885,"▁စက်":1886,"▁ပြေ":1887,"▁ပြိုင်":1888,"▁ဖေ":1889,"▁တစ်ကိုယ်":1890,"▁ဖြစ်ချင်":1891,"ည်းစား":1892,"မ်းနား":1893,"စားပေး":1894,"မြူ":1895,"မြေ့":1896,"▁အခြ":1897,"▁ပျိုးထောင်":1898,"ဒီယို":1899,"▁အသေး":1900,"▁အသည်း":1901,"▁မိနစ်":1902,"ခြောက်":1903,"ရွှင်ရွှင်":1904,"▁ဖြောင့်":1905,"နှက်":1906,"နှလုံး":1907,"▁ပျော်ရွှင်ခြင်း":1908,"▁အလုပ်အကိုင်":1909,"သက်သာ":1910,"▁ဦးစားပေး":1911,"▁အကြောင်းပြ":1912,"▁ထင်မြင်":1913,"▁အကောင်းမြင်":1914,"▁သားသမီး":1915,"▁ပုံမှန်":1916,"▁အသက်အရွယ်":1917,"▁အရေးပါ":1918,"▁ဒုတိယ":1919,"မ္မာ":1920,"▁ဝင်ငွေ":1921,"▁အကူအ":1922,"▁အမျိုးသား":1923,"▁လွယ်ကူ":1924,"ခါး":1925,"▁ပါးစပ်":1926,"▁တစ်ဖက်သား":1927,"▁ကြည်လင်":1928,"▁နာမည်ကြီး":1929,"▁ဇာတ်လမ်း":1930,"▁ကြမ်းတမ်း":1931,"▁ရှည်လျား":1932,"▁ရုတ်တရက်":1933,"▁အပေါင်းအ":1934,"▁အကူအညီ":1935,"ကီး":1936,"ကွန်း":1937,"ဆောင်း":1938,"တု":1939,"တပ်":1940,"ဒ္":1941,"ပံ":1942,"မိ":1943,"မိုင်း":1944,"မကောင်း":1945,"မခံ":1946,"အို":1947,"ာန်":1948,"▁တိ":1949,"▁တီ":1950,"▁တား":1951,"▁တင်း":1952,"▁တိတ်":1953,"▁ကပ်":1954,"▁ကတိ":1955,"▁ပွဲ":1956,"▁မရ":1957,"▁မု":1958,"▁အဘ":1959,"▁သမိုင်း":1960,"▁တွေဝေ":1961,"▁ဆော့":1962,"▁ဖိ":1963,"▁ချီ":1964,"▁ချုပ်":1965,"ည်းဖြည်း":1966,"▁စိတ်နှလုံး":1967,"▁ဘာလဲ":1968,"▁ဘာ့ကြောင့်":1969,"▁ပေါ့ပါး":1970,"▁အားထုတ်":1971,"▁မြက်":1972,"▁ဖြည်းဖြည်း":1973,"▁လှူ":1974,"▁လှောင်":1975,"▁အထူး":1976,"▁တက်ကြွ":1977,"▁ဗဟ":1978,"▁ငယ်ရွယ်":1979,"▁ရိုးရိုး":1980,"▁ကျန်ရစ်":1981,"ရိကန်":1982,"▁အစားအ":1983,"▁ခြေလှမ်း":1984,"▁ကာကွယ်":1985,"▁မြင့်မြတ်":1986,"▁ဆုံတွေ့":1987,"▁အမေရိကန်":1988,"▁ကွာခြား":1989,"▁မောပန်း":1990,"▁စာရေးသူ":1991,"▁ပေါင်းသင်းဆက်ဆံ":1992,"▁လက်မခံ":1993,"▁တိုတောင်း":1994,"▁ကတည်းက":1995,"▁ခံယူချက်":1996,"▁လျော့နည်း":1997,"▁ချို့ယွင်းချက်":1998,"▁ပြစ်တင်":1999,"▁ချမ်းမြေ့":2000,"▁အနုပညာ":2001,"▁ငြိမ်းချမ်း":2002,"▁ဖေဖ":2003,"ဒ္ဓ":2004,"ခုန်":2005,"စော":2006,"စရိုက်":2007,"ဇာ":2008,"ဇူ":2009,"တကူ":2010,"ထွင်":2011,"ပို့":2012,"ပြင်း":2013,"ရော":2014,"ရမ်း":2015,"ရွံ့":2016,"လွဲ":2017,"လွယ်":2018,"သော":2019,"သနာ":2020,"ဟာ":2021,"ျင်":2022,"▁၍":2023,"▁ဓာတ်":2024,"▁တပ":2025,"▁တိုင်":2026,"▁မတော်":2027,"▁မနာ":2028,"▁မရှိ":2029,"▁အရှိ":2030,"▁အဝေး":2031,"▁ရအောင်":2032,"▁သရ":2033,"▁ခပ်":2034,"▁စနစ်":2035,"▁စရိုက်":2036,"▁ကြွေ":2037,"▁ထမ်း":2038,"▁တစ်ဆယ်":2039,"▁စိတ်ပိုင်း":2040,"▁စိတ်ဝင်စား":2041,"▁လိုက်နာ":2042,"ပြောင်":2043,"▁ငပိ":2044,"မြော":2045,"မျက်":2046,"▁နှမြော":2047,"ခြေ":2048,"▁နှစ်ဆယ့်":2049,"▁နှစ်သိမ့်":2050,"▁နောက်ပြီး":2051,"▁အားမ":2052,"▁မြောက်":2053,"▁လက်ဖက်":2054,"▁တွေ့မြင်":2055,"▁တွေ့ဆုံ":2056,"▁ကြိုးစားမှု":2057,"▁အမြန်":2058,"▁ညီ":2059,"▁သေနတ်":2060,"▁မျက်လုံး":2061,"▁ပြည့်ဝ":2062,"▁ဗု":2063,"▁ရဲရဲ":2064,"▁ဥစ္စာ":2065,"▁ပန်းတိုင်":2066,"▁အကျိုးရှိ":2067,"▁အသုံးပြု":2068,"▁ကိုးရာ":2069,"▁မွေးမြူ":2070,"▁ရှုခင်း":2071,"လျော့":2072,"▁တစ်နေ့နေ့":2073,"▁တစ်ဖက်လူ":2074,"▁စုဆောင်း":2075,"▁ဝါသနာ":2076,"ေသန":2077,"▁ကင်းမဲ့":2078,"▁ပျင်းရိ":2079,"▁သန့်ရှင်း":2080,"▁ရှုပ်ထွေး":2081,"▁စောစော":2082,"▁မြတ်နိုး":2083,"▁စူဇူ":2084,"▁စာပေ":2085,"▁လင်ကွန်း":2086,"▁အလွယ်တကူ":2087,"▁ပျော်ပျော်ရွှင်ရွှင်":2088,"▁သုတေသန":2089,"▁ဖြစ်ချင်စိတ်":2090,"▁အပေါင်းအသင်း":2091,"▁မနာလို":2092,"▁စူဇူကီး":2093,"ကောက်":2094,"ကိုး":2095,"ငွေ့":2096,"ဆုတ်":2097,"တတ်":2098,"တွက်":2099,"ဒနာ":2100,"နွမ်း":2101,"ဖောက်":2102,"ဖွား":2103,"မတန်":2104,"ယောင်":2105,"ရွာ":2106,"လီ":2107,"သဘော":2108,"အထား":2109,"▁တွက်":2110,"▁ကောက်":2111,"▁မဖြစ်":2112,"▁လောင်":2113,"▁လျက်":2114,"▁ရုံး":2115,"▁သမား":2116,"▁သတင်း":2117,"▁ခိုး":2118,"▁ဘုန်း":2119,"▁စပ်":2120,"▁ဆန္ဒ":2121,"▁ဖေး":2122,"ချွန်":2123,"▁ရှက်":2124,"▁လိုလို":2125,"ကြံ့":2126,"န်းဆန်း":2127,"ရာယ်":2128,"▁ကျွေး":2129,"▁စိတ်ဆင်း":2130,"▁ဒါဆို":2131,"မြင့်":2132,"ရှု":2133,"▁ကောင်းကျိုး":2134,"▁အသင့်":2135,"▁အရပ်":2136,"▁နောက်ကျ":2137,"▁စာရွက်":2138,"▁ဖြုန်း":2139,"▁ချစ်မြတ်":2140,"▁ချစ်ခင်":2141,"▁အကြောင်းတရား":2142,"▁အောင်မြင်ခြင်း":2143,"▁အပြီး":2144,"▁အဆို":2145,"▁မျှော်":2146,"▁ထွက်သွား":2147,"▁ရာခိုင်":2148,"မျှော်":2149,"▁သတိပြု":2150,"▁အရေးမ":2151,"ပင်ပန်း":2152,"▁အသိအ":2153,"▁ဝမ်းသာ":2154,"▁ပြုစု":2155,"▁ပြုပြင်":2156,"▁တစ်ခါတစ်":2157,"▁ဝေဒနာ":2158,"▁ရပ်တန့်":2159,"▁လွယ်လွယ်":2160,"▁အင်မတန်":2161,"▁မှတ်သား":2162,"လျှော့":2163,"▁အနေအထား":2164,"ုသုတ":2165,"▁ကြံ့ကြံ့":2166,"▁အဆုံးသတ်":2167,"▁အထင်ကြီး":2168,"▁ဆွဲဆောင်":2169,"သေချာ":2170,"▁အဖော်ပြု":2171,"▁နွေးထွေးမှု":2172,"▁အမှတ်တရ":2173,"▁ထိုက်တန်":2174,"▁အကြိမ်ကြိမ်":2175,"▁လင်းလက်":2176,"▁လှေကား":2177,"▁တစ်စုံတစ်":2178,"▁အကြောင်းပြချက်":2179,"▁ဗဟုသုတ":2180,"▁တပည့်":2181,"▁မတော်တဆ":2182,"▁လက်ဖက်ရည်":2183,"▁ဗုဒ္ဓ":2184,"▁ဖေးမ":2185,"▁စိတ်ဆင်းရဲ":2186,"▁ချစ်မြတ်နိုး":2187,"▁ရာခိုင်နှုန်း":2188,"ကိုင်း":2189,"စောင့်":2190,"စဥ်":2191,"ဆည်း":2192,"ဆိပ်":2193,"ဌေး":2194,"တီ":2195,"တိတ်":2196,"ထိန်း":2197,"နွေး":2198,"ပု":2199,"ပို":2200,"ပစ်":2201,"ဘက်":2202,"လုံ":2203,"လွတ်":2204,"ဝတ္ထု":2205,"သွင်း":2206,"ဟစ်":2207,"▁တုံး":2208,"ောရီး":2209,"▁ပွေ့":2210,"▁မောင်း":2211,"▁မွှေး":2212,"▁အစ်":2213,"▁အပ်":2214,"▁အညာ":2215,"▁ရည်းစား":2216,"▁သတ":2217,"▁ခမ်းနား":2218,"▁ဆူ":2219,"▁ဆောရီး":2220,"▁ဖောက်":2221,"▁ဖွယ်":2222,"▁ဖျား":2223,"▁ထိပ်":2224,"ချောင်း":2225,"▁သူဌေး":2226,"▁ဟေ့":2227,"ရာပါ":2228,"▁ကျုပ်":2229,"ကျူ":2230,"ကျောင်း":2231,"ပြုတ်":2232,"▁ယောင်":2233,"▁ဒီတော့":2234,"မြန်":2235,"▁လုပ်ရပ်":2236,"ိုင်းအ":2237,"▁နှိမ့်":2238,"▁ပေးကမ်း":2239,"▁စေတနာ":2240,"▁ဝက်":2241,"▁ပိုမို":2242,"▁အားငယ်":2243,"▁အားအင်":2244,"▁မြဲ":2245,"▁ဖြင့်":2246,"▁ချစ်ခြင်း":2247,"▁တကယ်တော့":2248,"▁တကယ်လို့":2249,"▁သေးသေး":2250,"▁အကြောင်းရင်း":2251,"▁အပြေး":2252,"▁တွေးခေါ်":2253,"▁ညည်း":2254,"▁အိပ်ရာ":2255,"▁အိပ်စက်":2256,"▁သေဆုံး":2257,"▁အစိုးရ":2258,"လှုပ်ရှား":2259,"▁အန္တ":2260,"▁ဆရာတော်":2261,"▁ဆရာဝန်":2262,"▁အသက်ကြီး":2263,"▁တူညီ":2264,"▁နားလည်မှု":2265,"▁စစ်သား":2266,"▁စစ်တပ်":2267,"▁သက်သာ":2268,"▁ခင်မင်":2269,"▁တိုးတက်မှု":2270,"ငြိမ်ငြိမ်":2271,"▁မွေးရာပါ":2272,"▁စွမ်းရည်":2273,"ပိုင်ခွင့်":2274,"▁ခြေထောက်":2275,"▁ပုဒ်":2276,"▁အထင်သေး":2277,"▁အရွယ်ရောက်":2278,"▁အကျင့်စရိုက်":2279,"▁အမုန်းတရား":2280,"▁ပြင်းပြ":2281,"▁စာရေးဆရာ":2282,"▁ဝါဿနာ":2283,"▁ပြတ်သား":2284,"▁စမ်းသပ်":2285,"▁ဆင်ခြေ":2286,"ညှိုး":2287,"▁နုပျို":2288,"▁ခိုင်မာ":2289,"▁ဖမ်းဆုပ်":2290,"▁ဗီဒီယို":2291,"▁စူးစမ်း":2292,"▁ကျော်လွှား":2293,"▁အခြား":2294,"▁အစားအစာ":2295,"မျက်နှာ":2296,"သဘောထား":2297,"▁အသိအမှတ်":2298,"▁ကြံ့ကြံ့ခံ":2299,"▁ပွေ့ဖက်":2300,"▁အန္တရာယ်":2301,"ခုံ":2302,"စကား":2303,"ညွှ":2304,"တောင်":2305,"တွေး":2306,"တွင်း":2307,"ထွေ":2308,"နုံ့":2309,"ပမ်း":2310,"ပစ္စ":2311,"ဖူး":2312,"ဘဝ":2313,"မံ":2314,"မပြု":2315,"လန့်":2316,"ဝက်":2317,"သွေး":2318,"ိန့်":2319,"▁ဧ":2320,"▁တမ်း":2321,"▁တအား":2322,"▁ကွန်":2323,"▁ကွေ့":2324,"ောလုံး":2325,"▁လည်":2326,"▁လိမ်":2327,"▁လန်းဆန်း":2328,"▁အံ":2329,"▁အိတ်":2330,"▁အဝတ်":2331,"▁ရို":2332,"▁ခူး":2333,"▁ခရမ်း":2334,"▁ပါ့":2335,"ို့ဝှက်":2336,"▁ဘောလုံး":2337,"▁စင်":2338,"▁စလုံး":2339,"▁စမြဲ":2340,"▁ကြယ်":2341,"ောက်တရား":2342,"ချဉ်":2343,"▁သူတော်":2344,"▁ဒေါ်":2345,"▁ဒေသ":2346,"▁လူနာ":2347,"▁စိတ်ထား":2348,"▁စိတ်အား":2349,"▁အတတ်":2350,"ပြိုင်":2351,"▁အခန်း":2352,"ောင့်သက်သာ":2353,"▁နှိပ်":2354,"▁ပျံ":2355,"▁အလကား":2356,"▁အရိပ်":2357,"▁ကြီးမြတ်":2358,"ခြည်":2359,"▁စာမျက်နှာ":2360,"▁အကြောက်တရား":2361,"နှံ":2362,"▁ရောက်လာ":2363,"▁ထက်သန်":2364,"▁လမ်းလျှောက်":2365,"▁လမ်းခွဲ":2366,"▁ကိုယ့်ကိုယ်ကိုယ်":2367,"▁နံဘေး":2368,"▁အမှောင်":2369,"အားဖြင့်":2370,"▁ဆုံးမ":2371,"▁သားကောင်":2372,"▁အိပ်ရေး":2373,"လှယ်":2374,"▁အမေ့":2375,"ဝန်ပိုး":2376,"▁ကံမကောင်း":2377,"▁သက်ရောက်":2378,"ယာမ":2379,"▁ခရီးသွား":2380,"▁တစ်သက်လုံး":2381,"▁ပျောက်ဆုံး":2382,"▁စီးဆင်း":2383,"▁ဆက်ဆံရေး":2384,"▁ဉာဏ်စွမ်း":2385,"▁မျက်ရည်ကျ":2386,"▁တောင်းပန်":2387,"▁အလှူ":2388,"ကာလ":2389,"▁ဝေးဝေး":2390,"▁မန်ကျည်းပင်":2391,"▁ငြင်းပယ်":2392,"▁ပေါက်ကွဲ":2393,"▁ပြင်းထန်":2394,"▁တံခါး":2395,"▁အလွန်အ":2396,"▁ဆောင်ရွက်":2397,"▁အနားယူ":2398,"▁နေရောင်ခြည်":2399,"▁အားနည်းချက်":2400,"▁ကယ်တင်":2401,"▁တီထွင်":2402,"▁ဖြည်းဖြည်းချင်း":2403,"▁ပေါင်းသင်းဆက်ဆံရေး":2404,"▁ဘုန်းကြီး":2405,"▁သတိမ":2406,"▁အသိအမှတ်ပြု":2407,"ဂ္ဂ":2408,"ငှက်":2409,"စွန်":2410,"ဆွဲ":2411,"ဆန္ဒ":2412,"တွန်း":2413,"ထစ်":2414,"ဒေ":2415,"ပိုက်":2416,"ဖ်":2417,"မ်":2418,"မေ့":2419,"မလစ်":2420,"ရို":2421,"လန်":2422,"လတ်":2423,"ဝယ်":2424,"ဝံ့":2425,"သို့":2426,"အလဲ":2427,"အမြင်":2428,"အဖြတ်":2429,"အလက်":2430,"အတန်း":2431,"ုပ္":2432,"▁တန်း":2433,"▁တခါ":2434,"▁ကန့်":2435,"င်္ဂ":2436,"▁လု":2437,"▁လွင့်":2438,"▁ရူး":2439,"▁နက်":2440,"စ်လျ":2441,"▁ခွေး":2442,"▁ဘောင်":2443,"▁ပြသ":2444,"▁ပြို":2445,"▁ဆံ":2446,"▁ဆောက်":2447,"▁ဖျ":2448,"▁ကြွား":2449,"▁ထို":2450,"▁သူရဲ":2451,"ုပ်ဝန်ပိုး":2452,"▁ချေ":2453,"ပြန့်":2454,"▁ငှက်":2455,"▁ဒီလောက်":2456,"မြေ":2457,"▁လေးနက်":2458,"▁လေးလံ":2459,"▁နှင်း":2460,"▁နှောင့်":2461,"▁အဲတော့":2462,"▁ဝိုင်း":2463,"▁အသေ":2464,"▁အသား":2465,"▁အရွက်":2466,"ခြင်":2467,"▁အားနာ":2468,"သားသား":2469,"▁စာရင်း":2470,"▁လှလှ":2471,"▁အမြတ်":2472,"▁ဆက်စပ်":2473,"▁ထွက်ခွာ":2474,"▁ထွက်ပြေး":2475,"▁အိပ်ပျော်":2476,"▁သေသေချာ":2477,"▁အနီး":2478,"လာဒ်":2479,"▁သစ်ကိုင်း":2480,"▁ပြည့်နှက်":2481,"▁ဗိုက်":2482,"▁အကောင်":2483,"▁ကံဆိုး":2484,"▁စောင့်မျှော်":2485,"▁ခြံ":2486,"▁သက်သက်":2487,"▁အရင်ဆုံး":2488,"▁ငါးဆယ်":2489,"▁မှားယွင်း":2490,"မွန်မွန်":2491,"▁အင်္ဂ":2492,"▁ကျေးဇူးတရား":2493,"▁သံသ":2494,"နှစ်သက်":2495,"▁မှတ်မိ":2496,"ဝါဒ":2497,"▁ရှင်းရှင်း":2498,"▁ရှောင်ရှား":2499,"▁ရှောင်လွှ":2500,"▁ကောင်းကောင်းမွန်မွန်":2501,"▁အေးစက်":2502,"▁အဆုံးအဖြတ်":2503,"▁ခွဲခြား":2504,"▁ဉာဏ်ရည်":2505,"▁သို့မဟုတ်":2506,"▁အဆင့်အတန်း":2507,"▁ကျရှုံးခြင်း":2508,"▁စီမံ":2509,"▁ဂုဏ်ယူ":2510,"▁အဆိုးဆုံး":2511,"▁အနိုင်ကျင့်":2512,"▁အော်ဟစ်":2513,"▁ရွက်နု":2514,"သိက္ခာ":2515,"▁ညှိ":2516,"နီမလစ်":2517,"▁အပျက်ဆောင်":2518,"▁အဖိုးတန်":2519,"▁တွန့်ဆုတ်":2520,"▁မီနီမလစ်":2521,"▁ဖျက်ဆီး":2522,"အထည်":2523,"▁နိယာမ":2524,"▁ကောလိပ်":2525,"▁ဝန်ထုပ်ဝန်ပိုး":2526,"▁လှုံ့ဆော်မှု":2527,"▁ခန့်မှန်း":2528,"▁အသည်းကွဲ":2529,"▁တားဆီး":2530,"▁ဖေဖေ":2531,"ပစ္စည်း":2532,"▁သူရဲကောင်း":2533,"▁သေသေချာချာ":2534,"▁ရှောင်လွှဲ":2535,"▁မီနီမလစ်ဆင်":2536,"ကွင်း":2537,"စေ့":2538,"ဆိုင်း":2539,"တွေ":2540,"တောက်":2541,"တင့်":2542,"တည့်":2543,"တိမ်":2544,"ထွန်း":2545,"နွယ်":2546,"ဖမ်း":2547,"ဗျာ":2548,"မရှိ":2549,"မွှား":2550,"လွင့်":2551,"ဝိ":2552,"သင်":2553,"သွယ်":2554,"အိပ်":2555,"အခါ":2556,"အကျင့်":2557,"အဝေး":2558,"ူတာ":2559,"္ကျ":2560,"▁ညာ":2561,"▁တည့်":2562,"▁တိမ်":2563,"▁တမင်":2564,"▁ကုတ်":2565,"▁ကဗျာ":2566,"▁ပယ်":2567,"▁မူး":2568,"▁မောင်":2569,"▁မလို့":2570,"▁လစာ":2571,"▁အိုင်":2572,"▁အမှု":2573,"▁အနှ":2574,"▁အနှစ်":2575,"▁ရပိုင်ခွင့်":2576,"▁နတ်":2577,"▁နွမ်း":2578,"▁သဝန်":2579,"▁ခဲ":2580,"▁ခန်း":2581,"▁မှောင်":2582,"▁စဉ်":2583,"▁စိမ်း":2584,"▁ပြာ":2585,"▁ဆု":2586,"▁ထွန်း":2587,"ချို":2588,"ချဲ့":2589,"▁ဆိုတော့":2590,"▁တစ်ပါး":2591,"▁တစ်ကြိမ်":2592,"▁တစ်ဆင့်":2593,"▁တစ်သောင်း":2594,"ော်ရီ":2595,"ကြပ်":2596,"ကြိုး":2597,"ကြွေး":2598,"▁ဟူ":2599,"မှား":2600,"မ်းမိုး":2601,"▁ကျိုး":2602,"▁နိုင်စွမ်း":2603,"▁စိတ်ဝိ":2604,"▁လိုက်ဖက်":2605,"▁အတ္တ":2606,"▁လေးဆယ်":2607,"▁သင့်တော်":2608,"▁အလဟ":2609,"▁ခုန်":2610,"▁ခုခု":2611,"▁အရောက်":2612,"▁သိရှိ":2613,"▁နှစ်ဆယ်":2614,"▁အားထား":2615,"▁လှိုင်း":2616,"▁အပျော်":2617,"▁အဖွဲ့":2618,"▁တွေ့ရှိ":2619,"▁ထိရောက်":2620,"▁အကြောင်းရာ":2621,"▁ဆက်တိုက်":2622,"အားထုတ်":2623,"▁အစာ":2624,"▁အစွဲ":2625,"လှန်":2626,"▁ကြောက်စရာ":2627,"▁ကြောက်ရွံ့":2628,"▁အတွေးလွန်":2629,"▁အချက်အလက်":2630,"▁ရက်စက်":2631,"▁ဗိုလ်":2632,"▁စစ်ပွဲ":2633,"▁ကံတရား":2634,"▁ကုန်ဆုံး":2635,"▁ခြား":2636,"▁ငယ်ဘဝ":2637,"▁ရပ်တည်":2638,"▁တိုက်တွန်း":2639,"▁ခရီးလမ်း":2640,"▁အသုံးဝင်":2641,"နားလည်":2642,"▁ကမ္ဘာကြီး":2643,"▁ခေတ်စား":2644,"▁အကြီးအ":2645,"▁အစားထိုး":2646,"▁ဉာဏ်ပညာ":2647,"▁လေးစားမှု":2648,"▁ငိုကြွေး":2649,"▁ပုစွန်":2650,"▁ကြိုက်နှစ်သက်":2651,"▁ကျရှုံးမှု":2652,"▁ဂုဏ်သိက္ခာ":2653,"▁လွှမ်းမိုး":2654,"▁ကွဲပြား":2655,"▁မကြာခင်":2656,"▁အလင်းရောင်":2657,"▁အကုန်လုံး":2658,"▁ချောင်းဆိုး":2659,"▁တစ်ရာ့":2660,"▁မြန်မြန်":2661,"အတေး":2662,"▁သယ်ဆောင်":2663,"▁တောင့်တ":2664,"▁တွန့်တို":2665,"▁နစ်နာ":2666,"▁အလေ့အကျင့်":2667,"▁ခလော်ရီ":2668,"▁ဖြည့်ဆည်း":2669,"▁စိန်ခေါ်မှု":2670,"▁ဟန်ဆောင်":2671,"▁ဖြောင့်ဖြ":2672,"▁လှောင်ပြောင်":2673,"▁အထူးသဖြင့်":2674,"▁သရွေ့":2675,"▁ဒါဆိုရင်":2676,"▁အရေးမပါ":2677,"▁ဉာဏ်စွမ်းရည်":2678,"▁တခါတလေ":2679,"စ်လျူ":2680,"▁အကောင်အထည်":2681,"္ကျီ":2682,"စိမ်":2683,"ဆိတ်":2684,"ဆေ့":2685,"ဇီ":2686,"ဉ့်":2687,"ဌာ":2688,"တယ်":2689,"တဝါ":2690,"နောက်":2691,"နံ့":2692,"ပီ":2693,"ပေါ":2694,"ဖျား":2695,"ဖွဲ့":2696,"ဘု":2697,"မမြင်":2698,"မထား":2699,"ယက်":2700,"သိပ်":2701,"အသတ်":2702,"အဆာ":2703,"▁ကွ":2704,"▁ကင်":2705,"▁ကန်":2706,"ောညီ":2707,"▁ပန်":2708,"▁ပူး":2709,"▁မက":2710,"▁မင်္ဂ":2711,"▁လယ်":2712,"▁ရောင့်":2713,"▁ရထား":2714,"▁ရွတ်":2715,"▁ရလာဒ်":2716,"▁နူး":2717,"▁သို":2718,"▁ကိုက်":2719,"စ်နာ":2720,"▁ခေါက်":2721,"▁စစ":2722,"▁စံ":2723,"▁စိုး":2724,"▁ဆူး":2725,"▁ဆန့်":2726,"▁ဖာ":2727,"▁ဖုံး":2728,"▁ကြံ":2729,"ချီ":2730,"▁ရှေး":2731,"▁တစ်နည်း":2732,"င့်တင်":2733,"ောင်းအလဲ":2734,"ကြေ":2735,"ကြံ":2736,"ကြော":2737,"▁ချေး":2738,"▁ဟင်း":2739,"▁ကျော":2740,"▁ကျူး":2741,"▁ကျွမ်း":2742,"▁စိတ်သဘောထား":2743,"▁လိုက်လျ":2744,"ကျန်":2745,"စားစား":2746,"▁ယဉ်":2747,"▁ယှဉ်":2748,"▁ဒီ့":2749,"ရှစ်":2750,"▁လုပ်လုပ်":2751,"▁အခိုက်":2752,"▁ဘယ်နှ":2753,"▁အလယ်":2754,"▁အလျင်":2755,"▁အရာဝတ္ထု":2756,"▁သိသာ":2757,"▁သိနားလည်":2758,"▁လက်ထပ်":2759,"▁အကြမ်း":2760,"▁ဖြူ":2761,"▁စကားပုံ":2762,"န့်အသတ်":2763,"▁အပြောင်းအလဲ":2764,"▁သုံးသပ်":2765,"▁ဖူးပွင့်":2766,"▁အိမ်မက်":2767,"▁အများဆုံး":2768,"▁လျှာ":2769,"▁လျှို့ဝှက်":2770,"▁ညစ်":2771,"▁ညစာ":2772,"▁မှန်မှန်":2773,"▁အစစ်":2774,"▁အစိတ်":2775,"လှုပ်":2776,"▁သဘောဆောင်":2777,"▁အနံ့":2778,"▁အနစ်နာ":2779,"▁အမိန့်":2780,"▁စားသောက်":2781,"▁မေ့လျော့":2782,"▁အကန့်အသတ်":2783,"▁စောင့်ထိန်း":2784,"န္တ":2785,"▁အကျိုးအ":2786,"▁ဆုံးရှုံးမှု":2787,"▁အသုံးမကျ":2788,"ဆင်ခြင်":2789,"▁သတ္တဝါ":2790,"▁မွေးဖွား":2791,"▁ဖန်ဆင်း":2792,"▁ထူးကဲ":2793,"▁ထူးချွန်":2794,"▁ပြင်ပ":2795,"လျောက်":2796,"▁မိုးရွာ":2797,"▁ရန်ဖြစ်":2798,"▁လုပ်ဆောင်မှု":2799,"▁ပစ္စုပ္":2800,"▁ဘုရင်":2801,"▁ပူပန်":2802,"▁ပူလောင်":2803,"မြဲမြဲ":2804,"▁ပြုံးပြ":2805,"▁ငြင်းဆန်":2806,"▁ငြင်းခုန်":2807,"▁ငြီးငွေ့":2808,"▁သိမ်မွေ့":2809,"▁အတွေးအမြင်":2810,"▁ဦးတည်ရာ":2811,"▁တစ်ချိန်ချိန်":2812,"▁မြေကြီး":2813,"▁ကြိုဆို":2814,"▁မြှောက်":2815,"▁မြှင့်တင်":2816,"▁အစွမ်းကုန်":2817,"▁နွေဦး":2818,"▁ထူထောင်":2819,"▁ငြိမ်သက်":2820,"ိုင်းစိုင်း":2821,"▁ခလုတ်":2822,"ငြိုး":2823,"▁ပါရစေ":2824,"▁ငပိချက်":2825,"▁ဖြုန်းတီး":2826,"▁နှိပ်စက်":2827,"▁ပျံသန်း":2828,"ဂ္ဂိုလ်":2829,"▁နှောင့်ယှက်":2830,"▁အင်္ဂလိပ်":2831,"▁သံသယ":2832,"အိပ်မက်":2833,"▁အကြီးအကျယ်":2834,"▁ကင်ဆာ":2835,"ောညီထွေ":2836,"▁ပန်ဒါ":2837,"▁မင်္ဂလာ":2838,"▁ရောင့်ရဲ":2839,"▁လိုက်လျောညီထွေ":2840,"▁ပစ္စုပ္ပန်":2841,"ကဲ့":2842,"ခက်":2843,"ခနဲ":2844,"ဂရီ":2845,"စလို":2846,"စိမ်း":2847,"ဆွေး":2848,"တွတ်":2849,"ထိုက်":2850,"ဒု":2851,"ယံ":2852,"ရောင်း":2853,"ရိတ်":2854,"လွေ":2855,"လန်း":2856,"သမျှ":2857,"ဟောင်း":2858,"အောက်":2859,"ံပု":2860,"▁၏":2861,"▁ကွယ်":2862,"▁ကွင်း":2863,"▁ပီ":2864,"▁မိုင်":2865,"▁မကောင်း":2866,"▁မပြတ်":2867,"▁အက်":2868,"▁အယူ":2869,"▁အညှိုး":2870,"▁နုတ်":2871,"▁သဲ":2872,"▁သန်":2873,"▁သော့":2874,"▁ဘီ":2875,"▁ဆာ":2876,"ချမ်းသာ":2877,"▁တစ်ဝက်":2878,"▁ချမှတ်":2879,"မှိတ်":2880,"▁ကျဉ်း":2881,"▁လူတန်း":2882,"▁စိတ်ကျ":2883,"▁စိတ်လှုပ်ရှား":2884,"▁မျို":2885,"▁အတု":2886,"▁ဒါ့":2887,"▁ဒီဂရီ":2888,"▁သင်္":2889,"▁သင်တန်း":2890,"▁သင့်တင့်":2891,"▁အလွတ်":2892,"▁ခုန":2893,"▁ဝံပု":2894,"▁အသီး":2895,"▁အရေ":2896,"▁မိခင်":2897,"▁ကြီးမား":2898,"▁သိပ္":2899,"▁သိက္ခာ":2900,"▁အားရ":2901,"▁ပြန်လာ":2902,"▁လက်မှတ်":2903,"▁လက်ကိုင်":2904,"▁မျိုးစုံ":2905,"ဖြူ":2906,"▁စာကြည့်":2907,"နှောင်":2908,"▁လှုပ်":2909,"▁ထိတွေ့":2910,"ွာအဝေး":2911,"▁ကြိုးပမ်း":2912,"▁ကြိုးစားအားထုတ်":2913,"▁လမ်းပျောက်":2914,"▁လမ်းညွှ":2915,"▁လောဘ":2916,"▁ထင်မှတ်":2917,"▁အဆိပ်":2918,"▁မျှတ":2919,"▁တွေးထင်":2920,"▁အိမ်နီး":2921,"▁လျှင်":2922,"က္က":2923,"▁ပုံဖော်":2924,"ပါးပါး":2925,"ော်လည်း":2926,"▁ယူဆောင်":2927,"▁ယူသုံး":2928,"▁လိုအပ်ချက်":2929,"▁အကွာအဝေး":2930,"▁အခက်ခဲ":2931,"▁အာဟာ":2932,"▁ရေစက်":2933,"▁သက်တ":2934,"▁သက်သ":2935,"▁ခေါင်းခါ":2936,"▁ပိုင်ရှင်":2937,"▁အနာတရ":2938,"▁အနာအဆာ":2939,"▁အခွင့်ထူး":2940,"▁ခါနီး":2941,"▁အင်္ကျီ":2942,"▁သံချောင်း":2943,"▁မှတ်ဉာဏ်":2944,"▁နေထိုင်မှု":2945,"▁အရေးကြီးဆုံး":2946,"▁ဥပုသ":2947,"▁ပိုင်ဆိုင်မှု":2948,"▁ထပ်ခါ":2949,"▁ထူးဆန်း":2950,"▁စွမ်းအင်":2951,"▁တင်ပြ":2952,"▁တင်ဆက်":2953,"▁အကြီးဆုံး":2954,"▁အခွင့်အလမ်း":2955,"ရိတ္တ":2956,"▁တစ်နေ့တာ":2957,"▁ခွဲခွာ":2958,"▁ပုဂ္ဂိုလ်":2959,"▁စိတ်ရှည်":2960,"▁လွတ်မြောက်":2961,"အမွှား":2962,"▁စည်းစိမ်":2963,"▁အိမ်ထောင်ပြု":2964,"▁လျစ်လျူ":2965,"▁ကျော်ဖြတ်":2966,"▁ဘာသာပြန်":2967,"▁တည်ငြိမ်မှု":2968,"▁သာမက":2969,"▁တံငါ":2970,"▁တံဆိပ်":2971,"▁အရှုံးပေး":2972,"▁ပြတ်ပြတ်":2973,"▁လုပ်ငန်းခွင်":2974,"▁ရင်းနှီးမှု":2975,"▁စွဲစွဲ":2976,"▁အလေးမထား":2977,"အတွက်":2978,"▁တမာရွက်":2979,"မြှောက်":2980,"မြှုပ်":2981,"▁ယူဆချက်":2982,"▁နီးကပ်":2983,"▁လှုပ်ရှားမှု":2984,"စည်းရိုး":2985,"▁အကြာကြီး":2986,"▁တွန်းအား":2987,"▁အလေ့အထ":2988,"▁ထနောင်းပင်":2989,"▁ကျောက်တုံး":2990,"ကျေးမှု":2991,"▁နယ်ပယ်":2992,"▁အသေးအမွှား":2993,"▁တင်းတိမ်":2994,"▁ဓာတ်ပုံ":2995,"▁ထမ်းပိုး":2996,"▁လှေကားထစ်":2997,"ိုင်းအဝိုင်း":2998,"▁ညည်းတွား":2999,"▁လိမ်ညာ":3000,"▁ပြိုလဲ":3001,"▁ခြံစည်းရိုး":3002,"▁နူးညံ့":3003,"▁အလျင်စလို":3004,"▁လျှို့ဝှက်ချက်":3005,"ဒုက္ခ":3006,"▁လူတန်းစား":3007,"▁ဝံပုလွေ":3008,"▁သိပ္ပံ":3009,"▁စာကြည့်တိုက်":3010,"▁လမ်းညွှန်":3011,"▁အိမ်နီးချင်း":3012,"▁အာဟာရ":3013,"▁အခွင့်ထူးခံ":3014,"▁ဥပုသ်":3015,"▁ပြတ်ပြတ်သားသား":3016,"▁စွဲစွဲမြဲမြဲ":3017,"ခမ်း":3018,"ခရီး":3019,"ဂျ":3020,"ဃာ":3021,"စဲ":3022,"စိုး":3023,"စည်":3024,"တကာ":3025,"ထူ":3026,"ထေး":3027,"ထည့်":3028,"ဒင်":3029,"ဒဏ်":3030,"ပဲ":3031,"ပင့်":3032,"ဗ္":3033,"ဗာန်":3034,"ဘူး":3035,"မရ":3036,"မဲ":3037,"မန်":3038,"မေး":3039,"မောင်း":3040,"မစား":3041,"မွေး":3042,"မေတ္တာ":3043,"ယုန်":3044,"ယျာ":3045,"ရိပ်":3046,"လူး":3047,"လွှား":3048,"သိမ":3049,"သန့်":3050,"ဟန်":3051,"ဥစ္စာ":3052,"ဥတု":3053,"ူအရာ":3054,"ှား":3055,"▁တုန်":3056,"▁တွင်":3057,"▁ကူး":3058,"▁ကော်":3059,"▁ပိ":3060,"▁ပိုး":3061,"▁ပုန်း":3062,"▁မတ်":3063,"▁မိုက်":3064,"▁မဟုတ်":3065,"▁မန္တ":3066,"▁အိ":3067,"▁ရတနာ":3068,"▁ရနံ့":3069,"▁သု":3070,"▁သမ္မာ":3071,"▁သော်လည်း":3072,"▁ကိုင်း":3073,"▁ခုံ":3074,"▁ပါဝင်":3075,"▁စင်း":3076,"▁ဆင့်":3077,"▁ဆွေး":3078,"▁ဖဲ":3079,"▁ဖျော်":3080,"▁ထီး":3081,"ောက်အ":3082,"▁နေကောင်း":3083,"▁နေမင်း":3084,"ချ်":3085,"ချော":3086,"▁ရှုံ့":3087,"▁တစ်ထောင်":3088,"▁တစ်ဖန်":3089,"▁တစ်အိမ်":3090,"▁ပြီးဆုံး":3091,"ော်အမြင်":3092,"ကြူး":3093,"ကြမ်း":3094,"ကြွား":3095,"▁ချိုး":3096,"▁ချွေး":3097,"▁ချရေး":3098,"▁ချဉ်း":3099,"ရာသီ":3100,"▁ကျက်":3101,"▁ကျပ်":3102,"▁လဲလှယ်":3103,"▁လူမိုက်":3104,"ွားအို":3105,"▁စိတ်ဆိုး":3106,"▁စိတ်ပူ":3107,"▁လိုက်လံ":3108,"▁လိုက်ရှာ":3109,"▁အတောင်":3110,"▁အတားအ":3111,"ကျွမ်း":3112,"ပြို":3113,"မြောင်း":3114,"▁ဟာသ":3115,"မျော":3116,"▁ပြောပြော":3117,"▁ပြောကြား":3118,"▁ကောင်းကွက်":3119,"▁အလဲ":3120,"▁အလားအ":3121,"▁ဝန်း":3122,"▁ဝံ့":3123,"▁အရယ်":3124,"▁သိန်း":3125,"▁သိတတ်":3126,"လဲလဲ":3127,"▁ပိုပို":3128,"▁ခံနိုင်":3129,"▁အားလပ်":3130,"▁ပြန်ရောက်":3131,"▁လက်ပြ":3132,"▁လက်အောက်":3133,"▁စာတော်":3134,"▁စာနာ":3135,"▁စာလုံး":3136,"▁စာရိတ္တ":3137,"▁များသော":3138,"သူကြီး":3139,"▁တစ်ခွန်း":3140,"မာန်":3141,"သာသာ":3142,"စ္ဆာ":3143,"▁ပြောင်းပြန်":3144,"▁လမ်းဘေး":3145,"▁နံရံ":3146,"▁အဆက်":3147,"ဆောင်မှု":3148,"ပျူတာ":3149,"▁ဆက်လက်":3150,"▁ဆက်သွယ်":3151,"တ္တိ":3152,"▁ရာစု":3153,"▁သေခြင်း":3154,"လှောင်":3155,"ရှင်းရှင်း":3156,"▁အမူအရာ":3157,"▁လုံးလုံး":3158,"နက်နက်":3159,"▁အဓမ္မ":3160,"▁သောက":3161,"▁ရှေ့နေ":3162,"▁ကိစ္စမရှိ":3163,"တစ်ခါ":3164,"▁တိုးပွား":3165,"▁လိုအင်":3166,"▁ဝင်ရောက်":3167,"မားမား":3168,"▁ဒုက္ခရောက်":3169,"▁အကယ်":3170,"▁အကုသ":3171,"▁အာမခံ":3172,"▁အာဇီ":3173,"▁ရေရှည်":3174,"▁စွန့်ပစ်":3175,"▁ငယ်စဉ်":3176,"▁တည်တည်":3177,"▁စိတ်ကူးအိပ်မက်":3178,"▁ခရီးထွက်":3179,"▁ဥပဒေ":3180,"▁မွေးနေ့":3181,"▁ဆင်းရဲဒုက္ခ":3182,"▁ပညာရှင်":3183,"▁အောက်မေ့":3184,"▁ကမ္ဘာ့":3185,"▁ရှင်းလင်း":3186,"▁မိုးလင်း":3187,"▁ရန်သူ":3188,"ရိယာ":3189,"▁အပြင်ပန်း":3190,"▁ပြုံးရယ်":3191,"▁ဈေးရောင်း":3192,"လင်းလင်း":3193,"▁လှည့်ကြည့်":3194,"▁ပင်ပန်းနွမ်း":3195,"▁နောင်တရ":3196,"▁ကျော်ကြား":3197,"▁ဘာသာရေး":3198,"▁လက်မလွှတ်":3199,"▁ချီးမွမ်းခြင်း":3200,"▁ချို့တဲ့":3201,"▁အနည်းဆုံး":3202,"▁ရွှံ့":3203,"နိုင်ဆုံး":3204,"▁ဦးတည်ချက်":3205,"▁ကျယ်ပြန့်":3206,"▁မာန်":3207,"▁နိုးထ":3208,"▁လင်းယုန်":3209,"▁ကြိုတင်":3210,"▁ချောမွေ့":3211,"▁ညှာ":3212,"▁ဗီဇ":3213,"▁အပြည့်အ":3214,"▁တပ်မက်":3215,"▁ပေတံ":3216,"▁အမြင့်ဆုံး":3217,"▁ရာသီဥတု":3218,"ငါး":3219,"နုပျို":3220,"▁အရှေ့":3221,"▁နိဗ္":3222,"▁ဆန်းစစ်":3223,"▁ဖယ်ရှား":3224,"▁ဟောပြော":3225,"▁အတင်းအ":3226,"▁ဝတ္ထုတို":3227,"▁ဝန်ထမ်း":3228,"▁ဓား":3229,"▁ထင်မြင်ချက်":3230,"▁တိတိ":3231,"▁တိတ်တ":3232,"▁မုန့်":3233,"▁အဘိ":3234,"▁ငယ်ရွယ်နုပျို":3235,"▁အရှိဆုံး":3236,"▁မျှော်မှန်း":3237,"▁တစ်ခါတစ်လေ":3238,"▁နှိမ့်ချ":3239,"▁ချစ်ခြင်းမေတ္တာ":3240,"▁တမ်းတ":3241,"▁ကွန်ပျူတာ":3242,"▁အဝတ်အစား":3243,"▁သူတော်စင်":3244,"▁အတတ်နိုင်ဆုံး":3245,"▁သက်ရောက်မှု":3246,"▁သတိမထား":3247,"▁ကန့်သတ်":3248,"▁ဖျောက်":3249,"▁ကြွားဝါ":3250,"▁ရှင်းရှင်းလင်းလင်း":3251,"▁တည့်တည့်":3252,"▁သဝန်တို":3253,"▁တစ်ပါးသူ":3254,"▁တစ်ကြိမ်တစ်ခါ":3255,"▁ဟူသမျှ":3256,"▁အလဟဿ":3257,"▁ဗိုလ်ချုပ်":3258,"▁ဖြောင့်ဖြူး":3259,"ပေါ့":3260,"▁စစချင်း":3261,"▁ဖာထေး":3262,"▁ကျူးလွန်":3263,"▁ကျွမ်းကျင်":3264,"လျောက်ပတ်":3265,"▁သင့်တင့်လျောက်ပတ်":3266,"▁အရေအတွက်":3267,"▁သက်သောင့်သက်သာ":3268,"▁ဥပုသ်စောင့်":3269,"ယျာဉ်":3270,"▁မန္တလေး":3271,"▁ချဉ်းကပ်":3272,"▁အတားအဆီး":3273,"▁အလားအလာ":3274,"▁ခံနိုင်ရည်":3275,"▁များသောအားဖြင့်":3276,"▁အာဇီဝ":3277,"▁တည်တည်ငြိမ်ငြိမ်":3278,"▁ပင်ပန်းနွမ်းနယ်":3279,"▁နိဗ္ဗာန်":3280,"ကွာ":3281,"ကိန်း":3282,"ခွန်":3283,"ခေတ်":3284,"ဂျာ":3285,"ဂျင်":3286,"ငင်":3287,"စော်":3288,"စခန်း":3289,"ဆဲ":3290,"ဆတ်":3291,"ဏ္":3292,"တေ":3293,"တား":3294,"တကျ":3295,"ထိ":3296,"ထဲ":3297,"ဓိ":3298,"နုတ်":3299,"ပေ":3300,"ပွ":3301,"ပံ့":3302,"ဖီ":3303,"ဖွဲ":3304,"ဖုန်း":3305,"မနေ":3306,"မန့်":3307,"မပျော်":3308,"မပြတ်":3309,"မယား":3310,"ယျ":3311,"ရန်":3312,"ရွတ်":3313,"ရစ္ဆာ":3314,"သွန်":3315,"ဟ်":3316,"အဆ":3317,"အင်း":3318,"အကျ":3319,"အဆို":3320,"့လ":3321,"▁ဌာ":3322,"▁တွင်း":3323,"▁တနုံ့":3324,"ိုဒ်":3325,"▁ကမ":3326,"▁ကမ်း":3327,"▁ကိန်း":3328,"▁မရှ":3329,"▁မေမ":3330,"▁မတရား":3331,"▁မသိမ":3332,"▁လခ":3333,"▁အုတ်":3334,"▁ရိုင်း":3335,"▁သုတ်":3336,"▁သတဲ့":3337,"▁ဘဏ်":3338,"▁စောင်":3339,"▁စက္က":3340,"▁ကြဲ":3341,"▁တာရှည်":3342,"ချီး":3343,"ချိုး":3344,"ချော်":3345,"▁ရှား":3346,"▁တစ်နှစ်":3347,"▁တစ်ပြိုင်":3348,"င့်အင်း":3349,"ကြယ်":3350,"▁ဖြစ်ထွန်း":3351,"▁ဟင့်အင်း":3352,"ေါင်":3353,"▁ကျဆင်း":3354,"▁လဲပြို":3355,"▁လူရွယ်":3356,"▁ရင်ခွင်":3357,"▁စိတ်တိုင်း":3358,"▁စိတ်တူ":3359,"▁စိတ်ပင်ပန်း":3360,"ိမဖြစ်":3361,"▁အတိ":3362,"▁အတန်း":3363,"ကျကျ":3364,"ကျွံ":3365,"▁သွားသွား":3366,"▁ယဥ်":3367,"မြန်း":3368,"ရှယ်":3369,"ရှိုင်း":3370,"▁နှင့်":3371,"▁နှိုး":3372,"▁အောင်သင်း":3373,"▁ထဲက":3374,"▁အလုံး":3375,"▁အလွမ်း":3376,"▁ဘာ့":3377,"▁ဝင့်":3378,"▁အသိုင်းအဝိုင်း":3379,"▁အရာရှိ":3380,"▁အဲဒီတော့":3381,"▁အရူး":3382,"▁အရိုး":3383,"▁အချိန်ကာလ":3384,"▁အချိန်အခါ":3385,"▁လက်စား":3386,"▁လက်တွဲ":3387,"▁လက်လျှော့":3388,"▁မျိုးဆက်":3389,"▁မျိုးစေ့":3390,"ဖြုန်း":3391,"▁အကြင်နာ":3392,"▁လေပြည်":3393,"နှိုင်း":3394,"▁ချစ်ချစ်":3395,"▁အပူ":3396,"▁အပေါက်":3397,"▁သေးငယ်":3398,"▁ရောက်ရောက်":3399,"▁ပေါ်ပေါက်":3400,"▁အထဲ":3401,"▁လမ်းဆုံး":3402,"▁လမ်းခရီး":3403,"▁နာကျည်း":3404,"▁အပြိုင်":3405,"▁အပြုသ":3406,"လည်လည်":3407,"▁သုံးစွဲ":3408,"▁အိမ်ပြန်":3409,"▁ဂိတ်":3410,"ညာဉ်":3411,"▁ထွက်ပေါက်":3412,"▁ရှာတွေ့":3413,"▁အိပ်မပျော်":3414,"▁အစိမ်း":3415,"▁အချစ်ဆုံး":3416,"▁သဘောတူ":3417,"▁အနောက်":3418,"▁မျက်မမြင်":3419,"▁အကျယ်":3420,"▁အကျဆုံး":3421,"ဉာဥ်":3422,"▁အတူတက":3423,"▁ကြာရှည်":3424,"▁ရင်းမြစ်":3425,"တက်ကြွ":3426,"▁လုံ့လ":3427,"▁ဗျာ":3428,"▁ပင်ပင်ပန်း":3429,"▁အာဏာ":3430,"▁ရေရာ":3431,"▁ကုန်သည်":3432,"▁ရဲရင့်":3433,"▁ဥယျာဉ်":3434,"▁ခြုံ":3435,"▁သက်သေ":3436,"ကန်ကန်":3437,"ချိန်ချိန်":3438,"▁ဝမ်းနည်းမှု":3439,"▁ပန်းကလေး":3440,"▁ရယ်မော":3441,"ဘာသာ":3442,"▁အမျိုးအစား":3443,"▁ရုပ်ပိုင်း":3444,"▁ရုပ်ထု":3445,"▁ထုတ်လုပ်":3446,"▁ထုတ်နုတ်":3447,"▁တိုက်ခိုက်":3448,"ပညာရှင်":3449,"▁ဖတ်ပြ":3450,"▁ကိုးဆယ့်":3451,"▁တရားစခန်း":3452,"▁အဲ့ဒီလို":3453,"▁တာဝန်ကျ":3454,"▁ထူးထူး":3455,"▁ပျောက်ကွယ်":3456,"▁ပျောက်ကင်း":3457,"▁ပညာရေး":3458,"▁အောက်ခြေ":3459,"▁ခြောက်ဆယ်":3460,"▁ခဏခဏ":3461,"▁အေးဆေး":3462,"▁ချမ်းသာမှု":3463,"▁သို့လော":3464,"▁ပုလင်း":3465,"ထပ်ခါ":3466,"▁စိတ်ခံစားမှု":3467,"▁ဆေးလိပ်":3468,"▁မီးအိမ်":3469,"▁ဆယ်ကျော်":3470,"▁အတွင်းစိတ်":3471,"▁ဆယ့်လေး":3472,"▁ဆယ့်ငါး":3473,"▁နိုင်ငံရေး":3474,"▁ပစ္စည်းဥစ္စာ":3475,"▁မန်ကျည်းရွက်":3476,"▁စီစဉ်":3477,"▁ဆွဲငင်":3478,"▁လေ့ကျင့်ခန်း":3479,"▁တိုတို":3480,"▁ကုတင်":3481,"▁ကဲ့သို့":3482,"▁စွဲလမ်း":3483,"ညှိ":3484,"နိုင်ငံ":3485,"▁အကြံဉာဏ်":3486,"▁အကြံပေး":3487,"▁ကျယ်ကျယ်":3488,"▁မာန":3489,"▁မြေပြင်":3490,"▁ပင်လယ်ပြင်":3491,"▁ချို့ယွင်းမှု":3492,"▁ဆိတ်ဆိတ်ငြိမ်ငြိမ်":3493,"▁ကြက်သား":3494,"▁ရုပ်ရှင်ရုံ":3495,"▁ထူးခြားချက်":3496,"▁အုပ်စု":3497,"▁ရိုက်သွင်း":3498,"▁အပြောအဆို":3499,"▁ခါးသီး":3500,"အေးချမ်း":3501,"▁နီးပါး":3502,"▁တောင့်ခံ":3503,"▁ချန်နယ်":3504,"▁ကုသိုလ်":3505,"▁စာပိုဒ်":3506,"မူနာ":3507,"▁ထောက်ပံ့":3508,"▁အရင်းရှင်":3509,"▁အရောင်စုံ":3510,"▁လျှော့တွက်":3511,"▁အရှိန်":3512,"▁ကျင့်ကြံ":3513,"▁လူမှုရေး":3514,"▁ကြီးကြီးမားမား":3515,"လောက":3516,"▁ကျော်လွန်":3517,"▁သိမ်းပိုက်":3518,"▁ဖြည့်တင်း":3519,"တိုးတက်":3520,"▁တိုက်ပွဲဝင်":3521,"▁ဖွံ့ဖြိုးတိုးတက်":3522,"▁ပါရမီ":3523,"▁ပြိုင်ပွဲ":3524,"▁ပြိုင်ဘက်":3525,"▁တစ်ကိုယ်ကောင်း":3526,"▁အကောင်းမြင်စိတ်":3527,"▁မရွေး":3528,"▁ချုပ်ချယ်":3529,"▁ငြိမ်းချမ်းမှု":3530,"▁ကြွေကျ":3531,"▁မဖြစ်မနေ":3532,"▁လောင်စာ":3533,"▁တစ်စုံတစ်ယောက်":3534,"▁ဗုဒ္ဓဘာသာ":3535,"▁အစ်ကို":3536,"▁ဖျားနာ":3537,"ချဉ်သီး":3538,"▁အိပ်ရေးပျက်":3539,"▁အလွန်အမင်း":3540,"▁ကယ်တင်ရှင်":3541,"▁အိုင်ကျူ":3542,"▁ခဲဖျက်":3543,"▁စိတ်ဝိညာဉ်":3544,"▁အကောင်အထည်ဖော်":3545,"▁ပူးပေါင်း":3546,"▁ဆန့်ကျင်":3547,"▁မှန်မှန်ကန်ကန်":3548,"▁အကျိုးအမြတ်":3549,"▁မြှောက်ပင့်":3550,"▁သန်စွမ်း":3551,"▁ကြိုးစားအားထုတ်မှု":3552,"▁ထပ်ခါထပ်ခါ":3553,"▁လျစ်လျူရှု":3554,"▁တုန်လှုပ်":3555,"▁ဖျော်ဖြေ":3556,"▁ရှုံ့ချ":3557,"▁အတောင်ပံ":3558,"▁စာလုံးရေ":3559,"▁အကုသိုလ်":3560,"▁လင်းယုန်ငှက်":3561,"▁အပြည့်အဝ":3562,"ဏ္ဍ":3563,"ရစ္ဆာန်":3564,"▁ဌာန":3565,"▁တနုံ့နုံ့":3566,"▁မရှိမဖြစ်":3567,"▁မေမေ":3568,"▁မသိမသာ":3569,"▁စက္ကန့်":3570,"▁တစ်ပြိုင်နက်":3571,"▁အပြုသဘော":3572,"▁အတူတကွ":3573,"▁ပင်ပင်ပန်းပန်း":3574,"▁ဆယ်ကျော်သက်":3575,"ကံ":3576,"ကတ်":3577,"ကစား":3578,"ကိုက်":3579,"ကလျား":3580,"ခုံး":3581,"ခိုင်း":3582,"ခန့်":3583,"ဂိတ်":3584,"ငေါက်":3585,"ဆီ":3586,"ဆု":3587,"ဌာန်":3588,"တုံ":3589,"တုန်း":3590,"တလဲလဲ":3591,"ထွား":3592,"ထည်":3593,"ထိပ်":3594,"ဒေါ်":3595,"ဓမ္မာ":3596,"ပဲ့":3597,"ပုတ်":3598,"ပတ္တိ":3599,"ဖုံး":3600,"ဖွယ်":3601,"ဖွင့်":3602,"ဗီ":3603,"ဗစ်":3604,"မသ":3605,"မရွှင်":3606,"မပေး":3607,"မထွက်":3608,"ယစ်":3609,"ရူး":3610,"ရုံး":3611,"ရွား":3612,"လုံ့":3613,"လွင်":3614,"ဝံ":3615,"ဝှ":3616,"သွင်":3617,"သရေ":3618,"သွပ်":3619,"သဏ္ဍ":3620,"အောင်း":3621,"အတာ":3622,"အချာ":3623,"အပိုင်း":3624,"အနှီး":3625,"အရင်း":3626,"အယှက်":3627,"ူလာ":3628,"ေဘု":3629,"▁ဩ":3630,"▁တူး":3631,"▁တွယ်":3632,"▁တိတ်ဆိတ်":3633,"▁ကစ":3634,"▁ပွား":3635,"▁ပိန်":3636,"▁မမ":3637,"▁မပျော်":3638,"▁လတ်":3639,"▁လောင်း":3640,"▁လမင်း":3641,"▁အင":3642,"▁အူ":3643,"▁အိုး":3644,"▁အီးမ":3645,"▁အိုင်းစ":3646,"▁ရွယ်":3647,"▁ရိုင်းစိုင်း":3648,"▁နီ":3649,"▁နင်း":3650,"▁နပ်":3651,"▁နန်း":3652,"▁သြ":3653,"▁သိုး":3654,"▁သောင်း":3655,"▁သန်း":3656,"▁သည့်":3657,"▁သမာ":3658,"▁သမ္မ":3659,"▁ကိုစ":3660,"▁ကိုဗစ်":3661,"▁ခို":3662,"▁ခနဲ":3663,"▁ဘွဲ့":3664,"▁မှူး":3665,"▁စေ့":3666,"▁ပြစက်":3667,"▁ပြတင်း":3668,"▁ဆပ်":3669,"ုံအ":3670,"▁ထို့":3671,"▁ထုံ":3672,"▁နေကျ":3673,"▁နေသာ":3674,"▁နေပူ":3675,"ချေ":3676,"▁သူခိုး":3677,"▁ဆိုရိုး":3678,"▁ဆိုရှယ်":3679,"▁တစ််":3680,"▁တစ်ချက်":3681,"▁တစ်ထောက်":3682,"▁လိုင်း":3683,"ကြဲ":3684,"ကြောင်":3685,"ကြမ္မာ":3686,"▁ဖြစ်ပါ":3687,"▁ဖြစ်စဉ်":3688,"▁ဖြစ်မြောက်":3689,"▁ချီး":3690,"▁ချိတ်":3691,"▁ဟိုး":3692,"▁ဟောင်း":3693,"▁လူဆိုး":3694,"▁လူဖမ်း":3695,"▁ရင်ခုန်":3696,"▁ရင်ဖွင့်":3697,"▁စိတ်ထိ":3698,"ကျပ်":3699,"ကျိုက်":3700,"▁ကိုယ်စား":3701,"▁ကိုယ်ကိုယ်":3702,"▁ကိုယ်ကျင့်":3703,"▁ကိုယ်ကျိုး":3704,"ပြောင်း":3705,"ပြူလာ":3706,"▁ငတ်":3707,"▁ငှား":3708,"▁ယခု":3709,"▁ယေဘု":3710,"▁ဒီရေ":3711,"ရှူ":3712,"ရှုပ်":3713,"▁လုပ်ယူ":3714,"▁လုပ်ဖော်":3715,"▁သင်ကြား":3716,"▁အချို":3717,"▁အချဉ်":3718,"ွှမ်း":3719,"▁လေးလေး":3720,"▁နှေး":3721,"▁နှမျော":3722,"▁ပျား":3723,"ဒီယာ":3724,"▁ကောင်းချီး":3725,"▁အလား":3726,"▁ဝိ":3727,"▁ဝင်း":3728,"▁ဟုတ်ကဲ့":3729,"▁အသွင်":3730,"▁ကြီးစိုး":3731,"ခြံ":3732,"ခြိုက်":3733,"▁နှစ်လို":3734,"▁နောက်နေ့":3735,"▁နောက်ပြန်":3736,"▁နောက်ကြောင်း":3737,"▁အားမကျ":3738,"▁ပြန်ပြော":3739,"▁ပျော်စရာ":3740,"▁မြေး":3741,"▁အချိန်မီ":3742,"▁အချိန်ပို":3743,"▁လက်ခ":3744,"ဖြောင့်":3745,"နေကုန်":3746,"▁စာမေး":3747,"▁လေလွင့်":3748,"▁ဖြန့်":3749,"နှင်":3750,"▁အပိုင်":3751,"▁သာမာန်":3752,"▁အဖက်":3753,"▁အဖို့":3754,"မာမာ":3755,"မာရွတ်":3756,"▁တိုင်းတာ":3757,"▁သေးသ":3758,"▁ထိရှ":3759,"▁နည်းတူ":3760,"▁ပေါ်ပြူလာ":3761,"▁ဦးဆောင်":3762,"▁လမ်းစ":3763,"▁အောင်မြင်သူ":3764,"▁အပြန်":3765,"▁တန်ဖိုးရှိ":3766,"▁သုံးဖြုန်း":3767,"▁ဆက်လုပ်":3768,"▁ဂစ်":3769,"▁ပြောင်းလဲမှု":3770,"▁လျှပ်":3771,"▁မြင်တွေ့":3772,"▁ညီး":3773,"▁အစွန်း":3774,"▁သဘောတရား":3775,"▁အနက်":3776,"▁မေးမြန်း":3777,"▁အခြေနေ":3778,"▁တူတူ":3779,"▁အရေးအ":3780,"▁တက်လှမ်း":3781,"▁အခုချိန်":3782,"▁အသိပေး":3783,"▁စဉ်းစားတွေး":3784,"▁စဉ်းစားဆင်ခြင်":3785,"စိုက်မှု":3786,"▁အဓိဌာန်":3787,"▁ပြုမူ":3788,"▁ဒုက္ခခံ":3789,"▁အကဲ":3790,"▁ကံကြမ္မာ":3791,"▁အာရှ":3792,"▁အာလူး":3793,"▁စောင့်ကြည့်":3794,"▁ငါးရာ":3795,"▁တည်မြဲ":3796,"▁အဆင်သင့်":3797,"▁ရိုးဖြောင့်":3798,"န္တာ":3799,"▁ဇီး":3800,"▁ပန်းချီ":3801,"ကိုင်ဖက်":3802,"▁ရုပ်ချော":3803,"▁တိုက်ရိုက်":3804,"▁သင်ယူမှု":3805,"▁အခွင့်ကောင်း":3806,"▁အင်ဂျင်":3807,"▁သံဃာ":3808,"▁ဆိုးဝါး":3809,"▁ဆိုးရွား":3810,"▁တရားထိုင်":3811,"လျှံ":3812,"▁ခေတ်မစား":3813,"▁မိုးချုပ်":3814,"▁ရန်ငြိုး":3815,"▁လုပ်ဆောင်ချက်":3816,"▁လုပ်ဆောင်ခြင်း":3817,"▁ဂရုစိုက်မှု":3818,"▁အဓိပ္ပါယ်မဲ့":3819,"▁အလိုရှိ":3820,"ကူကူ":3821,"▁တောင်းဆု":3822,"▁ဝေဖန်မှု":3823,"▁ဦးနှောက်ခြောက်":3824,"▁အဆင့်ဆင့်":3825,"▁ဆေးကျောင်း":3826,"▁ဈေးကြီး":3827,"▁ဈေးဝယ်":3828,"▁လွတ်လွတ်":3829,"▁နိုင်ငံခြား":3830,"▁ဝေးကွာ":3831,"▁ကြံ့ခိုင်မှု":3832,"▁နွေးနွေး":3833,"▁ကြင်နာမှု":3834,"▁ကြေညာ":3835,"▁နှုတ်ဆိတ်":3836,"▁အိမ်ထောင်ရေး":3837,"▁အိမ်ထောင်ဖက်":3838,"▁ကွဲလွဲ":3839,"လပ်လပ်":3840,"▁ရုန်းထွက်":3841,"▁စုစည်း":3842,"▁အနိုင်ယူ":3843,"ဆန်ဆန်":3844,"▁ကုစား":3845,"▁အဖြေရှာ":3846,"▁သည်းမခံ":3847,"▁ဝယ်ယူ":3848,"လျားလျား":3849,"▁ပြေးလွှား":3850,"▁ဇာတ်ကား":3851,"▁ကြေကွဲမှု":3852,"▁လက်တွေ့ကျ":3853,"▁ခိုင်ခိုင်":3854,"▁ခိုင်မြဲ":3855,"▁ထိုးဖောက်":3856,"ပတ်ဝန်းကျင်":3857,"▁ဖုန်းဆက်":3858,"တောင်းကျိုက်":3859,"အတန့်":3860,"▁သန့်စင်":3861,"▁ကြက်သွန်":3862,"▁မြှုပ်":3863,"နီယာ":3864,"▁ခါးတောင်းကျိုက်":3865,"ခွင်ကျ":3866,"▁အဖိုးကြီး":3867,"▁ဂရုမစိုက်ခြင်း":3868,"▁တွဲလုပ်":3869,"▁မက်ဆေ့":3870,"▁သစ္စာဖောက်":3871,"▁ထောက်ပြ":3872,"▁အရင်းအနှီး":3873,"▁ဆင်ခြင်တုံ":3874,"▁တောက်ပမှု":3875,"▁ဆန်းသစ်":3876,"▁ကျင့်သုံး":3877,"▁ရှုံးနိမ့်မှု":3878,"▁ပျော့ညံ့ချက်":3879,"▁မြစ်ကမ်း":3880,"▁ခုနစ်ဆယ့်":3881,"▁ပြည်တွင်း":3882,"▁ဝတ်ဆင်":3883,"လစ်ပိုင်":3884,"▁နိမ့်ကျ":3885,"▁ပြေလည်":3886,"▁တိရစ္ဆာန်":3887,"▁မုချ":3888,"▁ဖိလစ်ပိုင်":3889,"▁ချုပ်နှောင်":3890,"▁ရိုးရိုးရှင်းရှင်း":3891,"▁ဖေဖေ့":3892,"သောက":3893,"▁အားမနာ":3894,"▁အမြန်ဆုံး":3895,"▁ဝါသနာပါ":3896,"▁သန့်ရှင်းရေး":3897,"▁ကျွေးမွေး":3898,"▁အသင့်ပြင်":3899,"▁အဆိုတော်":3900,"▁တစ်ခါတစ်ရံ":3901,"▁လွယ်လွယ်ကူကူ":3902,"▁ဆွဲဆောင်မှု":3903,"▁တစ်စုံတစ်ခု":3904,"▁တပည့်တော်":3905,"▁ထိပ်ဆုံး":3906,"▁ဝက်ဝံ":3907,"▁သေးသေးလေး":3908,"▁တွေးခေါ်မှု":3909,"▁အံဝင်":3910,"▁ရိုသေ":3911,"▁ခရမ်းသီး":3912,"▁သူတော်ကောင်း":3913,"▁ဒေါ်လာ":3914,"▁ထက်သန်မှု":3915,"▁အသေအချာ":3916,"▁စီမံကိန်း":3917,"▁ညှိနှိုင်း":3918,"▁မူးယစ်":3919,"▁မှောင်မိုက်":3920,"▁ထွန်းညှိ":3921,"▁ခြားနား":3922,"▁မြန်မြန်ဆန်ဆန်":3923,"▁ကိုက်ညီ":3924,"▁အခိုက်အတန့်":3925,"▁ဖြူစင်":3926,"▁အစိတ်အပိုင်း":3927,"▁ပြုံးပြုံး":3928,"▁အယူအဆ":3929,"▁သော့ချက်":3930,"▁မျိုသိပ်":3931,"▁အခက်ခဲဆုံး":3932,"▁သက်တောင့်သက်သာ":3933,"▁ကော်ဖီ":3934,"▁ဆွေးနွေး":3935,"▁တစ်အိမ်လုံး":3936,"▁လိုက်လံဖမ်း":3937,"▁အားလပ်ချိန်":3938,"▁သေခြင်းတရား":3939,"▁လိုအင်ဆန္ဒ":3940,"▁အကယ်၍":3941,"▁ကျော်ကြားမှု":3942,"▁ဟောပြောပွဲ":3943,"▁တိတိကျကျ":3944,"▁အဘိဓမ္မာ":3945,"▁ဖျောက်ဖျက်":3946,"▁ရိုင်းရ":3947,"▁အနောက်တိုင်း":3948,"▁အပြုသဘောဆောင်":3949,"▁မပျော်မရွှင်":3950,"▁အီးမေး":3951,"▁အိုင်းစတိုင်း":3952,"▁သမာဓိ":3953,"▁သမ္မတ":3954,"▁မှူးမတ်":3955,"▁ပြတင်းပေါက်":3956,"▁ဖြစ်ပါစေ":3957,"▁စိတ်ထိခိုက်":3958,"▁ကိုယ်စားပြု":3959,"▁ယေဘုယျ":3960,"▁လုပ်ဖော်ကိုင်ဖက်":3961,"▁စာမေးပွဲ":3962,"▁စဉ်းစားတွေးတော":3963,"▁အင်ဂျင်နီယာ":3964,"▁လွတ်လွတ်လပ်လပ်":3965,"ကမ":3966,"ကွေး":3967,"ကွေ့":3968,"ကိစ္စ":3969,"ကရေ":3970,"ခေါင်":3971,"ဂန်":3972,"စို":3973,"စတာ":3974,"စိမ့်":3975,"စွန့်":3976,"ဆန့်":3977,"ညံ":3978,"ညို":3979,"ညင်":3980,"ညွတ်":3981,"တေး":3982,"တကြီး":3983,"တုံ့":3984,"ထုပ်":3985,"ထိန်":3986,"ဒန်":3987,"ဒေါ":3988,"ပပ":3989,"ဖို့":3990,"ဘ်":3991,"ဘီး":3992,"ဘုတ်":3993,"မု":3994,"မန်း":3995,"မော့":3996,"မသာ":3997,"မယူ":3998,"မွတ်":3999,"မပြော":4000,"ယောင်း":4001,"ရော်":4002,"ရဆုံး":4003,"ရည်းစား":4004,"လောင်း":4005,"ဝင်း":4006,"သု":4007,"သခင်":4008,"သိန်း":4009,"သတ္တ":4010,"ဟင်း":4011,"အစ":4012,"အိုး":4013,"အများ":4014,"အယူ":4015,"အလာ":4016,"အတူ":4017,"ါတ်":4018,"ီရိ":4019,"ီရို":4020,"ူကာ":4021,"ေဒင်":4022,"ဲဒီ":4023,"္မာ":4024,"ြို":4025,"ှောက်":4026,"▁တဖန်":4027,"▁တလျှောက်":4028,"▁တဝဲ":4029,"▁တတွတ်":4030,"▁တချိန်ချိန်":4031,"ိုချ":4032,"ိုင့်":4033,"ိုဝါဒ":4034,"▁ကွက်":4035,"▁ကွန့်":4036,"▁ပမာ":4037,"▁ပရိတ်":4038,"▁ပရိယာ":4039,"▁မေ":4040,"▁မို":4041,"▁မော်":4042,"▁မိတ်":4043,"▁မစား":4044,"▁မလို":4045,"▁မစပ်":4046,"▁မသိ":4047,"▁မလွဲ":4048,"▁လိ":4049,"▁လိမ":4050,"▁အည":4051,"▁အငယ်":4052,"▁အထား":4053,"▁အညံ့":4054,"▁အညှ":4055,"▁အငြိုး":4056,"▁အဟောင်း":4057,"က်တာ":4058,"▁ရေမ":4059,"▁ရိပ်":4060,"▁ရွံ့":4061,"▁ရွံ":4062,"▁သပ်":4063,"▁သွက်":4064,"▁သရဲ":4065,"▁သခင်":4066,"▁သကြား":4067,"▁ဘတ်":4068,"▁ဘရန်":4069,"▁မှိတ်":4070,"▁မှုန်":4071,"▁စော်":4072,"▁စွတ်":4073,"▁စွပ်":4074,"▁ဆား":4075,"▁ဆွမ်း":4076,"▁ဖီး":4077,"▁ဖွက်":4078,"▁ဖုန်":4079,"▁ဖိုဝါဒ":4080,"▁ကြေး":4081,"▁ကြပ်":4082,"▁ထီ":4083,"▁ထံ":4084,"▁ထွေ":4085,"▁ထည်":4086,"▁ထိုင်း":4087,"▁နေထွက်":4088,"ချပ်":4089,"▁သူလို":4090,"▁သူစိမ်း":4091,"▁တစ်စု":4092,"▁တစ်နေကုန်":4093,"ြစ်မြစ်":4094,"▁လိုလား":4095,"▁ရှိရင်":4096,"ကြောက်":4097,"ကြိုက်":4098,"▁ဖြစ်တည်":4099,"▁ဖြစ်ပွား":4100,"▁ချဲ့":4101,"▁ချပ်":4102,"▁ချိန်း":4103,"▁ကျင်":4104,"▁ကျကျ":4105,"▁ကျဆုံး":4106,"▁ရင်မ":4107,"▁စိတ်ပါ":4108,"▁စိတ်လက်":4109,"▁စိတ်ခွန်":4110,"▁စိတ်အေးချမ်း":4111,"▁လိုက်စား":4112,"▁အတို":4113,"ကျူး":4114,"ကျမ်း":4115,"ကျွန်":4116,"ကျွန်း":4117,"▁ကိုယ်ရည်":4118,"▁ကိုယ်လက်":4119,"မှုန်":4120,"▁ငံ":4121,"လိုင်း":4122,"▁ဒီဇ":4123,"▁ဒီမို":4124,"မြိုက်":4125,"▁အခိုး":4126,"▁အချိုး":4127,"▁အချည်း":4128,"ိုင်းဝိုင်း":4129,"ောင့်အယှက်":4130,"▁ပေးဆောင်":4131,"ိုက်အ":4132,"▁ပြောပ":4133,"▁သင့်မြတ်":4134,"ေမြစ်မြစ်":4135,"▁အလတ်":4136,"▁အလည်":4137,"▁ဝဝ":4138,"▁ဝီရိ":4139,"▁အသောက်":4140,"▁အသားအ":4141,"▁မိန့်":4142,"▁ကြီးထွား":4143,"▁သိသိ":4144,"ခြေမြစ်မြစ်":4145,"ကြီးဆုံး":4146,"▁ပိုလျှံ":4147,"▁နှစ်ရာ":4148,"▁နှစ်ကာလ":4149,"▁နောက်ကွယ်":4150,"နာကျင်":4151,"▁လက်နက်":4152,"▁လက်လွတ်":4153,"ဖြာ":4154,"▁စာရင်":4155,"▁စာစု":4156,"▁စာသင်":4157,"▁အခါး":4158,"▁အခါကောင်း":4159,"နှမ":4160,"နှိပ်":4161,"▁ချစ်စရာ":4162,"▁အပျ":4163,"▁အပေး":4164,"ကိုယ်သွေး":4165,"▁သာဓ":4166,"▁သာသာ":4167,"▁သာလွန်":4168,"▁အဖွားအို":4169,"▁တစ်ခွင်":4170,"▁တိုင်းပြည်":4171,"ဦးနတ်":4172,"▁ကြိုးကြိုး":4173,"စ္ဆ":4174,"▁လမ်းမ":4175,"▁အမြော်အမြင်":4176,"▁အမြှောက်":4177,"▁ထင်ရှား":4178,"▁တွေးပူ":4179,"ပျိုးထောင်":4180,"▁အိမ်ဦးနတ်":4181,"▁ဆက်နွယ်":4182,"▁အဲဒီ့နောက်":4183,"▁ညဉ့်":4184,"▁တစ်ခုလုံး":4185,"▁ပုံချ":4186,"▁ပုံသေ":4187,"▁ပုံရိပ်":4188,"▁ရာဇ":4189,"▁အိပ်ချိန်":4190,"မျှတ":4191,"ပါးရ":4192,"▁အစော":4193,"▁အစဉ်":4194,"လှည့်":4195,"▁ဒေါက်တာ":4196,"▁အပေါ်ယံ":4197,"▁အမေး":4198,"▁အမည်":4199,"▁အမူအ":4200,"▁ဒေါသစိတ်":4201,"စာတမ်း":4202,"စာအုပ်":4203,"▁တက်တက်ကြွ":4204,"▁သောကြောင့်":4205,"▁ချက်ပြုတ်":4206,"▁ပေါင်းစပ်":4207,"▁အသိတရား":4208,"▁ဗေဒင်":4209,"▁စစ်တမ်း":4210,"▁စစ်မြေ":4211,"▁စစ်သူကြီး":4212,"▁ပင်ကို":4213,"▁အကွေ့":4214,"▁ရေသောက်":4215,"▁စောင့်ဆိုင်း":4216,"▁ကုန်ခမ်း":4217,"▁ခြင်":4218,"▁သက်ပြင်း":4219,"▁ခေါင်းစဥ်":4220,"▁ငါးသောင်း":4221,"▁ပန်းပွင့်":4222,"▁ဝေမျှ":4223,"▁အကျိုးတရား":4224,"▁အကျိုးကျေး":4225,"▁အပြစ်မ":4226,"▁တိုက်ဆိုင်":4227,"▁ကျောင်းနေ":4228,"▁လှပမှု":4229,"▁မနက်ခင်း":4230,"▁တစ်ယောက်ယောက်":4231,"ခင်ခင်":4232,"▁အသုံးမ":4233,"▁မှတ်ယူ":4234,"လက်ပါ":4235,"▁တာဝန်မယူ":4236,"▁ထပ်တလဲလဲ":4237,"▁ပညာတတ်":4238,"▁အောက်ဆုံး":4239,"▁တန်ဖိုးထားမှု":4240,"▁ကမ္ဘာကျော်":4241,"▁ရည်မွန်":4242,"▁ခေတ်မီ":4243,"▁အတိုင်းအတာ":4244,"▁အကြီးကြီး":4245,"▁ခဏလေး":4246,"▁ရန်ကုန်":4247,"ထွေးထွေး":4248,"▁ခြေခြေမြစ်မြစ်":4249,"▁ဆောင်းတွင်း":4250,"▁အေးအေး":4251,"▁အဆုံးရှုံး":4252,"▁အလိုက်":4253,"▁ပူဆွေး":4254,"▁ငိုသံ":4255,"▁အလှတရား":4256,"▁မြင့်တက်":4257,"▁မြင့်မား":4258,"▁မြင့်မြင့်":4259,"▁ကံကောင်းမှု":4260,"▁ကံကောင်းခြင်း":4261,"▁ကြီးပြင်းခြင်း":4262,"▁ကားမောင်း":4263,"▁ကြည်ကြည်":4264,"▁အထင်မ":4265,"▁အထင်အမြင်":4266,"▁မူလ":4267,"▁ဆယ့်ခြောက်":4268,"အမူး":4269,"▁စည်းဝိုင်း":4270,"▁ကြံ့ခိုင်ခြင်း":4271,"▁မောဟ":4272,"▁ဘုရားစာ":4273,"▁ဘုရားစင်":4274,"▁ဘုရားသခင်":4275,"▁လွှင့်":4276,"▁အိမ်ထောင်ကွဲ":4277,"▁အိမ်ထောင်မပြု":4278,"▁မျက်နှာဖုံး":4279,"▁ချီးမွှမ်း":4280,"▁ရုန်းထ":4281,"▁စိတ်ဖိအား":4282,"▁အရည်အသွေး":4283,"▁လွဲမှား":4284,"▁ကိုင်တွယ်":4285,"▁လက်မလျှော့":4286,"▁ဝန်မလေး":4287,"▁အားပေးမှု":4288,"▁ရင့်ကျက်မှု":4289,"▁ရင့်ကျက်ခြင်း":4290,"▁ရင်းနှီးမြှုပ်":4291,"တရတ်":4292,"▁ပွင့်လန်း":4293,"▁လွန်ကဲ":4294,"▁ရွှေ့":4295,"ညှာ":4296,"▁စိုးရိမ်စိတ်":4297,"▁အော်ဒီ":4298,"▁ထိုးနှက်":4299,"▁စိတ်မချ":4300,"▁ချိုချဉ်":4301,"▁မြန်ဆန်":4302,"▁စိုက်ထုတ်":4303,"▁စိုက်ခင်း":4304,"▁စိတ်နေသဘောထား":4305,"▁သိမ်ငယ်စိတ်":4306,"▁ဖက်တွယ်":4307,"▁ဇွဲလုံ့":4308,"▁ညံ့ဖျင်းမှု":4309,"▁ရုတ်တရတ်":4310,"▁စုံတွဲ":4311,"▁စုံမှိတ်":4312,"▁ဆဲရေး":4313,"▁ဆဲဆို":4314,"▁ထမင်းစား":4315,"မြှင့်":4316,"▁မည်သူ":4317,"▁သံယောဇဥ်":4318,"▁ကျွန်းတုံး":4319,"လွှင့်":4320,"▁တွန်းပို့":4321,"▁တွန်းလှန်":4322,"▁သစ္စာရှိ":4323,"▁ထောက်ခံ":4324,"▁အရင်းနှီး":4325,"▁လွတ်လပ်မှု":4326,"ငါလို":4327,"▁အရှက်":4328,"▁နစ်ဝင်":4329,"▁စူးစိုက်မှု":4330,"▁ပြုတ်ကျ":4331,"▁ဖယ်ထုတ်":4332,"▁ကြွယ်ဝမှု":4333,"တံဆိပ်":4334,"▁သီးကင်း":4335,"▁သီးသန့်":4336,"▁အပင်ပန်း":4337,"▁ပိုင်းခြား":4338,"▁ပြည်သူ":4339,"▁ဓမ္မ":4340,"▁စက်ဘီး":4341,"▁တိကျ":4342,"▁တီဗီ":4343,"▁တိတ်တိတ်":4344,"▁မရေမ":4345,"▁တွေဝေမှု":4346,"▁ဆော့ကစား":4347,"▁ဖိနပ်":4348,"▁ချီကျူး":4349,"▁အားထုတ်မှု":4350,"▁မြက်ခင်း":4351,"ရောဂါ":4352,"▁စနစ်တကျ":4353,"▁စိတ်ဝင်စားမှု":4354,"▁ညီမျှ":4355,"▁ကောက်ချက်":4356,"▁ကောက်ယူ":4357,"▁လောင်ကျွမ်း":4358,"▁သတင်းထောက်":4359,"▁အရေးမကြီး":4360,"▁ပြုစုပျိုးထောင်":4361,"လုံမ":4362,"▁မောင်းထုတ်":4363,"▁မောင်းနှင်":4364,"▁အစ်မ":4365,"▁ဆူညံ":4366,"▁မြဲမြဲ":4367,"▁အပြေးသန်":4368,"▁စမ်းသပ်မှု":4369,"ညွှန်း":4370,"▁ကွေ့ကောက်":4371,"▁ရိုမန်း":4372,"▁ခရမ်းချဉ်သီး":4373,"▁ဘောလုံးကန်":4374,"▁စင်စစ်":4375,"▁အလွန်အကျွံ":4376,"▁သတိမရ":4377,"ဖ်ကျူ":4378,"▁ကန့်လန့်":4379,"▁ဆံပင်":4380,"▁ဖျတ်":4381,"▁ချေဖျက်":4382,"▁ဗိုက်ဆာ":4383,"▁ပယ်ထုတ်":4384,"▁မောင်နှမ":4385,"▁အနှံ့":4386,"▁နွမ်းပါး":4387,"▁ခန်းဆီး":4388,"ချိုင့်":4389,"▁တွေ့ရှိချက်":4390,"▁ထိရောက်မှု":4391,"▁ပုစွန်ကင်":4392,"▁တစ်ရာ့ရှစ်":4393,"ဆေ့ချ်":4394,"ဉ့်ကလျား":4395,"▁သိုဝှက်":4396,"▁သိုလှောင်":4397,"▁ယဉ်ကျေး":4398,"▁ယဉ်ကျေးမှု":4399,"▁ယှဉ်ပြိုင်":4400,"▁အကြမ်းဖက်":4401,"▁ညစ်ပတ်":4402,"▁စားသောက်ဆိုင်":4403,"▁ကွယ်လွန်":4404,"▁ကွင်းပြင်":4405,"▁ပီပီ":4406,"▁မကောင်းမြင်":4407,"▁အက်ဖ်ကျူ":4408,"▁အညှိုးအတေး":4409,"▁ဘီယာ":4410,"▁ကျဉ်းမြောင်း":4411,"▁စိတ်ကျေနပ်":4412,"▁အသီးအ":4413,"▁အားရပါးရ":4414,"▁လက်မှတ်ထိုး":4415,"▁ကူးခတ်":4416,"▁မတ်ဆေ့ချ်":4417,"▁သော်လည်းကောင်း":4418,"▁ကျက်သရေ":4419,"▁စိတ်ပူပန်":4420,"▁အလဲထိုး":4421,"▁လုံးလုံးလျားလျား":4422,"▁အတင်းအဖျင်း":4423,"▁တိတ်တခိုး":4424,"▁ကျွမ်းကျင်မှု":4425,"▁စိတ်တိုင်းကျ":4426,"▁အတိအကျ":4427,"▁ယဥ်ကျေးမှု":4428,"▁ဝင့်ကြွား":4429,"▁အရူးအမူး":4430,"▁လက်စားချေ":4431,"▁သက်သေပြ":4432,"▁မြှောက်ပင့်ခြင်း":4433,"မသွေ":4434,"သဏ္ဍာန်":4435,"▁ကစဉ့်ကလျား":4436,"▁အငြင်း":4437,"▁ရွယ်တူ":4438,"▁နန်းတော်":4439,"▁သြဝါဒ":4440,"▁ကိုစူကာ":4441,"▁ကိုယ်ကိုယ်တိုင်":4442,"▁ကိုယ်ကျင့်တရား":4443,"▁လေးလေးနက်နက်":4444,"▁အလားတူ":4445,"▁လက်ခုပ်":4446,"▁သေးသိမ်":4447,"▁အစွန်းရောက်":4448,"▁အရေးအကြီးဆုံး":4449,"▁နွေးနွေးထွေးထွေး":4450,"▁ခိုင်ခိုင်မာမာ":4451,"▁အံဝင်ခွင်ကျ":4452,"▁မူးယစ်ဆေး":4453,"▁လိုက်လံဖမ်းဆုပ်":4454,"ကရေစီ":4455,"ြိုဟ်":4456,"▁တတွတ်တွတ်":4457,"▁ကွန့်မန့်":4458,"▁ပရိတ်သတ်":4459,"▁ပရိယာယ်":4460,"▁မလွဲမသွေ":4461,"▁လိမ္မာ":4462,"▁အညှောင့်":4463,"▁ဘရန်ကို":4464,"▁စော်ကား":4465,"▁သူလိုငါလို":4466,"▁စိတ်ပါလက်ပါ":4467,"▁စိတ်ခွန်အား":4468,"▁ကိုယ်ရည်ကိုယ်သွေး":4469,"▁ဒီမိုကရေစီ":4470,"▁ဝီရိယ":4471,"▁အသားအရည်":4472,"▁ကြိုးကြိုးစားစား":4473,"▁အမူအကျင့်":4474,"▁တက်တက်ကြွကြွ":4475,"▁စစ်မြေပြင်":4476,"▁သက်ပြင်းချ":4477,"▁အကျိုးကျေးဇူး":4478,"▁ရင်းနှီးမြှုပ်နှံ":4479,"▁ဇွဲလုံ့လ":4480,"▁ရိုမန်းတစ်":4481,"▁တစ်ရာ့ရှစ်ဆယ်":4482,"ကီ":4483,"ကမ္ဘာ":4484,"ခြစ်":4485,"ခေါက်":4486,"ခွံ":4487,"ခမ်းနား":4488,"ဂြိုဟ်":4489,"ငိုက်":4490,"စတ":4491,"စင်း":4492,"စွင့်":4493,"စမှတ်":4494,"စွပ်":4495,"စကီ":4496,"ဆွ":4497,"ဇော်":4498,"ဋိ":4499,"တုတ်":4500,"တံ့":4501,"တုန်":4502,"ထုံး":4503,"ထိတ်":4504,"ထမ်း":4505,"ထွင်း":4506,"ဒက":4507,"နီးမ":4508,"နိုင်းစ":4509,"နမူနာ":4510,"ပာ":4511,"ပက်":4512,"ပိတ်":4513,"ပုန်း":4514,"ဖီး":4515,"ဖောင်း":4516,"ဖိတ်":4517,"ဖရိ":4518,"ဗျ":4519,"ဘောင်":4520,"မယ်":4521,"မည်း":4522,"မချင်း":4523,"မပေါက်":4524,"မခွာ":4525,"မထင်":4526,"ယုတ်":4527,"ရုပ်":4528,"ရမ်":4529,"ရထိုက်":4530,"လိ":4531,"လ္":4532,"လေ့":4533,"လျက်":4534,"လိမ်း":4535,"ဝဝ":4536,"သည့်":4537,"သေ့":4538,"အပ":4539,"အသ":4540,"အိုင်":4541,"အိတ်":4542,"အပြင်":4543,"အမှန်":4544,"အစည်း":4545,"အငွေ့":4546,"အသွယ်":4547,"အလှန်":4548,"အစည်":4549,"ဩဇာ":4550,"ီမို":4551,"ုယ":4552,"္ထု":4553,"္သေ့":4554,"ြင်":4555,"▁ဤ":4556,"▁ဪ":4557,"▁၌":4558,"▁တု":4559,"▁တဆင့်":4560,"▁တတိယ":4561,"▁တလွဲ":4562,"▁တတွေ":4563,"▁တစ္ဆ":4564,"ိုခွဲ":4565,"▁ကွေး":4566,"▁ကုန်း":4567,"င်ညင်":4568,"ောကျ":4569,"ောသီး":4570,"▁ပဲ့":4571,"▁ပုတ်":4572,"▁ပွန်း":4573,"▁ပစိ":4574,"▁ပဒေ":4575,"▁ပခုံး":4576,"▁မန":4577,"▁မုတ်":4578,"▁မော့":4579,"▁မွန်း":4580,"▁မွတ်":4581,"▁မလာ":4582,"▁မခွဲ":4583,"▁မဟာ":4584,"▁မလုံမ":4585,"▁လီ":4586,"▁အယ":4587,"▁အင်း":4588,"▁အွန်":4589,"▁အောင့်":4590,"▁အက္ခ":4591,"▁အပါး":4592,"▁အဝင်":4593,"▁အီးကျ":4594,"▁အညစ်":4595,"▁အရှည်":4596,"▁အဒေါ်":4597,"▁အမာရွတ်":4598,"ယ်လှယ်":4599,"က်ရယ်":4600,"▁ရိတ်":4601,"▁ရော့":4602,"▁နမ်း":4603,"▁နွား":4604,"▁နိုင်း":4605,"▁နလန်":4606,"▁နမူနာ":4607,"▁သေမ":4608,"▁သွင်း":4609,"▁သဖြင့်":4610,"▁သမင်":4611,"▁သွယ်ဝ":4612,"စ်ကား":4613,"စ်ခနဲ":4614,"င်းပန်း":4615,"▁ခင်း":4616,"▁တွေကို":4617,"▁ပါဝါ":4618,"▁ပါတီ":4619,"▁ပါဆန့်":4620,"▁ဘိ":4621,"▁ဘူတာ":4622,"▁မှေး":4623,"▁မှုတ်":4624,"▁မှည့်":4625,"▁မှိန်":4626,"▁စို":4627,"▁စောင်း":4628,"▁စည်":4629,"▁စွန်":4630,"▁စွန်း":4631,"▁စတိုင်":4632,"▁စတဲ့":4633,"▁စတေး":4634,"▁ပြောင်":4635,"▁ပြန့်":4636,"▁ပြက်ရယ်":4637,"▁ဆိတ်":4638,"▁ဆုတ":4639,"ီးနပ်":4640,"▁ဖား":4641,"▁ဖစ်":4642,"▁ဖိုး":4643,"▁ဖွဲ့":4644,"▁ဖွံ":4645,"▁ကြော်":4646,"ေးရှင်း":4647,"ပ်ထပ်":4648,"▁ထင်း":4649,"▁ထုံး":4650,"▁ထုပ်":4651,"▁ထိတ်":4652,"▁ထွေး":4653,"▁ထွင်":4654,"ောက်ကမ":4655,"▁နေနေ":4656,"▁နေမကောင်း":4657,"ူးရှ":4658,"▁တစ်ဦး":4659,"▁တစ်ရေး":4660,"▁တစ်ဆက်":4661,"▁တစ်တန်း":4662,"▁တစ်ထောင့်":4663,"▁တစ်ကောင်":4664,"▁တစ်ပွင့်":4665,"▁တစ်တွေ":4666,"▁တစ်လောက":4667,"▁တစ်သိန်း":4668,"င့်ရထိုက်":4669,"▁ဒုံး":4670,"▁ဒကာ":4671,"ိုးအတေး":4672,"ောင်းစား":4673,"▁လိုလေ":4674,"ုပ်ဆောင်":4675,"▁ပြီးမြောက်":4676,"▁ရှိရင်း":4677,"ကြင်နာ":4678,"▁ဖြစ်စေ":4679,"▁ဖြစ်ရပ်":4680,"▁ချော်":4681,"▁ချောင်":4682,"▁ချည်":4683,"▁ချဉ်":4684,"▁ချိတ်ဆ":4685,"ည်းစမ်း":4686,"▁ဟု":4687,"▁ဟီရို":4688,"ရာဇာ":4689,"မှာ":4690,"မှူး":4691,"မှောင်":4692,"မှိုင်း":4693,"မှိန်":4694,"▁ကျေ":4695,"▁ကျည်":4696,"▁ကျဥ်း":4697,"▁လူနေ":4698,"▁လူကောင်း":4699,"▁လူအုပ်":4700,"▁လူလူ":4701,"▁လူချစ်":4702,"▁လူအများ":4703,"▁စိတ်အ":4704,"▁စိတ်ပျော်":4705,"▁စိတ်ရင်း":4706,"▁စိတ်ကောက်":4707,"▁စိတ်ဆန္ဒ":4708,"▁စိတ်ဒဏ်":4709,"▁စိတ်ပညာရှင်":4710,"▁မျော":4711,"ည်ထိုင်":4712,"ိမြင်":4713,"▁လိုက်ပါ":4714,"▁လိုက်ပို့":4715,"▁အတုံး":4716,"▁အတိုက်အ":4717,"▁အတ္ထု":4718,"▁ဒါရိုက်":4719,"ကျော့":4720,"▁ကိုယ်လုံး":4721,"▁ကိုယ်တွေ့":4722,"တာမှု":4723,"ပြီ":4724,"ပြက်":4725,"ပြုံ":4726,"▁ငေး":4727,"▁ငတုံး":4728,"▁ယာ":4729,"▁ယမ်း":4730,"▁ယုတ်":4731,"▁ယနေ့":4732,"▁ယုယ":4733,"▁ဒီတိုင်း":4734,"မြို့":4735,"မြုပ်":4736,"မြိန်":4737,"ရှို့":4738,"▁ပေါင်":4739,"▁ပေါများ":4740,"▁လုပ်ခြင်း":4741,"▁လုပ်သင့်":4742,"▁အခေါက်":4743,"▁အခမဲ့":4744,"▁ကိုယ့်နည်း":4745,"▁ကိုယ့်အား":4746,"▁ဘဝင်":4747,"▁တတ်နိုင်":4748,"▁တတ်မြောက်":4749,"▁သင်ပြ":4750,"▁ဘယ်ချိန်":4751,"▁အချို့":4752,"▁အချုပ်":4753,"▁အချမ်းသာ":4754,"▁လေးဆယ့်":4755,"▁နှင်":4756,"▁အောင်ပွဲ":4757,"▁အောင်နိုင်":4758,"▁အဲဲဒီ":4759,"▁ပြောစမှတ်":4760,"▁မင်းသမီး":4761,"▁ကျွန်တော့":4762,"▁စေဖို့":4763,"▁အလီ":4764,"▁အလေ":4765,"▁ဘာမှ":4766,"▁ဝိုင်":4767,"▁အသာ":4768,"▁အသိုင်းဝိုင်း":4769,"▁အရောင်း":4770,"ခြမ်း":4771,"ကြီးချဲ့":4772,"ပါယာ":4773,"▁ပိုလန်":4774,"▁ပေါ့ပေါ့":4775,"▁နှစ်လုံး":4776,"▁နှစ်ချို့":4777,"▁နှစ်နှစ်":4778,"▁နှစ်ထောင့်":4779,"▁နှစ်ပေါင်း":4780,"▁နှစ်ခြိုက်":4781,"▁နောက်ဆက်":4782,"▁နောက်မကျ":4783,"▁နောက်လိုက်":4784,"▁နောက်ပြောင်":4785,"▁အားကောင်း":4786,"▁အားစိုက်":4787,"နာမှု":4788,"နာလီ":4789,"▁ပျော်မွေ့":4790,"▁မြည်းစမ်း":4791,"▁အချိန်မှန်":4792,"▁လက်ရေး":4793,"▁လက်မဲ့":4794,"▁လက်ဆင့်":4795,"▁လက်ညှိုး":4796,"▁လက်ကျန်":4797,"▁လက်ရုံး":4798,"ဖြို":4799,"နေဂျာ":4800,"ပေမယ့်":4801,"▁စာစီ":4802,"လုံးလုံး":4803,"▁ကြည့်ကြည့်":4804,"▁လေယာ":4805,"▁ဖြုတ်":4806,"▁ဖြိုခွဲ":4807,"နှင်း":4808,"နှိုက်":4809,"နှီးကျ":4810,"▁ချစ်စိတ်":4811,"▁လှစ်":4812,"▁လှည်း":4813,"▁တကယ််":4814,"▁စကားများ":4815,"ခြားခြား":4816,"▁အပို":4817,"▁အပန်း":4818,"▁အပိုင်း":4819,"▁အပွင့်":4820,"▁အပိုင်းအ":4821,"▁အလုပ်ရှင်":4822,"ကိုယ်တူ":4823,"ကိုယ်ကိုး":4824,"ခံမှု":4825,"▁အဖွား":4826,"▁အဖျား":4827,"▁အဖျက်":4828,"▁တစ်ခဏ":4829,"▁အဲ့လောက်":4830,"ဦးစီး":4831,"ငယ်သား":4832,"သာရ":4833,"သာပင်":4834,"ွမ်းဝင်":4835,"▁ရောက်ရှိ":4836,"▁နည်းပါး":4837,"▁နည်းပညာ":4838,"▁ခံစားခွင့်":4839,"▁အထွက်":4840,"▁အထွတ်":4841,"▁အထောက်အ":4842,"▁အထပ်ထပ်":4843,"▁တန်ခိုး":4844,"▁နားချ":4845,"▁အကြောင်းအရင်း":4846,"▁နာယူ":4847,"▁နာလန်":4848,"▁သလိုလို":4849,"▁အဆီ":4850,"▁အဆောက်အ":4851,"▁တောင်သူ":4852,"▁တောင်ထိပ်":4853,"▁သုံးစား":4854,"ပျံ့":4855,"ပျောသီး":4856,"▁အိမ်သာ":4857,"▁ဂြ":4858,"▁နေ့လယ်":4859,"▁ထွက်ပေါ်":4860,"▁လျှော်":4861,"▁မြင်မြင်":4862,"▁မြင်သာ":4863,"▁မြင်ယောင်":4864,"▁သားငယ်":4865,"▁သားမယား":4866,"▁အဲဒီ့လို":4867,"▁ညင်ညင်":4868,"▁အမြဲမပြတ်":4869,"▁ပုံသွင်း":4870,"▁ပုံကြီးချဲ့":4871,"ပါးသီ":4872,"▁အစဥ်":4873,"▁အချစ်ရေး":4874,"လှူ":4875,"လှေ":4876,"လှဲ":4877,"လှစ်":4878,"▁သဘောမပေါက်":4879,"▁အနည်ထိုင်":4880,"▁မျက်ဝန်း":4881,"▁အကျဉ်း":4882,"▁ဆရာ့":4883,"▁အသက်ရှူ":4884,"▁အမော":4885,"▁ကြောက်စိတ်":4886,"▁ဒေါသမထွက်":4887,"▁စားစရာ":4888,"▁စားသုံး":4889,"▁အရေးတကြီး":4890,"နက်သန်း":4891,"▁အဖြစ်ပျက်":4892,"လားထိုင်":4893,"လုပ်ထိုက်":4894,"▁တက်မက်":4895,"▁ရင်းနှီးကျ":4896,"▁သစ်ပွ":4897,"▁သစ်လွင်":4898,"▁ပေါင်းစုံ":4899,"▁ပေါင်းမြက်":4900,"▁စဉ်းစားခြင်း":4901,"တစ်စ":4902,"▁တိုးမြှင့်":4903,"▁ကြုံကြုံ":4904,"ရှင်နယ်":4905,"▁ခွင့်ပြု":4906,"▁ပစ်သတ်":4907,"▁ပစ်ခတ်":4908,"▁လုံလုံ":4909,"▁ရက်ရက်":4910,"▁ရက်ရာဇာ":4911,"▁ပြည့်ပြည့်":4912,"▁ဗလ":4913,"▁ဗုံး":4914,"▁ဗီးနပ်":4915,"▁စစ်ဆေး":4916,"▁ဒုက္ခပေး":4917,"▁ပင်စင်":4918,"တူကျ":4919,"တူတူ":4920,"အုပ်ကြီး":4921,"▁အာဖရိ":4922,"▁ရေနွေး":4923,"▁ရေချိုး":4924,"▁ကုန်ကုန်":4925,"▁ကုန်လွန်":4926,"▁ခြေမ":4927,"▁စွန့်ခွာ":4928,"▁ခေါင်းကိုက်":4929,"▁ခေါင်းမော့":4930,"▁ငါးဆယ့်":4931,"▁ငါးပိ":4932,"▁တည်ရှိ":4933,"▁တည်ထောင်":4934,"▁တည်တံ့":4935,"ပြေလည်လည်":4936,"ယာခတ်":4937,"▁ရိုးစင်း":4938,"▁ဝမ်းနည်းစရာ":4939,"▁ဇိမ်":4940,"▁ဇဝေ":4941,"▁ဇနီး":4942,"▁ဇနီးမ":4943,"▁ပန်းလေး":4944,"▁အကျိုးဆက်":4945,"▁အကျိုးပြု":4946,"▁ရပ်စောင့်":4947,"▁ရပ်စဲ":4948,"▁ရုပ်ဆိုး":4949,"▁ထုတ်ပြ":4950,"▁ထုတ်ပြော":4951,"▁ကျေးကျွန်":4952,"▁ခရီးဆက်":4953,"▁ခရီးဝေး":4954,"ပ္ပတ္တိ":4955,"▁ကျောင်းအုပ်ကြီး":4956,"▁ဖြတ်သန်းမှု":4957,"▁ကျန်ရှိ":4958,"▁အင်ပါယာ":4959,"▁ကျေးဇူးပြု":4960,"▁ဖတ်ရှု":4961,"မြတ်ဆုံး":4962,"▁ကိုးဆယ်":4963,"▁ခေါ်ဆောင်":4964,"▁မှတ်ချက်":4965,"▁မှတ်တိုင်":4966,"လက်ချ":4967,"▁ဆိုးကျိုး":4968,"▁တရားသူကြီး":4969,"▁တရားမျှတ":4970,"မင်းကြီး":4971,"ထုတ်မှု":4972,"▁ထပ်တူကျ":4973,"▁အဲဒါကြောင့်":4974,"▁ဆင်းရဲသား":4975,"▁ပညာရှိ":4976,"ရှားပါးပါး":4977,"▁ဖြေရှင်းနည်း":4978,"စွာဘု":4979,"▁ငြှ":4980,"▁မိသားစုဝင်":4981,"န်မာန":4982,"လျောင်း":4983,"လျော်":4984,"▁အထိအ":4985,"▁အကြီးကျယ်":4986,"▁ထိခိုက်မှု":4987,"▁အဓိပ္ပာ":4988,"ထက်မြက်":4989,"▁ဆောင်းဦး":4990,"▁အသိဉာဏ်ပညာ":4991,"▁အလိုဆန္ဒ":4992,"▁ခွဲစိတ်":4993,"တည်းမှု":4994,"▁ကာယ":4995,"▁သေချာမှု":4996,"▁သေချာပေါက်":4997,"▁ပူပြင်း":4998,"▁ပူဇော်":4999,"▁သီအို":5000,"▁အလှအပ":5001,"▁အဆင့်မြင့်":5002,"▁ပြုံးရွှင်":5003,"▁ဆေးပညာ":5004,"▁ဆေးရုံ":5005,"▁ဆေးစွဲ":5006,"▁ဆေးကြော":5007,"▁ကြည်ညို":5008,"▁သူတောင်းစား":5009,"ဖျောက်":5010,"▁ဈေးကွက်":5011,"▁မူရင်း":5012,"▁မီးခြစ်":5013,"▁မီးရှို့":5014,"▁ဆယ်စု":5015,"▁ကျေနပ်မှု":5016,"သွားကျိုး":5017,"▁ဆယ့်တစ်":5018,"▁ဆယ့်နှစ်":5019,"▁နိုင်ငံတကာ":5020,"အမြစ်":5021,"လူခင်":5022,"▁ကွာရှင်း":5023,"▁လှည့်စား":5024,"▁လှည့်ထွက်":5025,"▁ဘုရားဖူး":5026,"ခင်းလမ်း":5027,"▁မေတ္တာတရား":5028,"▁ဖွင့်ပြော":5029,"▁ဖွင့်လှစ်":5030,"▁နှုတ်ဖျား":5031,"▁ပြောဆိုမှု":5032,"▁အိမ်ထောင်ဦးစီး":5033,"▁ဘေးပတ်ဝန်းကျင်":5034,"▁အိုနိုဒါ့":5035,"▁ထိုင်ခုံ":5036,"▁ဂျင်":5037,"▁တည်ငြိမ်ခြင်း":5038,"▁စုပေါင်း":5039,"▁စုပြုံ":5040,"▁ပြင်းပြင်း":5041,"▁လောကဓံတရား":5042,"▁သတ်မှတ်ချက်":5043,"▁လွဲချော်":5044,"▁ဝါး":5045,"▁လက်မောင်း":5046,"▁တံတား":5047,"▁ကုလားထိုင်":5048,"▁အရှုံးမပေး":5049,"▁ပြတ်စဲ":5050,"▁စိတ်ချလက်ချ":5051,"▁လုပ်ငန်းစဉ်":5052,"▁ဝန်ခံ":5053,"▁ဝန်ဆောင်မှု":5054,"▁ချီးမွမ်းမှု":5055,"▁ရင်းနှီးသူ":5056,"▁ရိုးသားမှု":5057,"▁ဇာတ်လိုက်":5058,"▁ရှည်ကြာ":5059,"တရံ":5060,"▁အသံထွက်":5061,"▁အသံတိတ်":5062,"▁စွဲမြဲ":5063,"ညှင်း":5064,"▁အမှတ်ရ":5065,"▁စိုးရိမ်မှု":5066,"▁အကြံပြု":5067,"▁အကြံအစည်":5068,"▁ကစားကွင်း":5069,"▁ထိုးကျ":5070,"▁ကျယ်ပြော":5071,"▁စိတ်မပျက်":5072,"▁စိတ်မဝင်စား":5073,"▁စိတ်မချမ်းသာ":5074,"▁မြန်မာပြည်":5075,"▁မာန်မာန":5076,"▁မြေဩဇာ":5077,"▁သဘာဝကျ":5078,"▁သဘာဝတရား":5079,"နူးနူး":5080,"▁အမျှော်အမြင်":5081,"▁ရွက်လွှင့်":5082,"▁ထောင်တက်":5083,"▁အတော်လေး":5084,"▁လွှဲချ":5085,"▁တုံ့ပြန်မှု":5086,"▁အံ့အား":5087,"▁ရသင့်ရထိုက်":5088,"▁သနားစရာ":5089,"▁ချောမော":5090,"▁ညှိုး":5091,"▁ရုပ်ရှင်ကား":5092,"▁ရုန်းကန်မှု":5093,"▁စိတ်ချမ်းသာမှု":5094,"▁ပိတ်ပင်":5095,"▁စောဒက":5096,"မြှပ်":5097,"▁ပေးဆပ်မှု":5098,"▁ခါးသက်":5099,"▁ခါးပိုက်":5100,"မီဒီယာ":5101,"▁မည်သည့်":5102,"▁ရောင်းချ":5103,"▁ရောင်းစား":5104,"▁မြတ်စွာဘု":5105,"▁စူငေါက်":5106,"▁ဖျက်စီး":5107,"▁အကြာင်း":5108,"▁အစွမ်းထက်":5109,"▁အစွမ်းအစ":5110,"မိုက်မိုက်":5111,"လွှာ":5112,"လွှမ်း":5113,"▁မက်မော":5114,"▁မက်ဒေါ":5115,"▁ထူထပ်":5116,"▁ငြိမ်ငြိမ်":5117,"▁အရင်းအမြစ်":5118,"▁အထက်တန်း":5119,"▁အမြင့်မြတ်ဆုံး":5120,"▁လျှော့ချ":5121,"ပေါင်းသင်း":5122,"မတ်မတ်":5123,"အောင်မြင်":5124,"▁လင်မယား":5125,"▁ဆန်းကြယ်":5126,"▁လူမှုအသ":5127,"ိုင်းစိုင်းစိုင်း":5128,"▁အရက်သောက်":5129,"▁ရှုံးနိမ့်ခြင်း":5130,"▁စွန့်စားခန်း":5131,"▁စိတ်ဓာတ်ကျမှု":5132,"▁ရွှေချ":5133,"ငြောင့်":5134,"▁ဝတ်စား":5135,"▁တောင်းဆိုမှု":5136,"▁လွမ်းဆွတ်ခြင်း":5137,"တဆိတ်":5138,"▁ဓါတ်":5139,"▁နယ်မြေ":5140,"▁ပြေပြေလည်လည်":5141,"▁ပြိုင်ဆိုင်":5142,"▁တစ်ကိုယ်တော်":5143,"▁တစ်ကိုယ်ရည်":5144,"▁အသေးစိတ်":5145,"▁ဖြောင့်တန်း":5146,"▁ပါးစပ်ဖျား":5147,"▁တားမြစ်":5148,"▁တိတ်တဆိတ်":5149,"▁ကတိပြု":5150,"▁မုဆိုး":5151,"▁အဘွားအို":5152,"▁ဖိအား":5153,"▁ဖိနှိပ်":5154,"▁မြက်ပင်":5155,"▁လှောင်ရယ်":5156,"▁ရိုးရိုးသားသား":5157,"▁အစားအသောက်":5158,"▁ငြိမ်းချမ်းရေး":5159,"▁အဝေးကြီး":5160,"▁သရုပ်ဆောင်":5161,"▁နှစ်သိမ့်မှု":5162,"▁အားမငယ်":5163,"▁ရဲရဲဝံ့":5164,"▁သန့်ရှင်းမှု":5165,"ကိုးရာ":5166,"▁တွက်ချက်":5167,"▁နောက်ကျော":5168,"▁စာရွက်စာတမ်း":5169,"▁တစ်စုံတစ်ရာ":5170,"▁ဖေးမမှု":5171,"ပုဒ်":5172,"▁တုံးအ":5173,"▁အပ်နှင်း":5174,"▁ထိပ်တိုက်":5175,"▁သူဌေးကြီး":5176,"▁သေးသေးမွှား":5177,"▁အိပ်ရာဝင်":5178,"▁ဧည့်":5179,"▁ဧဒင်":5180,"▁လည်ချောင်း":5181,"▁ဘောလုံးကွင်း":5182,"▁စင်ကြယ်":5183,"▁လွင့်စင်":5184,"▁ရူးသွပ်":5185,"▁နက်နက်":5186,"▁နက်နဲ":5187,"▁နက်ရှိုင်း":5188,"▁ပြိုကွဲ":5189,"▁ဆံဖြူ":5190,"▁ဆောက်တည်":5191,"▁ငှက်ပျောသီး":5192,"▁လေးနက်မှု":5193,"▁နှင်းလူ":5194,"▁လှလှပပ":5195,"▁အမြတ်ထုတ်":5196,"▁အနီးနား":5197,"▁အပျက်ဆောင်စိတ်":5198,"▁တမင်တကာ":5199,"▁ကဗျာဆရာ":5200,"▁အနှောင့်အယှက်":5201,"▁အနှစ်ချုပ်":5202,"▁အနှစ်သာရ":5203,"▁နတ်သမီး":5204,"▁နတ်မင်းကြီး":5205,"▁နွမ်းနယ်":5206,"▁ပြာယာခတ်":5207,"▁စိတ်ဝိဉာဥ်":5208,"▁အလဟသ":5209,"▁အပျော်ဆုံး":5210,"▁အဖွဲ့အစည်း":5211,"▁လွှမ်းမိုးမှု":5212,"▁ကွဲပြားမှု":5213,"▁ဖြောင့်ဖြောင့်":5214,"▁ပူးတွဲ":5215,"▁လယ်သမား":5216,"▁ရထားတွဲ":5217,"▁စံနှုန်း":5218,"▁စံနမူနာ":5219,"▁ဆူးငြောင့်":5220,"▁ဖုံးကွယ်":5221,"▁ဖုံးလွှမ်း":5222,"▁ကြံဆ":5223,"▁တစ်နည်းအားဖြင့်":5224,"▁ကျောခိုင်း":5225,"▁အခိုက်တန့်":5226,"▁အလယ်တန်း":5227,"▁အစစ်အမှန်":5228,"▁အကျိုးအကြောင်း":5229,"▁ပူလောင်မှု":5230,"▁ခလုတ်တိုက်":5231,"ကဲ့သို့":5232,"▁မကောင်းမှု":5233,"▁မျိုချ":5234,"▁အတုယူ":5235,"▁ဒါ့အပြင်":5236,"▁သင်္ချာ":5237,"▁မျှတမှု":5238,"▁သိပ္ပံပညာရှင်":5239,"ဂျီ":5240,"ဂျစ်":5241,"▁အိန္ဒ":5242,"▁သုည":5243,"▁ဖဲရိုက်":5244,"▁ဝန်းကျင်":5245,"▁ဝန်းရံ":5246,"▁လက်အောက်ငယ်သား":5247,"▁အဆက်မပြတ်":5248,"▁အဆက်အသွယ်":5249,"▁အာမခံချက်":5250,"▁ညှာတာ":5251,"▁အတင်းအကြပ်":5252,"တေတေ":5253,"▁ကမောက်ကမ":5254,"▁ကိန်းအောင်း":5255,"▁စိတ်တူကိုယ်တူ":5256,"▁စိတ်ပင်ပန်းမှု":5257,"▁အတန်းပညာ":5258,"▁ချစ်ချစ်ခင်ခင်":5259,"▁နာကျည်းမှု":5260,"▁အကျယ်ကြီး":5261,"▁တာဝန်ကျေ":5262,"▁ခါးသီးမှု":5263,"ထည်ဝါ":5264,"ဝှမ်း":5265,"▁မမမာ":5266,"▁လတ်ဆတ်":5267,"▁နင်းကန်":5268,"▁ဆိုရှယ်မီဒီယာ":5269,"▁ချီးကြူး":5270,"▁လူဖမ်းကျွန်း":5271,"▁ငှားရမ်း":5272,"▁နှေးကွေး":5273,"▁နှမျောစရာ":5274,"▁ဝိဉာဥ်":5275,"▁အပြန်အလှန်":5276,"▁ဂစ်တာ":5277,"▁အကဲခတ်":5278,"▁ရိုးဖြောင့်မှု":5279,"▁ပန်းချီကား":5280,"▁နိုင်ငံခြားသား":5281,"▁ရိုင်းရိုင်းစိုင်းစိုင်း":5282,"▁တဝဲဝဲ":5283,"▁မိုနာလီ":5284,"▁မော်ဂန်":5285,"▁မိတ်ကပ်":5286,"▁သွက်လက်":5287,"▁ဘတ်စ်ကား":5288,"▁မှုန်ဝါး":5289,"▁ထွေပြား":5290,"▁ဖြစ်တည်မှု":5291,"▁ရင်မဆိုင်":5292,"▁စိတ်အေးချမ်းမှု":5293,"▁အတိုချုပ်":5294,"▁ဒီဇိုင်း":5295,"▁အခိုးအငွေ့":5296,"▁အချည်းနှီး":5297,"▁မိန့်ကြား":5298,"▁သိသိသာသာ":5299,"▁အပေးအယူ":5300,"▁သာဓက":5301,"▁ညဉ့်နက်":5302,"▁ဗေဒင်ဆရာ":5303,"▁ရေသောက်မြစ်":5304,"▁ခြင်္သေ့":5305,"▁ကြည်ကြည်နူးနူး":5306,"▁အထင်မသေး":5307,"▁အော်ဒီကာ":5308,"▁ဓမ္မတာ":5309,"▁မရေမရာ":5310,"▁ကန့်လန့်ဖြတ်":5311,"▁ဖျတ်လတ်":5312,"▁စိတ်ကျေနပ်မှု":5313,"နိုင်းစနေ":5314,"လ္လင်":5315,"▁ပွန်းပဲ့":5316,"▁ပစိဖိတ်":5317,"▁ပဒေသာပင်":5318,"▁မုတ်ဆိတ်":5319,"▁မွန်းကြပ်":5320,"▁မွတ်သိပ်":5321,"▁မခွဲမခွာ":5322,"▁အွန်လိုင်း":5323,"▁အက္ခရာ":5324,"▁အီးကျူ":5325,"▁နိုင်းနိုင်းစနေ":5326,"▁သွယ်ဝိုက်":5327,"▁ဖွံဖြိုး":5328,"▁ထိတ်လန့်":5329,"▁တစ်လောကလုံး":5330,"▁လိုလေသေး":5331,"▁ရှိရင်းစွဲ":5332,"▁လူနေမှု":5333,"▁လူလူချင်း":5334,"▁လူချစ်လူခင်":5335,"▁စိတ်ဒဏ်ရာ":5336,"▁အတ္ထုပ္ပတ္တိ":5337,"▁ဒါရိုက်တာ":5338,"▁လုပ်သင့်လုပ်ထိုက်":5339,"▁ကိုယ့်အားကိုယ်ကိုး":5340,"▁အချမ်းသာဆုံး":5341,"▁ပေါ့ပေါ့ပါးပါး":5342,"▁နောက်ဆက်တွဲ":5343,"▁အားစိုက်ထုတ်မှု":5344,"▁လက်ဆင့်ကမ်း":5345,"▁လက်ရုံးရည်":5346,"▁လေယာဥ်":5347,"▁အပိုင်းအခြား":5348,"▁အထောက်အကူ":5349,"▁ညင်ညင်သာသာ":5350,"ပါးသီလ":5351,"နက်သန်းခေါင်":5352,"▁သစ်ပွသား":5353,"▁ပြည့်ပြည့်ဝဝ":5354,"▁အာဖရိက":5355,"▁ဇဝေဇ":5356,"▁အဓိပ္ပာယ်":5357,"▁သီအိုရီ":5358,"▁ခါးပိုက်နှိုက်":5359,"▁မြတ်စွာဘုရား":5360,"▁မက်ဒေါနယ်":5361,"▁ဓါတ်ပုံ":5362,"▁ရဲရဲဝံ့ဝံ့":5363,"▁သေးသေးမွှားမွှား":5364,"▁ဆံဖြူသွားကျိုး":5365,"▁မိုနာလီဇာ":5366,"ကု":5367,"ကေ":5368,"ကွ":5369,"ကော":5370,"ကယ်":5371,"ကို့":5372,"ကုံး":5373,"ကန်း":5374,"ကရာ":5375,"ကုတ်":5376,"ကွန်":5377,"ကွပ်":5378,"ခလ":5379,"ခ်":5380,"ခေါင်း":5381,"ခန္ဓာ":5382,"ဂဏ":5383,"ဂူ":5384,"ဂုံး":5385,"ဂျက်":5386,"ငှ":5387,"ငုံ့":5388,"ငှား":5389,"စေး":5390,"စမြ":5391,"စုန်း":5392,"စတင်":5393,"စလက်":5394,"စရိတ်":5395,"စရိယာ":5396,"ဆစ်":5397,"ဆို့":5398,"ဇွန်":5399,"ဇွတ်":5400,"ဇယား":5401,"ညူ":5402,"ညး":5403,"ညား":5404,"ညူး":5405,"ညမ်း":5406,"ဋကတ်":5407,"တဩ":5408,"တွ":5409,"တူး":5410,"တသိ":5411,"ထင်း":5412,"ထိုင်း":5413,"ထွာ":5414,"ထုန်":5415,"ဒံ":5416,"ဒန့်":5417,"ဒေါက်":5418,"ဒေသ":5419,"ဓန":5420,"နံ":5421,"နင်း":5422,"နိုက်":5423,"နွဲ့":5424,"နွံ":5425,"ပင်း":5426,"ပီး":5427,"ပူး":5428,"ပြစ်":5429,"ပုံး":5430,"ပရာ":5431,"ပိန်":5432,"ပွတ်":5433,"ပလ္လင်":5434,"ဖင်":5435,"ဖော":5436,"ဖိုက်":5437,"ဖန့်":5438,"ဖိုချ":5439,"ဗာ":5440,"ဗေ":5441,"ဗ်":5442,"ဗြ":5443,"ဗား":5444,"ဗလာ":5445,"ဘေ":5446,"ဘိုင့်":5447,"မထ":5448,"မို့":5449,"မောက်":5450,"မိတ်":5451,"မနာ":5452,"မွန်း":5453,"မလုပ်":5454,"မပင်":5455,"မဖက်":5456,"မဆက်":5457,"မတွေ့":5458,"မကိုင်":5459,"မမှန်":5460,"မေသ":5461,"မသိ":5462,"မယှက်":5463,"မခြင်":5464,"မကြေ":5465,"မစရိယာ":5466,"ယီ":5467,"ယ္":5468,"ယင်":5469,"ယူး":5470,"ယဉ်း":5471,"ယဥ်":5472,"ရရ":5473,"ရွေ":5474,"ရိုင်း":5475,"ရွေး":5476,"ရုန်း":5477,"ရန့်":5478,"ရထား":5479,"ရစပ်":5480,"ရခက်":5481,"လု":5482,"လန်းဆန်း":5483,"ဝေမ":5484,"ဝိစ္စ":5485,"ဝတီ":5486,"ဝန္တာ":5487,"သဟ":5488,"သြ":5489,"သဲ့":5490,"သည်း":5491,"သုတ်":5492,"သလုံး":5493,"သဘာ":5494,"သတ္တိ":5495,"သဂြိုဟ်":5496,"ဟု":5497,"ဟ္":5498,"ဟား":5499,"အုံ":5500,"အပ်":5501,"အုတ်":5502,"အသား":5503,"အံ့":5504,"အဆိုင်":5505,"အလုပ်":5506,"အသန်":5507,"အဝင်":5508,"အုံ့":5509,"အနား":5510,"အရှား":5511,"အပိုင်":5512,"အရောင်":5513,"အယွင်း":5514,"အကြေး":5515,"အကျိုး":5516,"အလတ်":5517,"အဖွဲ့":5518,"ာရောင်":5519,"ာမန်":5520,"ိယ":5521,"ိတွယ်":5522,"ီကျ":5523,"ီဒီယို":5524,"ီစဥ်":5525,"ုဘ":5526,"ုရား":5527,"ုဟ်":5528,"ဲဗား":5529,"ံး":5530,"ျောက်":5531,"ွီဒီယို":5532,"ှာ":5533,"ဿန":5534,"▁တွ":5535,"▁တေး":5536,"▁တင့်":5537,"▁တဖက်":5538,"▁တမူ":5539,"▁တရုတ်":5540,"▁တလဲလဲ":5541,"▁တသွင်":5542,"▁တဇွတ်":5543,"▁တယ္":5544,"▁တရစပ်":5545,"▁တအံ့":5546,"ိုကာ":5547,"▁ကဲ":5548,"▁ကုပ်":5549,"▁ကတော့":5550,"▁ကမာရွတ်":5551,"▁ကန္တာ":5552,"▁ကလိ":5553,"င်ထိုင်":5554,"င်ကြင်နာ":5555,"ောဘ":5556,"▁ပက်":5557,"▁ပီး":5558,"▁ပုပ်":5559,"▁ပေ့":5560,"▁ပွတ်":5561,"▁ပိတ်ဆ":5562,"▁ပလက်":5563,"▁ပရိ":5564,"▁ပရော်":5565,"▁မဲ":5566,"▁မင်":5567,"▁မောက်":5568,"▁မချ":5569,"▁မွှ":5570,"▁မွဲ":5571,"▁မမြင်":5572,"▁မနည်း":5573,"▁မလွှတ်":5574,"▁မရောက်":5575,"▁မဆင်":5576,"▁မပေါ်":5577,"▁မပူ":5578,"▁မဝတ်":5579,"▁မသေချာ":5580,"▁မဂ္ဂ":5581,"▁မလှုပ်":5582,"▁မကြောက်":5583,"▁လန်":5584,"▁လန့်":5585,"▁လိမ်း":5586,"▁လပြည့်":5587,"▁လစ်လျူ":5588,"▁အေ":5589,"▁အယ်":5590,"▁အန်":5591,"▁အပါ":5592,"▁အုံ့":5593,"▁အအေး":5594,"▁အငွေ့":5595,"▁အီမို":5596,"▁အဗြ":5597,"က်စ်":5598,"▁ရိ":5599,"▁ရီ":5600,"▁ရစ်":5601,"▁ရွှင်":5602,"▁ရပိုင်":5603,"▁နဖူး":5604,"▁နုံအ":5605,"▁နယူး":5606,"▁နဲဗား":5607,"▁သ၍":5608,"▁သင်း":5609,"▁သုပ်":5610,"▁သော်":5611,"▁သွန်":5612,"▁သိုင်း":5613,"▁သိုက်":5614,"▁သွယ်":5615,"▁သရက်":5616,"▁သတည်း":5617,"▁သရေ":5618,"▁သဒ္ဓ":5619,"▁သိမြင်":5620,"▁သကဲ့သို့":5621,"ားရှင်း":5622,"ားတိုက်":5623,"▁ကိုရီး":5624,"▁ကိုကာ":5625,"စ်ခံ":5626,"စ်တောက်":5627,"စ်ဘုတ်":5628,"▁ခယ":5629,"▁ခွေ":5630,"▁ခတ်":5631,"▁ခုတ်":5632,"▁ခရင်":5633,"▁ခရစ်":5634,"▁ခယောင်း":5635,"တ်တင်":5636,"▁တွေတော":5637,"▁တယ်လီ":5638,"▁ပါပါ":5639,"▁ပါရှိ":5640,"▁ဘုံ":5641,"▁ဘိုး":5642,"▁ဘော်":5643,"▁ဘုတ်":5644,"▁ဘရောင်":5645,"▁ဘိုင့်":5646,"▁မှော်":5647,"▁စုပ်":5648,"▁စွက်":5649,"▁စိမ့်":5650,"▁စနေ":5651,"▁စပါး":5652,"▁စီးကျ":5653,"▁စမှတ်":5654,"▁စဥ်":5655,"▁စတိတ်":5656,"▁စပီ":5657,"▁ပြပြ":5658,"▁ပြဌာ":5659,"▁တောနက်":5660,"▁တောတောင်":5661,"▁ဆည်း":5662,"▁ဆုတ်":5663,"▁ဆစ်ခနဲ":5664,"ီးရိုး":5665,"▁ဖဲ့":5666,"▁ဖိတ်":5667,"▁ဖွား":5668,"▁ဖေ့":5669,"▁ဖလှယ်":5670,"▁ဖင်ထိုင်":5671,"▁ကြိတ်":5672,"▁ကြွေး":5673,"▁ကြွယ်":5674,"▁ကြိမ်း":5675,"▁ကြင်ကြင်နာ":5676,"ုံရင်း":5677,"▁ထု":5678,"▁ထစ်":5679,"▁ထန်":5680,"▁ထွင်း":5681,"▁ထမြောက်":5682,"ောက်ယှက်":5683,"ောက်ကောက်":5684,"▁တာ့":5685,"▁တာထွက်":5686,"▁နေမှု":5687,"▁နေပျော်":5688,"▁နေအိမ်":5689,"ချောက်":5690,"ချည်":5691,"ချွဲ":5692,"ူးထောက်":5693,"▁ရှူ":5694,"▁ရှဲ":5695,"▁ဆိုပေမယ့်":5696,"▁တစ်ပတ်":5697,"▁တစ်ပြား":5698,"▁တစ်ရွာ":5699,"▁တစ်ကျပ်":5700,"▁တစ်ကမ္ဘာ":5701,"▁တစ်ကျော့":5702,"▁တစ်ခြမ်း":5703,"▁တစ်ဝှမ်း":5704,"င့်ချိန်":5705,"▁ဒိုင်":5706,"▁ဒိုး":5707,"▁ဒေ့":5708,"▁ဒဿန":5709,"▁ဒုံရင်း":5710,"▁ဒူးထောက်":5711,"ိုင်ချ":5712,"▁နဲ့အတူ":5713,"ိုးသီ":5714,"ိုးချိုး":5715,"▁ပြီးရင်":5716,"▁ပြီးပြတ်":5717,"▁ပြီးပြီး":5718,"▁ရှိခိုး":5719,"ကြို":5720,"ကြန်":5721,"ကြိုင်":5722,"ကြော်":5723,"ကြိတ်":5724,"ကြုတ်":5725,"ကြဉ်း":5726,"▁ဖြစ််":5727,"▁ဖြစ်လာ":5728,"▁ဖြစ်တန်":5729,"▁ဖြစ်နိုင်":5730,"▁ချော့":5731,"▁ချယ်လှယ်":5732,"▁ချင့်ချိန်":5733,"န်းကျ":5734,"▁ဟင်":5735,"▁ဟယ်":5736,"▁ဟိမ":5737,"▁ဟိုင်း":5738,"▁ဟန့်":5739,"▁ဟားတိုက်":5740,"▁ဟီးရိုး":5741,"ရာရာ":5742,"ရာတူ":5743,"ောင်ကြိုး":5744,"မှည့်":5745,"မှိုင်ချ":5746,"မ်းအနား":5747,"▁ကျား":5748,"▁ကျမ်း":5749,"▁ကျော့":5750,"▁ကျွံ":5751,"▁ကျန်းကျ":5752,"ယ့်ဟန်":5753,"▁လဲလျောင်း":5754,"▁လူသတ်":5755,"▁လူညံ့":5756,"▁လူဖျင်း":5757,"▁လူကုန်":5758,"▁လူပျို":5759,"▁လူလတ်":5760,"▁လူကြမ်း":5761,"▁လူလောက":5762,"▁လူသတ္တ":5763,"▁လာဘ်":5764,"ွားအလာ":5765,"▁ရင်နာ":5766,"▁ရင်ထဲ":5767,"▁မယ်မယ်":5768,"▁စိတ််":5769,"▁စိတ်လို":5770,"▁စိတ်ကောင်း":5771,"▁စိတ်လေ":5772,"▁စိတ်ကုန်":5773,"▁စိတ်သက်သာ":5774,"▁စိတ်ဖြာ":5775,"▁လိုက်တောင်း":5776,"▁အတိုး":5777,"▁ဒါန":5778,"▁ဒါနဲ့":5779,"ကျဲ":5780,"ကျား":5781,"ကျန်း":5782,"ကျွေး":5783,"ကျေနပ်":5784,"ြင်းရာ":5785,"ြင်းကြော":5786,"▁ကိုယ်အ":5787,"▁ကိုယ်နေ":5788,"▁ကိုယ်ခန္ဓာ":5789,"ပြယ်":5790,"ပြုံး":5791,"မှုတ်":5792,"▁သွားရောက်":5793,"▁သွားတိုက်":5794,"▁ငဲ့":5795,"▁ငိုက်":5796,"▁ငုံ့":5797,"▁ယိုင်":5798,"▁ယန္":5799,"▁ယခင်":5800,"▁ယောကျ":5801,"မြည်း":5802,"▁လုပ်ခ":5803,"▁လုပ်စား":5804,"▁လုပ်ရည်":5805,"▁အခွံ":5806,"▁အခမ်းအနား":5807,"▁အခြင်းရာ":5808,"▁တတ်ကျမ်း":5809,"မျဉ်း":5810,"ွှေ့":5811,"▁နှယ်":5812,"▁နှောင်း":5813,"▁နှယောက်":5814,"▁နှောက်ယှက်":5815,"▁နှောင်ကြိုး":5816,"ေ့သမား":5817,"▁အဲက":5818,"ဒီဆင်":5819,"▁ပြောခွင့်":5820,"▁ကောင်းမှု":5821,"▁ကောင်းပြီ":5822,"▁ထဲဲ":5823,"▁စေတီ":5824,"▁အလာ":5825,"▁အလံ":5826,"▁အလွဲ":5827,"▁အလျှ":5828,"▁အလျောက်":5829,"▁အလောဘ":5830,"▁ခုခံ":5831,"▁ဘာဖြစ်":5832,"▁ဝဲ":5833,"▁ဝပ်":5834,"▁ဝိတ်":5835,"▁ဝေါ":5836,"▁ဝုန်း":5837,"▁ဝတ္":5838,"▁အသဲ":5839,"▁အသွေး":5840,"▁အသုဘ":5841,"▁အသွားအလာ":5842,"▁အရာထင်":5843,"▁အရာမထင်":5844,"ကိုလာ":5845,"ကိုယ့်ဟန်":5846,"▁အရိုက်":5847,"▁အရွေး":5848,"▁ကြီးလေး":5849,"▁ကြီးမြင့်":5850,"ကြီးရှင်":5851,"ကြီးခွင်":5852,"ကြီးအကိုင်":5853,"ကြီးဟစ်":5854,"ိမ့်ဆုံး":5855,"▁နှစ်လ":5856,"▁နှစ််":5857,"▁နှစ်ပါး":5858,"▁နှစ်သစ်":5859,"▁နှစ်မြို့":5860,"▁နောက်မ":5861,"▁နောက်နှစ်":5862,"▁နောက်ဆုတ်":5863,"▁အားသာ":5864,"▁အားခဲ":5865,"▁အားသန်":5866,"▁အားပြိုင်":5867,"▁မြို":5868,"▁မြွေ":5869,"▁မြူး":5870,"▁မြောင်း":5871,"▁မြည်":5872,"▁မြသန်း":5873,"▁မြိုချ":5874,"▁အချိန််":5875,"▁အချိန်ခါ":5876,"▁အချိန်ကုန်":5877,"▁လက်စ":5878,"▁လက်ည":5879,"▁လက်ဦး":5880,"▁လက်လှမ်း":5881,"▁လက်စွဲ":5882,"▁လက်ဆုပ်":5883,"▁လက်ဆွဲ":5884,"▁လက်ဝယ်":5885,"▁လက်မြှောက်":5886,"▁လက်ဝှ":5887,"▁လက်ဗလာ":5888,"▁လက်မှိုင်ချ":5889,"▁မျိုးနွယ်":5890,"သားလုံး":5891,"ဖြည့်":5892,"ဖြန့်":5893,"ပေမဲ့":5894,"▁တကောက်ကောက်":5895,"▁စာသား":5896,"▁စာကြောင်း":5897,"▁စာမူ":5898,"▁စာဖွဲ့":5899,"▁များပြား":5900,"များစွာ":5901,"▁အခါခါ":5902,"▁ကြည့်ရှု":5903,"▁ကြည့်မရ":5904,"▁ဆိုရင်တော့":5905,"▁အကြား":5906,"▁အကြွေး":5907,"▁လေထု":5908,"▁လေသံ":5909,"▁လေပြင်း":5910,"▁လေဒဏ်":5911,"▁ဖြိုးသီ":5912,"နှေး":5913,"နှပ်":5914,"နှိုး":5915,"နှုတ်":5916,"▁ချစ်နည်း":5917,"▁ချစ်ကြိုက်":5918,"▁လှိမ့်":5919,"▁စကားသံ":5920,"▁စကားမပြော":5921,"▁စကားစမြ":5922,"▁အပတ်":5923,"▁အပူအ":5924,"▁အပစ်ခံ":5925,"▁အလုပ်ထွက်":5926,"▁အလုပ်ရုံ":5927,"▁အလုပ်ပြုတ်":5928,"▁အလုပ်ခန့်":5929,"▁အလုပ်ကြီးအကိုင်":5930,"ေါ်ပြု":5931,"န့်ပြန်":5932,"သူငယ်":5933,"ကိုယ်ပေါက်":5934,"▁သာလျှ":5935,"▁ကြောင့်ကြ":5936,"▁အဖန်":5937,"▁အဖတ်တင်":5938,"▁အဖေါ်ပြု":5939,"မာမှု":5940,"သက်သက်":5941,"သက်ပန်":5942,"ငယ်ရေ":5943,"သာန်":5944,"ရေးကြေး":5945,"▁ထိလောင်":5946,"နည်းတူ":5947,"▁ပေါ်လွင်":5948,"▁ခံစားမှု":5949,"▁အထိုး":5950,"▁အထုံး":5951,"▁အထီးမ":5952,"▁အထုပ္":5953,"▁ကြိုးစားပမ်း":5954,"▁ဦးလေး":5955,"▁ဦးမော":5956,"▁နားစွင့်":5957,"▁အကြောင်းအကျိုး":5958,"▁လမ်းစဉ်":5959,"▁လမ်းခင်း":5960,"▁လမ်းကွေ့":5961,"▁နာခံ":5962,"▁နာဇီ":5963,"▁နာနာကျင်":5964,"▁နံပတ်":5965,"▁နံစော်":5966,"▁အမှီ":5967,"▁အမှိုက်":5968,"▁အပြာရောင်":5969,"▁လောလော":5970,"▁လောဂျစ်":5971,"ရှိခိုး":5972,"▁တန်ဖိုးကြီး":5973,"▁တန်ဖိုးဖြတ်":5974,"ဆောင်ရွက်":5975,"▁တောင်တန်း":5976,"▁တောင်ပံ":5977,"▁သုံးထောင်":5978,"▁သုံးခု":5979,"▁သုံးသောင်း":5980,"▁မျှား":5981,"လောက်လောက်":5982,"▁တွေးဆ":5983,"▁ဖူးဖူး":5984,"ပျံ":5985,"ပျိုး":5986,"ပျော့":5987,"▁အိမ်မှု":5988,"▁အိမ်သား":5989,"▁အိမ်ဈေး":5990,"▁အိမ်တွင်း":5991,"▁ဆက်ပြော":5992,"▁ဆက်ကြည့်":5993,"▁ဂူ":5994,"▁ဂွတ်":5995,"▁ဂေါက်":5996,"▁ဂရမ်":5997,"▁ပြောင်းလဲခြင်း":5998,"▁ဆုံးခန်း":5999,"▁လျှံ":6000,"▁အကောင်းမွန်":6001,"▁ယုံကြည်ခြင်း":6002,"က္ကူ":6003,"▁ကလေးငယ်":6004,"▁ညောင်":6005,"▁ညနေ":6006,"▁ညီအ":6007,"▁ညဘက်":6008,"▁ညနက်သန်းခေါင်":6009,"▁ရှာရှားပါးပါး":6010,"▁ရှာမတွေ့":6011,"ဒါန်း":6012,"▁ပုံသဏ္ဍာန်":6013,"▁ရာဟု":6014,"▁ရာသက်ပန်":6015,"▁အိပ်ပြန်":6016,"▁အိပ်ငိုက်":6017,"က္ခတ်":6018,"ဆိုဒ်":6019,"▁အစီစဥ်":6020,"▁သဘောမကျ":6021,"▁သဘောသဘာ":6022,"▁အနိမ့်ဆုံး":6023,"▁အကျဥ်း":6024,"▁ရောယှက်":6025,"ဓာန်":6026,"▁ဆရာသမား":6027,"▁အသက်မွေး":6028,"▁ဖြတ်လျှောက်":6029,"▁ပတ်လုံး":6030,"▁ပတ်လည်":6031,"▁ပတ်သတ်":6032,"ရဲရဲ":6033,"ရဲဆန်":6034,"ဉာဉ်":6035,"▁အမီ":6036,"▁အမဲ":6037,"▁အမွေ":6038,"▁အမွှေး":6039,"▁ကြောက်လန့်":6040,"▁အခြေချ":6041,"▁တူရာတူ":6042,"▁စားဝတ်":6043,"▁တော်ရုံ":6044,"▁တော်လှန်":6045,"ိတ်ဆိတ်ဆိတ်":6046,"▁အဖြစ်မှန်":6047,"▁အဖြစ်မရှိ":6048,"▁နားလည်ခြင်း":6049,"စာကုံး":6050,"▁တက်ကျမ်း":6051,"လာဘ":6052,"လာဘ်":6053,"▁အခုခေတ်":6054,"▁လျှောက်လုပ်":6055,"▁လျှောက်သွား":6056,"▁လျှောက်လျှောက်":6057,"▁လျှောက်တွေး":6058,"လေပြင်း":6059,"▁ပေါင်းဖက်":6060,"▁အသိစိတ်":6061,"▁ရှေ့ထား":6062,"▁စဉ်းစားမှု":6063,"▁စဉ်းစားဉာဏ်":6064,"▁ကိစ္စဝိစ္စ":6065,"တစ်စည်း":6066,"တစ်ချိန်ချိန်":6067,"တစ်လှည့်":6068,"တစ်ပြက်":6069,"▁တိုးဝင်":6070,"▁တိုးတိုး":6071,"▁တိုးချဲ့":6072,"▁ဖြေဖျောက်":6073,"တမ်းတ":6074,"တမ်းတမ်း":6075,"ဖက်စ်":6076,"ဖက်ရှင်နယ်":6077,"▁ခွင့်မပြု":6078,"▁ဝင်စား":6079,"▁ဝင်တန်း":6080,"▁ပစ်ချ":6081,"▁ရက်ပိုင်း":6082,"▁ရက်သတ္တ":6083,"▁ပြည့်ပြည့်စုံ":6084,"▁ဗမာ":6085,"▁ဗလာ":6086,"▁ဗွီဒီယို":6087,"▁ဗားရှင်း":6088,"▁ဝမ်းမြောက်":6089,"▁ထိန်းကျောင်း":6090,"ပန်းတောင်း":6091,"ပန်းသဏ္ဍာန်":6092,"သန်မှု":6093,"▁စစ်စစ်":6094,"▁တစ်ခါတရံ":6095,"ညီမျှ":6096,"▁ပင်ကိုယ်":6097,"▁အကိုင်းအ":6098,"▁အာန":6099,"▁အာဃာ":6100,"▁ရေစ":6101,"▁ရေခဲ":6102,"▁ရေသေ":6103,"▁ရေတံ":6104,"▁ရေတွက်":6105,"▁စောင့်စား":6106,"▁ကုန်ထုတ်":6107,"▁ကုန်ဈေး":6108,"▁ကုန်ပစ္စည်း":6109,"▁ရဲစွမ်း":6110,"▁ရဲဝံ့":6111,"▁နောက်ဆုံးနေ့":6112,"▁ဥတု":6113,"▁ဥက္က":6114,"▁တော်တော်ကြာ":6115,"▁သက်တမ်း":6116,"▁သက်ဝင်":6117,"▁သက်သက်သာ":6118,"ကန်မု":6119,"▁စွန့်ကြဲ":6120,"▁စွန့်စွန့်":6121,"▁ခေါင်းည":6122,"▁ခေါင်းစဉ်":6123,"▁ခေါင်းအေး":6124,"▁ခေါင်းငုံ့":6125,"▁ငါးခု":6126,"▁ငါးပူ":6127,"▁ငါးပါးသီလ":6128,"▁အမှားအယွင်း":6129,"▁အမှန်အ":6130,"▁အမှန်ဆုံး":6131,"▁ဆင်းသက်":6132,"▁ဝမ်းနည်းခြင်း":6133,"▁ဝမ်းနည်းပူ":6134,"▁ဇီ":6135,"▁ပန်းပင်":6136,"▁ပန်းဝင်":6137,"▁ပန်းသီး":6138,"▁ပန်းခြံ":6139,"▁ပန်းအိုး":6140,"▁ပန်းခင်းလမ်း":6141,"▁မို့လို့":6142,"▁ဝေခွဲ":6143,"▁အကျိုးမဲ့":6144,"တည်ငြိမ်":6145,"ပြင်ဆင်":6146,"ကိုင်ရည်":6147,"▁အမျိုးအမ":6148,"▁ရပ်ကွက်":6149,"▁အပြစ်ရှာ":6150,"▁အပြစ်မမြင်":6151,"▁ရုပ်ဝတ္ထု":6152,"▁ထုတ်လွှတ်":6153,"▁ထုတ်ပစ်":6154,"စီးတီး":6155,"▁တိုက်ခတ်":6156,"▁တိုက်ဖျက်":6157,"▁အနာမခံ":6158,"▁စိတ်ကူးယဥ်":6159,"▁ဆုံးရှုံးနစ်":6160,"စက်ဆုံး":6161,"စက်စက်":6162,"▁ခရီးဆောင်":6163,"▁ခရီးသည်":6164,"▁စိတ်ဓာတ်မကျ":6165,"▁ဂရုဏာ":6166,"▁ကျောင်းတက်":6167,"▁ကျောင်းဆရာ":6168,"▁အင်တာ":6169,"▁တစ်ယောက်တည်း":6170,"▁ဖတ်ဖတ်":6171,"▁ဖတ်စာအုပ်":6172,"▁သံစဉ်":6173,"▁သံလိုက်":6174,"▁ငွေစု":6175,"▁ငွေရေးကြေး":6176,"▁အသုံးအ":6177,"ဆင်ဆင်":6178,"ဆင်ဂျာ":6179,"ဆင်ယင်":6180,"▁ကိုးကွယ်":6181,"▁ခေါ်ဆို":6182,"▁ခေါ်ထုတ်":6183,"▁မှန်းစ":6184,"▁မှန်းဆ":6185,"▁မှတ်တမ်း":6186,"လက်ရ":6187,"လက်ကိုင်":6188,"လက်ပျက်":6189,"▁နေထိုင်နည်း":6190,"▁ဆိုးနွဲ့":6191,"ကျင့်သုံး":6192,"▁မွေးစား":6193,"▁အိုစာ":6194,"ွင်ပြင်":6195,"▁အမြင်ကျယ်":6196,"▁ချစ်သူရည်းစား":6197,"▁ဆင်းရဲမှု":6198,"လျှော်":6199,"▁ပညာရပ်":6200,"▁ပညာသင်":6201,"▁အောက်ချ":6202,"▁အောက်ကျ":6203,"▁စွမ်းဆောင်":6204,"▁စွမ်းဆောင်မှု":6205,"▁နှလုံးရည်":6206,"▁နှလုံးသွင်း":6207,"▁နှလုံးရောဂါ":6208,"ဝါရီ":6209,"▁ကမ္ဘာစစ်":6210,"▁ကမ္ဘာမြေ":6211,"▁ပိုက်ဆံအိတ်":6212,"▁ပြင်သစ်":6213,"▁ငြိတွယ်":6214,"▁များများစားစား":6215,"▁စီးဝင်":6216,"▁နည်းနည်းချင်း":6217,"▁တင်စီး":6218,"▁ပျက်ဆီး":6219,"▁ပျက်ပြား":6220,"▁အထီးကျန်မှု":6221,"▁အထီးကျန်ဆန်":6222,"▁အထီးကျန်ကျန်":6223,"▁ပါးနပ်":6224,"န်းမာမာ":6225,"လျာ":6226,"လျင်":6227,"▁ခြောက်လ":6228,"▁ခြောက်ရာ":6229,"▁ခြောက်ခြား":6230,"▁ခြောက်ကပ်":6231,"▁မိုးမ":6232,"▁မိုးရေ":6233,"▁မိုးအုံ့":6234,"▁အကြီးစား":6235,"▁ခဏတာ":6236,"▁လူငယ်လူ":6237,"ခုနှစ်":6238,"▁ကူကူ":6239,"▁ရန်ပွဲ":6240,"▁သတ်ဖြတ်":6241,"▁ထိခိုက်နာကျင်":6242,"▁ရှောင်ပြေး":6243,"▁နှလုံးသားအိမ်":6244,"ထက်သန်မှု":6245,"▁ခြေချ":6246,"▁ခြေရာ":6247,"▁ခြေဦး":6248,"▁ခြေကုန်":6249,"▁ခြေသလုံး":6250,"▁ဆောင်းရာသီ":6251,"▁ဆက်ဆံပေါင်းသင်း":6252,"ကျယ်ကျယ်":6253,"ကမ်းခြေ":6254,"▁အလိုကျ":6255,"▁ဉာဏ်ကောင်း":6256,"▁ဉာဏ်ကြီးရှင်":6257,"▁ကာမေသ":6258,"▁အပြင်ဘက်":6259,"▁မျက်ရည်ဝဲ":6260,"▁ကူညီမှု":6261,"သတ်မှတ်":6262,"▁ဘက်စုံ":6263,"▁တောင်းတ":6264,"▁တောင်းခံ":6265,"▁စာဖတ်သူ":6266,"▁ဝေဖန်ရေး":6267,"▁သီဆို":6268,"▁သို့ပေမဲ့":6269,"▁ငိုယို":6270,"▁အလှမ်း":6271,"▁အလှဆုံး":6272,"▁မေးခွန်းထုတ်":6273,"▁ပုထု":6274,"▁ပုခုံး":6275,"▁ပုဇွန်":6276,"▁တစ်ဖက်သူ":6277,"▁ကားစီး":6278,"▁ကားတိုက်":6279,"▁ကားဂိတ်":6280,"▁ပြုံးစိ":6281,"▁အာရုံစိတ်":6282,"▁အာရုံကြော":6283,"စပ်ဆုံး":6284,"▁စိတ်ညစ်စရာ":6285,"▁စိတ်ညစ်ညူး":6286,"▁အထင်အရှား":6287,"ဖျဉ်း":6288,"▁ဈေးခင်း":6289,"▁ဈေးသည်":6290,"▁ဈေးနှုန်း":6291,"▁မန်နေဂျာ":6292,"▁မီးစ":6293,"▁မီးပွား":6294,"▁မီးသေ":6295,"▁မီးခိုး":6296,"▁မီးလောင်":6297,"▁မီးဖိုချ":6298,"▁မီးသဂြိုဟ်":6299,"▁ဆယ်လီ":6300,"▁ကျေနပ်ချက်":6301,"▁အတွင်းခံ":6302,"▁ရင့်ရင့်":6303,"▁ဆယ့်ကိုး":6304,"▁ဆယ့်ရှစ်":6305,"▁ဆယ့်ခုနှစ်":6306,"▁နိုင်ငံတော်":6307,"▁ပြည့်စုံခြင်း":6308,"▁အပြစ်တင်မှု":6309,"အမိန့်":6310,"▁စည်းမျဉ်း":6311,"▁ဖော်ထုတ်":6312,"▁ဖော်ညွှန်း":6313,"▁စီရင်":6314,"▁ကြင်နာခြင်း":6315,"▁တွေးတောမှု":6316,"▁တွေးတောနည်း":6317,"▁တွေးတောဆင်ခြင်":6318,"▁ဂုဏ်ရှိ":6319,"▁ဂုဏ်ပုဒ်":6320,"ရေပြင်":6321,"▁ဆွဲကိုင်":6322,"▁ဆွဲခေါ်":6323,"ကြားကြား":6324,"▁ပေါက်မြောက်":6325,"▁ပေါက်ခွဲ":6326,"▁အရွယ်ကောင်း":6327,"▁လှည့်ပြောင်း":6328,"▁အိပ်မက်မက်":6329,"▁ဘုရားကြီး":6330,"▁ဘုရားရှင်":6331,"▁ဘုရားရှိခိုး":6332,"▁မေတ္တာဓာတ်":6333,"▁ဖွင့်ဆို":6334,"▁ဖွင့်မပြော":6335,"ွှားမွှား":6336,"▁နှုတ်ခမ်း":6337,"▁အိမ်ထောင်ကျ":6338,"▁အိမ်ထောင်သည်":6339,"▁ကွဲကြေ":6340,"▁လျို့ဝှက်":6341,"▁ရှစ်ဆယ်":6342,"▁ရှစ်ဆယ့်":6343,"▁ကိုယ်ပိုင်ဉာဏ်":6344,"▁ရုန်းမထွက်":6345,"▁ဘာသာစကား":6346,"▁ဂျယ်":6347,"▁ဂျာမန်":6348,"▁ဂျိုကာ":6349,"▁အခြေခံအုတ်":6350,"▁လေ့ကျင့်မှု":6351,"▁စိတ်ရှုပ်စရာ":6352,"သေစာ":6353,"▁စုပုံ":6354,"▁ပြင်းရှ":6355,"▁မကြာမ":6356,"▁ကိုင်ဆွဲ":6357,"▁ဝါရန်":6358,"▁လက်မမြှောက်":6359,"▁လေ့လာမှု":6360,"▁တံတိုင်း":6361,"▁ပြတ်ဆဲ":6362,"▁ကင်းဝေး":6363,"▁ရင်းနှီးမြှပ်":6364,"▁ဇာတ်ရံ":6365,"▁ကြမ်းပြင်":6366,"▁ကြမ်းကြမ်း":6367,"▁ကြမ်းကြုတ်":6368,"▁တဖြည်းဖြည်းချင်း":6369,"နိုးကြားကြား":6370,"လယ်သမား":6371,"▁လွန်လွန်":6372,"▁အနည်းစု":6373,"▁ဆောင်ကြဉ်း":6374,"ဆန်းဆန်း":6375,"▁အလေးချိန်":6376,"▁အမှတ်တံဆိပ်":6377,"▁ခေါင်းဆောင်မှု":6378,"▁ခေါင်းဆောင်စိတ်":6379,"▁အဆင်မပြေမှု":6380,"န္ဒာ":6381,"ထောက်ထား":6382,"▁အော်ကြီးဟစ်":6383,"▁တစ်ချိန်လုံး":6384,"▁သည်းခံမှု":6385,"သိမ်းခြင်း":6386,"▁ပို့စ်":6387,"▁ရွာချ":6388,"▁ရွာသား":6389,"▁နုနယ်":6390,"▁စိတ်မပါ":6391,"▁စိတ်မကြည်":6392,"▁စိတ်မကူး":6393,"▁စိတ်မညစ်":6394,"▁ခုနှစ်ဆယ်":6395,"▁ခုနှစ်တန်း":6396,"▁မြန်မာ့":6397,"▁မြန်မာစာ":6398,"▁မြန်မာစကား":6399,"▁သာမန်ကာ":6400,"▁မာလာ":6401,"▁မာစီးတီး":6402,"▁တောက်လျှောက်":6403,"▁တောက်ပြောင်":6404,"▁ဖုန်းခေါ်":6405,"▁ဖုန်းဘေ":6406,"▁ချိုင့်":6407,"▁ချိုချို":6408,"▁ချိုမြိန်":6409,"▁ပျော့ကွက်":6410,"▁မြေပုံ":6411,"▁မျက်စိမှိတ်":6412,"▁ပင်လယ်ကမ်းခြေ":6413,"▁ရိုးရှင်းစွာ":6414,"▁လျော့ကျ":6415,"အတင့်":6416,"အင်္ကျီ":6417,"▁တမာပင်":6418,"▁နိုးကြား":6419,"▁နိုးနိုးကြားကြား":6420,"▁စိုက်ပျိုး":6421,"▁ဖမ်းယူ":6422,"▁ဖမ်းဆီး":6423,"▁ထောင်ခြောက်":6424,"▁လင်းထိန်":6425,"▁သယ်ပိုး":6426,"▁သန့်သန့်":6427,"▁ကြက်ဥ":6428,"▁ကြက်ပျောက်":6429,"▁ကြက်စွပ်":6430,"▁ချောမွတ်":6431,"▁မြှား":6432,"▁ညှင်းပန်း":6433,"▁ရာထူးတက်":6434,"▁ဆရာမကြီး":6435,"▁ဗီဇာ":6436,"▁ဗီရို":6437,"▁ရုပ်ရှင်ကြည့်":6438,"▁သီချင်းဆို":6439,"▁ရုန်းကန်လှုပ်ရှား":6440,"▁ဂျပန်ပြည်":6441,"နီဝဲ":6442,"အိမ်တိုင်":6443,"▁ပိတ်လှောင်":6444,"▁ရုတ်သိမ်းခြင်း":6445,"▁စောလူး":6446,"▁ထမင်းပွဲ":6447,"▁ထမင်းချိုင့်":6448,"▁လက်ဆောင်ပစ္စည်း":6449,"ဆော်မှု":6450,"▁တပ်ဆင်":6451,"▁မည်မျှ":6452,"▁ရောင်းဝယ်":6453,"▁နီးစပ်":6454,"▁မှီဝဲ":6455,"▁မှီတွယ်":6456,"▁ပြစ်မှု":6457,"▁ပြစ်မှား":6458,"▁တောင့်တင်း":6459,"▁ချန်ပီ":6460,"▁လှုပ်ရှားဆောင်ရွက်":6461,"▁အဖိုးအို":6462,"▁နားမယောင်":6463,"နဲနဲ":6464,"ဘတ်ထိန်း":6465,"▁မီတာ":6466,"▁မီဒီယာ":6467,"▁သမီးရည်းစား":6468,"▁စူပါ":6469,"▁စစ်မှန်မှု":6470,"▁ထုတ်ဖော်ပြော":6471,"▁မက်ဆင်ဂျာ":6472,"▁ထူတောင်":6473,"▁ထူထူ":6474,"▁ထောက်ထား":6475,"▁အရင်းခံ":6476,"▁အရောင်အ":6477,"▁အထက်ပါ":6478,"▁မိန်းမသား":6479,"▁လွတ်လပ်ခြင်း":6480,"▁လွတ်လပ်စွာ":6481,"ဆေးဆေး":6482,"▁အရှုပ်":6483,"▁နိဂုံး":6484,"▁နစ်မြုပ်":6485,"▁နစ်မွန်း":6486,"▁ဟောဒီ":6487,"▁ကျင့်သား":6488,"▁ကျင့်ဝတ်":6489,"▁လူမှုပတ်ဝန်းကျင်":6490,"▁လူမှုကွန်":6491,"▁အရက်ခွက်":6492,"▁အရက်စက်ဆုံး":6493,"▁အရက်သေစာ":6494,"▁ကြီးကျယ်ခမ်းနား":6495,"▁ထိန်းသိမ်းရေး":6496,"▁ကိုယ်ချင်းစာတရား":6497,"ထင်ရှား":6498,"ထန်ထန်":6499,"▁သီးခြား":6500,"▁ကျောက်ခဲ":6501,"▁ကျောက်ပန်းတောင်း":6502,"▁စိတ်ပျက်လက်ပျက်":6503,"▁ခုနစ်ဆယ်":6504,"▁မြို့ပြ":6505,"▁သတိပေးချက်":6506,"ဆက်ဆံရေး":6507,"▁စွန့်စားမှု":6508,"▁အားကစားရုံ":6509,"▁ရွှေတောင်":6510,"▁ရွှေတံဆိပ်":6511,"ငြာ":6512,"ရင့်ရင့်":6513,"▁ပြီးပြည့်စုံမှု":6514,"▁အနုမြူ":6515,"▁ငြိမ်းအေး":6516,"▁အေးချမ်းမှု":6517,"▁အစီအစဉ်တကျ":6518,"▁ဓန":6519,"▁နယ်ချဲ့":6520,"▁နိမ့်နိမ့်":6521,"▁သွေးထွက်":6522,"▁သွေးအေး":6523,"▁သွေးလှူ":6524,"▁ပါရဂူ":6525,"▁စက်ရုံ":6526,"▁စက်ဝိုင်း":6527,"▁ပြေလျော့":6528,"▁တစ်ကိုယ်လုံး":6529,"▁အခြွေ":6530,"▁အသေးစား":6531,"▁အသည်းအသန်":6532,"▁ဇာတ်လမ်းတွဲ":6533,"အိုနိုဒါ":6534,"▁တင်းတင်း":6535,"▁တင်းမာမှု":6536,"▁ကပ်စေး":6537,"▁ကတိစကား":6538,"▁အဘွား":6539,"▁သမိုင်းကြောင်း":6540,"▁ဆော့ဖ်":6541,"▁ပေါ့ပါးမှု":6542,"▁လှောင်ချိုင့်":6543,"▁တက်ကြွမှု":6544,"▁ဗဟို":6545,"▁ကာကွယ်မှု":6546,"▁ကွာခြားမှု":6547,"▁ချမ်းမြေ့ဝင်း":6548,"▁ဓာတ်လှေ":6549,"▁အဝေးပြေး":6550,"▁သရော်":6551,"▁ခပ်ပေ":6552,"▁ခပ်မိုက်မိုက်":6553,"▁ခပ်ဆင်ဆင်":6554,"▁လိုက်နာမှု":6555,"▁ငပိရည်":6556,"▁အားမရ":6557,"▁မြောက်များစွာ":6558,"▁ညီမ":6559,"▁ညီညွတ်":6560,"▁ရဲရဲရင့်ရင့်":6561,"▁တစ်နေ့နေ့တစ်ချိန်ချိန်":6562,"▁မနာလိုစိတ်":6563,"ယောင်ဝါး":6564,"▁လောင်မြိုက်":6565,"▁ရုံးဆင်း":6566,"▁ရှက်ရွံ့":6567,"▁အသင့်အတင့်":6568,"▁စာရွက်လိပ်":6569,"▁ချစ်ခင်ခြင်း":6570,"▁အပြီးသတ်":6571,"▁အပြီးအပိုင်":6572,"▁အဆိုအမိန့်":6573,"▁မျှော်ကိုး":6574,"▁တစ်ခါတစ်ခါ":6575,"▁လင်းလက်တောက်":6576,"▁စိတ်ဆင်းရဲမှု":6577,"တီထွင်":6578,"▁မွှေးပျံ့":6579,"▁အစ်ကို့":6580,"▁ရည်းစားဦး":6581,"▁ခမ်းနားထည်ဝါ":6582,"▁ဆူပူ":6583,"▁ဆူငေါက်":6584,"▁ဖွယ်ရာ":6585,"▁ထိပ်တန်း":6586,"▁ဝက်ဆိုဒ်":6587,"▁ညည်းညူ":6588,"▁အိပ်ရာထ":6589,"▁စမ်းသပ်ချက်":6590,"▁နုပျိုခွင့်":6591,"▁ဧကန်မု":6592,"▁ကွန်ယက်":6593,"▁လည်ပတ်":6594,"▁လန်းဆန်းမှု":6595,"▁အံတု":6596,"▁ခရမ်းချည်":6597,"▁ဒေါ်ဒေါ်":6598,"▁စိတ်အားထက်သန်မှု":6599,"▁အတတ်ပညာ":6600,"နှံမှု":6601,"▁အိပ်ရေးဝ":6602,"▁အလှူခံ":6603,"▁တံခါးဘောင်":6604,"▁အလွန်အကြူး":6605,"▁ဆောင်ရွက်မှု":6606,"▁ဆောင်ရွက်ချက်":6607,"ငှက်ပျောက်":6608,"ထစ်ချ":6609,"ရိုစကီ":6610,"▁တန်းတူ":6611,"▁လုလု":6612,"▁လွင့်ပါး":6613,"▁ရူးမိုက်":6614,"▁ရူးရူး":6615,"▁ဆံနွယ်":6616,"ပြန့်ပြန့်":6617,"▁နှင်းဆီ":6618,"▁နှောင့်နှေး":6619,"▁ဝိုင်းဝန်း":6620,"▁အသားကျ":6621,"▁အသားတုံး":6622,"▁စာရင်းဇယား":6623,"▁ဆက်စပ်မှု":6624,"▁အနီးကပ်":6625,"▁အနီးစပ်ဆုံး":6626,"▁မှားယွင်းမှု":6627,"▁အင်္ဂလန်":6628,"▁သံသရာ":6629,"▁စီမံခန့်":6630,"▁ကုတ်တွယ်":6631,"▁ကုတ်အင်္ကျီ":6632,"▁မူးဝေ":6633,"▁မောင်ရင့်":6634,"▁အိုင်ဖုန်း":6635,"▁အမှုဆောင်":6636,"▁အမှုထမ်း":6637,"▁နွမ်းရိ":6638,"▁ခဲယဉ်း":6639,"▁မှောင်နက်နက်":6640,"▁စိမ်းစို":6641,"▁ဆုလာဒ်":6642,"▁ထွန်းတောက်":6643,"▁ကျိုးကျ":6644,"▁ကျိုးကြောင်း":6645,"▁ကျိုးပဲ့":6646,"▁အစာမကြေ":6647,"▁ငိုကြွေးခြင်း":6648,"▁ကွယ့်":6649,"▁ကန်တော့":6650,"▁ကန်ထုတ်":6651,"▁ရွတ်ဆို":6652,"▁ခေါက်သိမ်း":6653,"▁စိုးမိုး":6654,"▁ဆန့်ထုတ်":6655,"▁ဖုံးအုပ်":6656,"▁ကြံစည်":6657,"▁ရှေးဟောင်း":6658,"▁ချေးငှား":6659,"▁ကျူးကျော်":6660,"▁အလယ်အလတ်":6661,"▁အကြမ်းမဖက်":6662,"▁အကြမ်းဖျဉ်း":6663,"▁ညစ်နွမ်း":6664,"▁ညစ်ညမ်း":6665,"▁အနစ်နာခံမှု":6666,"▁ထူးချွန်ထက်မြက်":6667,"▁ပူပန်မှု":6668,"▁ပူပန်သောက":6669,"▁သံသယဝင်":6670,"▁ပီသ":6671,"▁အက်ရှင်":6672,"▁သော့ခတ်":6673,"▁ဘီဂိတ်":6674,"▁ဆာလောင်":6675,"▁စိတ်ကျရောဂါ":6676,"▁သင်္ကြန်":6677,"▁လှုပ်နှိုး":6678,"▁သက်တဆုံး":6679,"▁လျစ်လျူရှူ":6680,"▁တံငါသည်":6681,"▁တမာရွက်ပြုတ်":6682,"▁တွန်းအားပေး":6683,"▁တွင်ကျယ်":6684,"▁ပိဋကတ်":6685,"▁ပိုးစုန်း":6686,"▁မိုက်မဲ":6687,"▁မိုက်ရူး":6688,"▁မဟုတ်မမှန်":6689,"▁အိယောင်ဝါး":6690,"▁သုခ":6691,"▁သုသာန်":6692,"▁ထီးတော်":6693,"▁တစ်အိမ်သားလုံး":6694,"▁ချွေးစက်":6695,"▁အလဲဖြို":6696,"▁ဝံ့ရဲ":6697,"▁ဝံ့ကြွား":6698,"▁စာနာမှု":6699,"▁ရာစုနှစ်":6700,"▁ဆင်းရဲဒုက္ခရောက်":6701,"▁မာန်တက်":6702,"▁ကြိုတင်ပြင်ဆင်":6703,"▁တိတ်တိတ်ဆိတ်ဆိတ်":6704,"▁မုန့်ဖိုး":6705,"▁အဘိဓာန်":6706,"▁ကန့်သတ်ချက်":6707,"▁ကြွားဝါမှု":6708,"▁သင့်တင့်လျောက်ပတ်စွာ":6709,"စော်ကား":6710,"ဖွဲဖွဲ":6711,"▁ကမြင်းကြော":6712,"▁ကမ်းခြေ":6713,"▁မတရားမှု":6714,"▁အုတ်မြစ်":6715,"▁ကြဲချ":6716,"▁တစ်နှစ်တာ":6717,"▁ဖြစ်ထွန်းမှု":6718,"▁စိတ်တိုင်းမကျ":6719,"▁အတိကျ":6720,"▁နှိုးစက်":6721,"▁နှိုးဆော်":6722,"▁နှိုးဆွ":6723,"▁အလုံးစုံ":6724,"▁အလုံးအရင်း":6725,"▁မျိုးဆက်သစ်":6726,"▁အပြိုင်အဆိုင်":6727,"▁ဂိတ်စောင့်":6728,"▁သဘောတူညီ":6729,"▁ရေရာမှု":6730,"▁ခြုံခို":6731,"▁ထူးထူးခြားခြား":6732,"▁ထူးထူးဆန်းဆန်း":6733,"▁နိုင်ငံရေးသမား":6734,"▁ကျယ်ကျယ်ပြန့်ပြန့်":6735,"▁ဖွံ့ဖြိုးတိုးတက်မှု":6736,"▁ပြိုင်ပွဲဝင်":6737,"▁ပြိုင်ဘက်ကင်း":6738,"▁တစ်ကိုယ်ကောင်းဆန်":6739,"▁ဗုဒ္ဓဘာသာဝင်":6740,"ကံရှင်":6741,"▁ဩဘာ":6742,"▁တွယ်ကပ်":6743,"▁ပွားများ":6744,"▁လတ်လျား":6745,"▁အူတူတူ":6746,"▁ရိုင်းစိုင်းခြင်း":6747,"▁သောင်းကျန်း":6748,"▁ခိုကိုးရာ":6749,"ုံအကြည်":6750,"▁ထို့ကြောင့်":6751,"▁ထို့အတူ":6752,"▁ထုံကျင်":6753,"▁ထုံထိုင်း":6754,"ကြောင်ကြောင်":6755,"▁ငတ်မွတ်":6756,"▁အချိုရည်":6757,"▁ပျားရည်":6758,"▁နောက်ပြန်ဆွဲ":6759,"▁ဖြန့်ကြဲ":6760,"▁အပိုင်တွက်":6761,"▁အဖက်ဖက်":6762,"▁ဂစ်ဗ်":6763,"▁လျှပ်စစ်":6764,"▁ညီးတွား":6765,"▁စဉ်းစားဆင်ခြင်မှု":6766,"▁ဇီးချဉ်သီး":6767,"▁သံဃာတော်":6768,"▁ကွဲလွဲမှု":6769,"▁ထိုးဖောက်ခြင်း":6770,"▁ကြက်သွန်နီ":6771,"▁မြှုပ်နှံ":6772,"▁မြစ်ကမ်းပါး":6773,"▁အားမနာတမ်း":6774,"▁ခြားနားချက်":6775,"▁ပြုံးပြုံးရွှင်ရွှင်":6776,"▁ရိုင်းရိုင်း":6777,"စိမ့်စိမ့်":6778,"မုန့်":6779,"သုဉ်း":6780,"▁ပမာဏ":6781,"▁မေထုန်":6782,"▁လိင်":6783,"▁အညိုးအတေး":6784,"▁အညံ့ခံ":6785,"▁အငြိုးအတေး":6786,"▁ရေမွှေး":6787,"▁ရေမိုးချိုး":6788,"▁ရိပ်သာ":6789,"▁သပ်ရပ်":6790,"▁သပ်သပ်":6791,"▁စွပ်စွဲ":6792,"▁ဆွမ်းခံ":6793,"▁ကြပ်တည်းမှု":6794,"▁ထိုင်းမှိုင်း":6795,"▁တစ်စုတစ်စည်း":6796,"▁ကျင်လည်":6797,"▁ကျင်ငယ်ရေ":6798,"▁စိတ်လက်ချမ်းသာ":6799,"▁ကိုယ်လက်လှုပ်ရှား":6800,"▁အချိုးအစား":6801,"▁အသောက်အစား":6802,"▁ကြီးထွားမှု":6803,"▁စာသင်ကျောင်း":6804,"▁အပျို":6805,"▁ဆက်နွယ်မှု":6806,"▁ရာဇပလ္လင်":6807,"▁အပြစ်မတင်":6808,"▁ကျောင်းနေချိန်":6809,"▁အသုံးမချ":6810,"▁အသုံးမဝင်":6811,"▁အေးအေးဆေးဆေး":6812,"▁အလိုက်သင့်":6813,"▁အလိုက်တသိ":6814,"▁မူလတန်း":6815,"▁လွှင့်ပစ်":6816,"▁ဆဲရေးစော်ကား":6817,"▁တိတ်တိတ်လေး":6818,"▁ယှဉ်ပြိုင်ခြင်း":6819,"▁အသီးအရွက်":6820,"▁အသီးအပွင့်":6821,"▁အငြင်းပွား":6822,"▁တုန့်ပြန်":6823,"▁တစ္ဆေ":6824,"▁မနော":6825,"▁မော့ကြည့်":6826,"▁မလုံမခြုံ":6827,"▁အယုံအကြည်":6828,"▁အညစ်အကြေး":6829,"▁နလန်မထ":6830,"▁ပါတီပွဲ":6831,"▁ဘိစလက်":6832,"▁ဘူတာရုံ":6833,"▁မှေးမှိန်":6834,"▁စိုပြေ":6835,"▁စွန်လွှတ်":6836,"▁စွန်းထင်း":6837,"▁ပြန့်ကျဲ":6838,"▁ပြက်ရယ်မပြု":6839,"▁ဆုတောင်း":6840,"▁ဖိုးဖိုး":6841,"▁ကြော်ငြာ":6842,"▁ထုံးစံ":6843,"▁တစ်ဆက်တည်း":6844,"▁ဒုံးဆိုင်း":6845,"▁ဒကာတော်":6846,"▁ချည်နှောင်":6847,"▁ချိတ်ဆက်":6848,"▁ဟီရိုအိုနိုဒါ":6849,"▁ကျဥ်းမြောင်း":6850,"▁လူအုပ်ကြား":6851,"▁စိတ်အနှ":6852,"▁အတိုက်အခံ":6853,"▁ကိုယ်လုံးကိုယ်ပေါက်":6854,"▁ယာယီ":6855,"▁ကိုယ့်နည်းကိုယ့်ဟန်":6856,"▁နှင်ထုတ်":6857,"▁အလီလီ":6858,"▁အလေအ":6859,"▁ပိုလန်နိုင်ငံ":6860,"▁စာစီစာကုံး":6861,"▁လှစ်ဟ":6862,"▁အပန်းဖြေ":6863,"▁အထွတ်ထိပ်":6864,"▁အဆောက်အအုံ":6865,"▁တောင်သူလယ်သမား":6866,"▁ဂြုဟ်":6867,"▁အကျဉ်းသား":6868,"▁တက်မက်ခြင်း":6869,"▁ရင်းနှီးကျွမ်းဝင်":6870,"▁လုံလုံလောက်လောက်":6871,"▁ရက်ရက်စက်စက်":6872,"▁ပင်စင်ယူ":6873,"▁ငါးပိချက်":6874,"▁ဇနီးမယား":6875,"▁ငြှိမ်း":6876,"▁အထိအခိုက်":6877,"▁အကြီးကျယ်ဆုံး":6878,"▁ကာယကံရှင်":6879,"▁မီးခြစ်ဆံ":6880,"▁ဆယ်စုနှစ်":6881,"▁ပြင်းပြင်းထန်ထန်":6882,"▁အံ့အားသင့်":6883,"▁အကြာင်းအရာ":6884,"▁ဆန်းကြယ်မှု":6885,"▁လူမှုအသိုင်းအဝိုင်း":6886,"▁ဝတ်စားဆင်ယင်":6887,"▁နက်နက်နဲနဲ":6888,"▁ဆူးငြောင့်ခလ":6889,"▁အိန္ဒိယ":6890,"▁ဒီဇိုင်းဆွဲ":6891,"▁ဇဝေဇဝါ":6892,"ဂဏန်း":6893,"ဖိုက်ဖက်စ်":6894,"ဗေဒ":6895,"သဟဲ":6896,"ဟ္မစရိယာ":6897,"▁တင့်တယ်":6898,"▁တဖက်သား":6899,"▁တသွင်သွင်":6900,"▁တဇွတ်ထိုး":6901,"▁တအံ့တဩ":6902,"▁ကုပ်တွယ်":6903,"▁ကန္တာရ":6904,"▁ပွတ်တိုက်":6905,"▁ပိတ်ဆို့":6906,"▁ပရော်ဖက်ရှင်နယ်":6907,"▁မောက်မာ":6908,"▁မဆင်မခြင်":6909,"▁မပူမပင်":6910,"▁မလှုပ်မယှက်":6911,"▁မကြောက်မ":6912,"▁လန်ဒန်":6913,"▁လန့်ဖြန့်":6914,"▁လစ်လျူရှု":6915,"▁အပါအဝင်":6916,"▁အဗြဟ္မစရိယာ":6917,"▁နယူးယောက်":6918,"▁သုပ်စား":6919,"▁သွန်သင်":6920,"▁သရက်ရွက်":6921,"▁သဒ္ဓါ":6922,"▁ကိုရီးယား":6923,"▁ကိုကာကိုလာ":6924,"စ်တောက်တောက်":6925,"▁ခရင်မ်":6926,"▁တယ်လီဖုန်း":6927,"▁ဘုံဖျား":6928,"▁ဘော်ဒီ":6929,"▁ဘရောင်နီဝဲ":6930,"▁ဘိုင့်ဘိုင့်":6931,"▁စုပ်ယူ":6932,"▁စတိတ်စင်":6933,"▁စပီကာ":6934,"▁ပြဌာန်း":6935,"▁ဆုတ်ယုတ်":6936,"▁ဖေ့စ်ဘုတ်":6937,"▁ဖင်ထိုင်ခုံ":6938,"▁ကြိမ်းမောင်း":6939,"▁ကြင်ကြင်နာနာ":6940,"▁ထွင်းဖောက်":6941,"▁တစ်ကမ္ဘာလုံး":6942,"▁ဒေ့ဘတ်ထိန်း":6943,"▁ဖြစ်တန်ရာ":6944,"▁ဟိမဝန္တာ":6945,"▁ဟန့်တား":6946,"▁ကျန်းကျန်းမာမာ":6947,"▁လူသတ်သမား":6948,"▁လူလတ်ပိုင်း":6949,"▁လူသတ္တဝါ":6950,"▁မယ်မယ်ရရ":6951,"▁စိတ်လိုလက်ရ":6952,"▁ကိုယ်နေဟန်":6953,"▁ငိုက်မြည်း":6954,"▁ယန္တရား":6955,"▁လုပ်ရည်ကိုင်ရည်":6956,"▁စေတီတော်":6957,"▁ဝတ္တရား":6958,"ကြီးခွင်ကျယ်":6959,"▁အားသာချက်":6960,"▁မြသန်းတင့်":6961,"▁လက်လှမ်းမီ":6962,"▁လက်ဆုပ်လက်ကိုင်":6963,"▁လက်ဝှေ့သမား":6964,"▁ဖြိုးသီဟ":6965,"▁စကားစမြည်":6966,"▁အပူအပင်":6967,"▁အလုပ်ကြီးအကိုင်ကြီး":6968,"▁သာလျှင်":6969,"▁အထီးမကျန်":6970,"▁အထုပ္ပတ္တိ":6971,"▁ကြိုးစားပမ်းစား":6972,"▁ဦးမောဟ":6973,"▁နာနာကျင်ကျင်":6974,"▁ဖူးဖူးမှုတ်":6975,"▁ဂွတ်နိုက်":6976,"▁ဂေါက်သီး":6977,"▁ဆုံးခန်းတိုင်":6978,"▁အကောင်းမွန်ဆုံး":6979,"▁ညီအစ်":6980,"▁သဘောသဘာဝ":6981,"▁အသက်မွေးမှု":6982,"▁တူရာတူရာ":6983,"▁ရက်သတ္တပတ်":6984,"▁ပြည့်ပြည့်စုံစုံ":6985,"▁အကိုင်းအခက်":6986,"▁အာဃာတ":6987,"▁ရေသေအိုင်":6988,"▁ရေတံခွန်":6989,"▁ကုန်ဈေးနှုန်း":6990,"▁ရဲစွမ်းသတ္တိ":6991,"▁တော်တော်ကြာကြာ":6992,"▁သက်သက်သာသာ":6993,"▁စွန့်စွန့်စားစား":6994,"▁ခေါင်းအေးအေး":6995,"▁ငါးပူတင်း":6996,"▁ဝမ်းနည်းပူဆွေး":6997,"▁အမျိုးအမည်":6998,"▁ဆုံးရှုံးနစ်နာမှု":6999,"▁ငွေရေးကြေးရေး":7000,"ဝါရီလ":7001,"▁လူငယ်လူရွယ်":7002,"▁ခြေကုန်လက်":7003,"▁ခြေသလုံးအိမ်တိုင်":7004,"▁ကာမေသု":7005,"▁မီးဖိုချောင်":7006,"▁အခြေခံအုတ်မြစ်":7007,"▁ဝါရန်ဖိုက်ဖက်စ်":7008,"▁ရင်းနှီးမြှပ်နှံမှု":7009,"▁ကြမ်းကြမ်းတမ်းတမ်း":7010,"▁အော်ကြီးဟစ်ကျယ်":7011,"▁သန့်သန့်ရှင်းရှင်း":7012,"▁ကြက်ပျောက်ငှက်ပျောက်":7013,"▁ကြက်စွပ်ပြုတ်":7014,"▁စောလူးမင်း":7015,"▁ချန်ပီယံ":7016,"▁လူမှုကွန်ယက်":7017,"▁ကပ်စေးနည်း":7018,"▁ဆော့ဖ်ဝဲ":7019,"▁ဓာတ်လှေကား":7020,"▁လင်းလက်တောက်ပ":7021,"▁ဧကန်မုချ":7022,"▁ခရမ်းချည်သီး":7023,"▁စီမံခန့်ခွဲ":7024,"▁ပိုးစုန်းကြူး":7025,"▁မိုက်ရူးရဲဆန်":7026,"▁ကမြင်းကြောထ":7027,"▁ဂြုဟ်တိုင်":7028,"▁ဆူးငြောင့်ခလုတ်":7029,"▁ဘရောင်နီဝဲလ်":7030}