{"[PAD]":0,"[UNK]":1,"[CLS]":2,"[SEP]":3,"[MASK]":4,"<S>":5,"<T>":6,"က":7,"ခ":8,"ဂ":9,"ဃ":10,"င":11,"စ":12,"ဆ":13,"ဇ":14,"ဈ":15,"ဉ":16,"ည":17,"ဋ":18,"ဌ":19,"ဍ":20,"ဏ":21,"တ":22,"ထ":23,"ဒ":24,"ဓ":25,"န":26,"ပ":27,"ဖ":28,"ဗ":29,"ဘ":30,"မ":31,"ယ":32,"ရ":33,"လ":34,"ဝ":35,"သ":36,"ဟ":37,"ဠ":38,"အ":39,"ဤ":40,"ဥ":41,"ဦ":42,"ဧ":43,"ဩ":44,"ဪ":45,"ါ":46,"ာ":47,"ိ":48,"ီ":49,"ု":50,"ူ":51,"ေ":52,"ဲ":53,"ံ":54,"့":55,"း":56,"္":57,"်":58,"ျ":59,"ြ":60,"ွ":61,"ှ":62,"ဿ":63,"၍":64,"၎":65,"၏":66,"▁":67,"▁တ":68,"▁ပ":69,"ို":70,"▁လ":71,"င်":72,"▁မ":73,"ော":74,"▁အ":75,"▁က":76,"ယ်":77,"က်":78,"▁ရ":79,"ား":80,"▁န":81,"▁သ":82,"ေး":83,"▁ပါ":84,"န်":85,"ဲ့":86,"▁ဘ":87,"င်း":88,"▁တယ်":89,"▁ခ":90,"စ်":91,"ပ်":92,"▁ပြ":93,"▁လို":94,"တ်":95,"▁စ":96,"့်":97,"ွေ":98,"▁တာ":99,"်း":100,"▁မှ":101,"▁တွေ":102,"ူး":103,"▁ဖ":104,"▁နေ":105,"ီး":106,"▁ထ":107,"ုပ်":108,"▁ဆ":109,"ုံ":110,"ောက်":111,"▁ဘူး":112,"▁တော":113,"▁ရှ":114,"▁မှာ":115,"ည်း":116,"▁ကြ":117,"▁တဲ့":118,"ိုင်":119,"▁တော့":120,"▁လို့":121,"▁နဲ့":122,"ောင်း":123,"ချ":124,"ို့":125,"င့်":126,"▁ချ":127,"ော်":128,"န်း":129,"ုံး":130,"▁ကို":131,"ိုး":132,"▁ရှိ":133,"▁ပဲ":134,"▁လား":135,"▁ပေး":136,"ောင်":137,"▁မယ်":138,"▁ဖြ":139,"ကြ":140,"▁သူ":141,"မ်း":142,"▁တစ်":143,"ေါ":144,"▁လိုက်":145,"ွား":146,"▁လုပ်":147,"▁ရင်":148,"ပြ":149,"ိတ်":150,"▁ဒ":151,"▁ဘယ်":152,"▁ဖြစ်":153,"▁အလ":154,"▁လာ":155,"▁လဲ":156,"▁လည်း":157,"▁ပြီး":158,"▁ဝ":159,"▁ဆို":160,"▁သွား":161,"▁ကျ":162,"▁ချင်":163,"▁အရ":164,"▁ပြီ":165,"▁င":166,"ိုက်":167,"▁ဟ":168,"▁လေး":169,"▁ထား":170,"မှ":171,"ည်":172,"▁ပြော":173,"▁နိုင်":174,"▁ဘာ":175,"ရာ":176,"▁လေ":177,"ကျ":178,"▁အတ":179,"▁အလုပ်":180,"▁သိ":181,"ည့်":182,"ွက်":183,"▁ဖို့":184,"ုတ်":185,"ိုင်း":186,"ျား":187,"ယ့်":188,"စား":189,"▁ဒီ":190,"▁စိတ်":191,"▁ယ":192,"▁ကောင်း":193,"▁နော်":194,"လို":195,"▁ပေါ":196,"နေ":197,"ရှ":198,"▁အမ":199,"▁မလ":200,"▁လူ":201,"ွေး":202,"▁အောင်":203,"တာ":204,"▁နှ":205,"ိမ":206,"▁ငါ":207,"▁ခဲ့":208,"▁ကိုယ်":209,"▁ပြန်":210,"▁အခ":211,"▁အသ":212,"ွဲ":213,"ွန်":214,"ကြီး":215,"▁အချ":216,"ိန်":217,"▁အား":218,"ဦး":219,"ုန်း":220,"မှု":221,"▁စေ":222,"▁လက်":223,"▁ဦး":224,"▁စား":225,"▁တတ်":226,"▁သေး":227,"▁အစ်":228,"▁ပေါ့":229,"ွင့်":230,"▁တို့":231,"ိပ်":232,"▁ကိုယ့်":233,"ိမ်":234,"▁စာ":235,"▁ဟုတ်":236,"▁မျ":237,"န့်":238,"▁အဆ":239,"ုန်":240,"▁မိ":241,"ဖြ":242,"▁ကြည့်":243,"▁ရဲ့":244,"ောင့်":245,"▁နှစ်":246,"▁ည":247,"▁အတွက်":248,"▁မြ":249,"▁ပျ":250,"▁အချိန်":251,"ရေး":252,"▁အစ်မ":253,"စာ":254,"▁ဆိုတာ":255,"▁များ":256,"▁အကြ":257,"တော်":258,"ွယ်":259,"▁သုံး":260,"▁ကြီး":261,"▁ဝယ်":262,"သာ":263,"▁ဘယ်လို":264,"ေါ်":265,"ျှ":266,"▁ခု":267,"▁နောက်":268,"▁ဟာ":269,"▁ထဲ":270,"▁ကျွန်":271,"▁တိုင်း":272,"▁စရာ":273,"ချက်":274,"ကား":275,"▁ရုံး":276,"ဆုံး":277,"▁လောက်":278,"▁ယူ":279,"▁မလဲ":280,"▁အိပ်":281,"▁သင့်":282,"နှ":283,"▁အက":284,"▁နေ့":285,"သူ":286,"▁ရေ":287,"နေ့":288,"▁ခံ":289,"နာ":290,"လေး":291,"မြ":292,"▁ရောက်":293,"▁အပြ":294,"ွာ":295,"နက်":296,"▁နား":297,"▁အဆင်":298,"▁အိမ်":299,"▁ပို":300,"လုံး":301,"ွှ":302,"ယူ":303,"▁ယောက်":304,"လာ":305,"ဆောင်":306,"ပြေ":307,"သား":308,"▁သင်":309,"▁သူ့":310,"▁အရမ်း":311,"ေ့":312,"▁ခြ":313,"▁နည်း":314,"ော့":315,"▁ဒါ":316,"▁အပ":317,"▁တစ်ခ":318,"▁လှ":319,"ခြ":320,"ဆံ":321,"လောက်":322,"▁ရော":323,"▁တက်":324,"နည်း":325,"မာ":326,"▁တောင်":327,"ခံ":328,"ဈေး":329,"▁ဗ":330,"ပါ":331,"တင်":332,"▁အဲ့":333,"▁ဂ":334,"▁မယ့်":335,"▁တွေ့":336,"▁ကျွန်တော်":337,"ဉ်":338,"▁အမြ":339,"▁သေ":340,"▁ဘယ်သူ":341,"▁ထင်":342,"▁သိပ်":343,"▁အများ":344,"▁အစ":345,"▁အထ":346,"▁ရာ":347,"▁ဖုန်း":348,"▁တက":349,"လည်":350,"မဲ့":351,"စ္":352,"▁မလား":353,"▁မင်း":354,"▁ဆက်":355,"▁စီ":356,"▁ဝင်":357,"▁ကြိုက်":358,"▁နာ":359,"ချင်း":360,"▁ချစ်":361,"▁ငွေ":362,"▁ပျော်":363,"▁ခွင့်":364,"▁နင်":365,"▁မျိုး":366,"▁ဝန်":367,"▁မနက်":368,"▁ခင်":369,"▁သလို":370,"▁ဘဝ":371,"▁သတ":372,"ချာ":373,"စ္စ":374,"▁လျှ":375,"▁သာ":376,"▁ဈေး":377,"ွင်း":378,"▁အခု":379,"ကောင်း":380,"▁မေး":381,"ရင်":382,"▁ခေါ်":383,"▁ထိ":384,"▁ကြိုး":385,"▁သဘ":386,"▁အဆင်ပြေ":387,"လဲ":388,"▁ဘဲ":389,"▁ဆိုင်":390,"▁ညီ":391,"▁ဘယ်လောက်":392,"မှတ်":393,"ရီ":394,"ငယ်":395,"▁ကုန်":396,"လုပ်":397,"▁ပုံ":398,"▁ရက်":399,"▁ကြိုးစား":400,"ပေး":401,"ေမဲ့":402,"▁ပိုက်":403,"▁အကြောင်း":404,"▁လုံး":405,"▁ပိုက်ဆံ":406,"▁အင်":407,"▁တော်":408,"ေါင်း":409,"▁မီး":410,"▁နေရာ":411,"▁တစ်ခု":412,"▁စကား":413,"ရှင်း":414,"▁ဆိုရင်":415,"▁ကြောင့်":416,"▁တကယ်":417,"ဝန်":418,"▁ထွက်":419,"ဝင်":420,"ထမ်း":421,"မှန်":422,"▁သက်":423,"ရှိ":424,"▁တင်":425,"▁အများကြီး":426,"▁ခြင်း":427,"▁မြန်":428,"ွန်း":429,"▁သဘော":430,"▁သေချာ":431,"ထား":432,"အပ်":433,"▁ကြာ":434,"ျက်":435,"▁ဆေး":436,"▁ဝန်ထမ်း":437,"▁အရင်":438,"▁ကား":439,"ဇူး":440,"ျိုး":441,"ေးဇူး":442,"▁ရှာ":443,"▁မျက်":444,"▁အကျ":445,"▁မှတ်":446,"▁သောက်":447,"▁ခံစား":448,"များ":449,"▁အရာ":450,"တန်း":451,"ရင်း":452,"▁အရေး":453,"ငန်း":454,"ယာ":455,"ရက်":456,"ရောက်":457,"▁အားလုံး":458,"▁ဖူး":459,"ွမ်း":460,"▁လိုအပ်":461,"▁လေ့":462,"▁ကလေး":463,"▁လုပ်ငန်း":464,"▁မလို့":465,"ခြား":466,"▁ညီမ":467,"အား":468,"▁လမ်း":469,"▁အဲ":470,"▁ကျေးဇူး":471,"တူ":472,"ဏ်":473,"▁အဖ":474,"▁ပို့":475,"▁စီး":476,"▁ရောင်း":477,"▁အသက်":478,"ငံ":479,"▁ရေး":480,"▁ထက်":481,"ရှင်":482,"စဉ်":483,"ဒီ":484,"▁ပေမဲ့":485,"ွေ့":486,"▁ထုတ်":487,"▁ကနေ":488,"ညီ":489,"▁အမြဲ":490,"တက်":491,"▁ပတ်":492,"▁တုန်း":493,"▁ချက်":494,"▁တန်":495,"စု":496,"▁ကွာ":497,"▁တူ":498,"▁ကြား":499,"သက်":500,"မြင်":501,"ပြု":502,"ေါက်":503,"▁ပေါ်":504,"ညာ":505,"▁တာဝန်":506,"စိုက်":507,"▁ငါး":508,"ထောင်":509,"▁ခဏ":510,"▁ရင်း":511,"မင်း":512,"▁ထည့်":513,"ဗျ":514,"▁မြင်":515,"ကို":516,"တိုင်":517,"▁လစာ":518,"ခန်း":519,"ိမ့်":520,"သမ":521,"ကုန်":522,"▁ဖြေ":523,"ာတ်":524,"▁ပါ့":525,"▁ဘက်":526,"▁ဗျ":527,"▁သတိ":528,"▁အာ":529,"တမ်း":530,"ဆက်":531,"▁မှန်":532,"▁ပြောင်း":533,"▁အခြ":534,"ဖိုး":535,"ဆိုင်":536,"▁ဆီ":537,"ယောက်":538,"▁အခါ":539,"▁ထပ်":540,"▁ရှင့်":541,"ဉ်း":542,"▁ပိတ်":543,"▁ခေါင်း":544,"ရား":545,"လက်":546,"▁အန":547,"▁နည်းနည်း":548,"▁အကုန်":549,"▁နာရီ":550,"▁အေး":551,"စ္စည်း":552,"▁လျှောက်":553,"လှ":554,"▁အလုပ်လုပ်":555,"▁သား":556,"▁ဆိုး":557,"▁နိုင်ငံ":558,"▁တွေး":559,"ပါး":560,"▁တိုး":561,"▁ဖွင့်":562,"ဆေး":563,"ံ့":564,"▁ကြောက်":565,"▁ကု":566,"ပွဲ":567,"▁လွယ်":568,"ပင်":569,"▁စောင့်":570,"▁ပရ":571,"ဆို":572,"▁ပြင်":573,"▁တော်တော်":574,"ဖြန်":575,"▁ဆရာ":576,"ရည်":577,"ုန့်":578,"ရီး":579,"ွတ်":580,"ခဲ":581,"▁အကောင်း":582,"ွင်":583,"ွဲ့":584,"ကျင်":585,"▁ယုံ":586,"▁နင့်":587,"▁လိမ့်":588,"မ်":589,"▁ရှင်း":590,"▁ဝမ်း":591,"ပိုင်း":592,"▁ကူ":593,"▁ထမင်း":594,"▁ကျွန်မ":595,"▁သင်တန်း":596,"ွှင်":597,"က္":598,"▁အသစ်":599,"▁အောက်":600,"▁ပြည့်":601,"▁မိုး":602,"ရုံ":603,"▁တောင်း":604,"▁ရှင်":605,"နပ်":606,"ငွေ":607,"မ္":608,"▁ဖတ်":609,"▁တည်း":610,"▁မှန်း":611,"▁ပြောပြ":612,"▁မြန်မာ":613,"နစ်":614,"▁မျှ":615,"▁အသုံး":616,"▁အခြေ":617,"အေး":618,"▁မေ့":619,"▁ကျန်":620,"ဂျ":621,"▁ဆုံး":622,"ိစ္စ":623,"▁အနေ":624,"▁အရေးကြီး":625,"ဓာတ်":626,"▁မီ":627,"ဒါ":628,"▁ရွေး":629,"ချုပ်":630,"စုံ":631,"အုပ်":632,"ဖြစ်":633,"ရွှင်":634,"▁အကျိုး":635,"ရု":636,"▁ရယ်":637,"ပျ":638,"▁ခက်":639,"▁ဂရု":640,"▁မုန့်":641,"▁ခါ":642,"▁ဒီနေ့":643,"▁ပျက်":644,"▁ကိစ္စ":645,"ထူး":646,"ကြား":647,"▁အောင်မြင်":648,"▁သမ":649,"▁မနက်ဖြန်":650,"က်အ":651,"▁အမျိုး":652,"ဒ်":653,"▁အတိုင်း":654,"▁ကာ":655,"န်းမာ":656,"▁ပင်":657,"▁ကောင်":658,"▁အပြင်":659,"ဆယ်":660,"▁ပစ္စည်း":661,"▁နားလည်":662,"လ်":663,"ဝေး":664,"ပူ":665,"▁တစ်ခါ":666,"▁တန်ဖိုး":667,"▁ကျန်းမာ":668,"▁ကျောင်း":669,"ချို့":670,"▁တချို့":671,"ဖက်":672,"▁မှား":673,"ကြေး":674,"▁စဉ်း":675,"▁စဉ်းစား":676,"လား":677,"▁စစ်":678,"▁အစ်ကို":679,"▁အတူ":680,"နီ":681,"▁စာအုပ်":682,"▁သလဲ":683,"▁သူများ":684,"▁ဝတ်":685,"သွား":686,"ပန်း":687,"▁လေ့လာ":688,"▁အမှ":689,"ပွား":690,"▁တစ်ယောက်":691,"လျှ":692,"▁ခင်ဗျ":693,"▁ကံ":694,"▁အသံ":695,"▁ကူညီ":696,"ပြော":697,"▁ကိုယ်တိုင်":698,"မပြေ":699,"ိမ်း":700,"▁စာရင်း":701,"▁အဆင်မပြေ":702,"▁တိုက်":703,"▁ကြို":704,"▁အလှ":705,"▁ကတ":706,"▁ငယ်":707,"စက်":708,"ကိုင်":709,"▁ပူ":710,"ချိန်":711,"▁အပေါ်":712,"ဖြတ်":713,"▁ဂရုစိုက်":714,"▁ကြုံ":715,"▁ပေါင်း":716,"ခိုင်":717,"▁ပညာ":718,"▁ရန်":719,"နှုန်း":720,"ခွဲ":721,"▁ခွဲ":722,"သမား":723,"▁ဒီလို":724,"▁ကိုး":725,"တီ":726,"▁ပြု":727,"▁နောက်ကျ":728,"ရွက်":729,"▁ရပ်":730,"တစ်":731,"ပြန်":732,"▁ဆောင်":733,"ကြည်":734,"▁စု":735,"္ဂ":736,"▁သူငယ်":737,"▁ပျော်ရွှင်":738,"ကူ":739,"မျိုး":740,"▁စွာ":741,"▁ကျွေး":742,"ထွက်":743,"▁သလား":744,"▁အင်တာ":745,"▁သူငယ်ချင်း":746,"▁တခြား":747,"ခွင့်":748,"▁ရုပ်":749,"▁ရာထူး":750,"▁အခြေအ":751,"ဓိ":752,"▁ကော်":753,"နှာ":754,"▁လွန်း":755,"ပို့":756,"ပျက်":757,"သွင်း":758,"နား":759,"▁ဘာသာ":760,"▁သတင်း":761,"▁အကောင်းဆုံး":762,"လမ်း":763,"▁အစား":764,"▁အဓိ":765,"တည်":766,"▁ပျောက်":767,"▁မကြီး":768,"▁ခရီး":769,"▁အခွင့်":770,"နင်":771,"တ္":772,"ိန်း":773,"▁အော်":774,"▁ထိုင်":775,"▁သက်သာ":776,"▁ကျေးဇူးတင်":777,"မ်းသာ":778,"▁အခြေအနေ":779,"▁မွေး":780,"▁စီးပွား":781,"ဏီ":782,"▁များများ":783,"▁မျက်နှာ":784,"▁ကုမ္":785,"စီး":786,"ပဏီ":787,"▁ရည်":788,"▁ထိုး":789,"▁ဆု":790,"▁ပင်ပန်း":791,"▁ကုမ္ပဏီ":792,"▁ခိုင်း":793,"ပေါက်":794,"လွှ":795,"▁ပြဿ":796,"▁အတွင်း":797,"ထုတ်":798,"▁လိုင်း":799,"▁မိန်း":800,"▁အပြစ်":801,"▁လျှော့":802,"▁ပြဿနာ":803,"ခု":804,"လပ်":805,"စင်":806,"တွေ့":807,"▁ခန့်":808,"▁ကျော်":809,"ကျင့်":810,"▁အမေ":811,"ပန်":812,"▁လွှ":813,"▁စိုး":814,"▁ယုံကြည်":815,"▁ဂျ":816,"ကြာ":817,"ဆိုး":818,"ခဏ":819,"▁ဆယ့်":820,"▁စီးပွားရေး":821,"တော့":822,"သီး":823,"▁သန့်":824,"ရွယ်":825,"သွယ်":826,"▁အေ":827,"အသ":828,"▁စက်":829,"▁တည်":830,"▁သော":831,"▁မိဘ":832,"ပါတ်":833,"ံပါတ်":834,"▁ကတည်း":835,"▁ဇ":836,"▁ရှေ့":837,"ကူး":838,"▁မို့":839,"စပ်":840,"▁မေ":841,"ချယ်":842,"ကြုံ":843,"▁မီတင်":844,"▁အခွင့်အ":845,"▁အရည်":846,"▁အသိ":847,"▁စည်း":848,"▁ဆင်း":849,"ဖြည်း":850,"▁ကျန်းမာရေး":851,"ဆင်":852,"လိုင်း":853,"▁သတ်":854,"▁ဆက်ဆံ":855,"မှန်း":856,"▁အပြည့်":857,"▁စမ်း":858,"▁ထူး":859,"▁အမြဲတမ်း":860,"▁ခြောက်":861,"သီ":862,"▁ရှောင်":863,"ဝင်စား":864,"တလ":865,"▁ရုံ":866,"တိ":867,"ထိုင်":868,"▁ရိုး":869,"▁ချင်း":870,"▁ဖြတ်":871,"▁မျှော်":872,"▁ဖယ်":873,"▁စိတ်ချ":874,"▁တိုင်":875,"ကွက်":876,"နွေး":877,"▁ဆွဲ":878,"ခါ":879,"▁ငြ":880,"ရှည်":881,"▁ပတ်သက်":882,"▁ရွေးချယ်":883,"ထမ":884,"▁တရား":885,"▁လော":886,"▁အမှန်":887,"▁ပထမ":888,"▁ခေ":889,"▁ပိုင်":890,"ောဂ":891,"▁အိတ်":892,"▁အဖြ":893,"▁ဆယ်":894,"ခွင်":895,"▁ခေတ်":896,"ငြ":897,"မံ":898,"သတ်":899,"▁ကိုင်":900,"နှီး":901,"▁အာရုံ":902,"သေ":903,"အဝေး":904,"▁နီး":905,"▁လူကြီး":906,"မခံ":907,"▁ဟို":908,"▁လက်ခံ":909,"▁အစည်း":910,"ဂျင်":911,"▁သလောက်":912,"ရပ်":913,"ရိုက်":914,"▁အားပေး":915,"▁ဘယ်သူ့":916,"▁အစည်းအဝေး":917,"ခေါ်":918,"ဖော်":919,"▁မူ":920,"▁ကောင်းကောင်း":921,"▁အကြွေး":922,"▁ရဲ":923,"က္ခ":924,"နိုင်":925,"ရဲ":926,"▁စော":927,"▁ဖြည့်":928,"ရှား":929,"▁ညနေ":930,"▁အထိ":931,"ကာ":932,"▁ပုံမှန်":933,"▁ဗျာ":934,"ကန်":935,"ခန့်":936,"▁အပ်":937,"▁ခဲ":938,"▁မှု":939,"သမီး":940,"ီအ":941,"▁အရောင်း":942,"နီယာ":943,"▁သတ်မှတ်":944,"ခင်း":945,"ဆယ့်":946,"▁မနေ့":947,"ဖီ":948,"မေး":949,"▁လုံးဝ":950,"ဆင်း":951,"▁စီမံ":952,"▁အဲဒီ":953,"▁ဖြေရှင်း":954,"ပိုင်":955,"▁ကော်ဖီ":956,"စီ":957,"ထပ်":958,"▁ရှစ်":959,"▁ပေါက်":960,"▁တစ်ခုခု":961,"▁အဓိက":962,"▁ပစ်":963,"▁ဒါပ":964,"ပျော်":965,"မည်":966,"▁မိတ်":967,"▁နောက်ဆုံး":968,"▁အကျင့်":969,"▁ဖယ်ရီ":970,"▁ကျေ":971,"▁အမှား":972,"ထိုး":973,"ပုံ":974,"▁ထိန်း":975,"▁တိုးတက်":976,"စံ":977,"▁ကြက်":978,"▁အတွေး":979,"စရာ":980,"ရိတ်":981,"▁ဆက်သွယ်":982,"▁နာမည်":983,"▁လေ့ကျင့်":984,"▁လုပ်ငန်းခွင်":985,"▁ဒါပေမဲ့":986,"မိ":987,"ဝေ":988,"▁စိတ်ဓာတ်":989,"▁အဖွဲ့":990,"ကွယ်":991,"▁အရှ":992,"▁ဗိုက်":993,"▁စကားပြော":994,"▁ခင်ဗျာ":995,"▁သီ":996,"▁ကိုက်":997,"▁ဘာလဲ":998,"ိမိ":999,"▁သတိရ":1000,"▁သမျှ":1001,"▁အနည်း":1002,"▁ဒု":1003,"▁မိမိ":1004,"▁ရိုက်":1005,"▁ဘော":1006,"▁စုံ":1007,"▁အလို":1008,"▁အရောင်":1009,"▁ပြန်လာ":1010,"▁အချစ်":1011,"ဆောင်မှု":1012,"▁ဆုံးဖြတ်":1013,"ကမ်း":1014,"▁ဘေး":1015,"▁ဆံ":1016,"▁အကြံ":1017,"▁ရာသီ":1018,"▁လက်ဆောင်":1019,"▁မိသား":1020,"▁ခွင့်ယူ":1021,"▁မိသားစု":1022,"စိတ်":1023,"▁မင်":1024,"န်တ":1025,"▁စီစဉ်":1026,"ညစ်":1027,"▁တစ်နေ့":1028,"▁ဟင်း":1029,"နှစ်":1030,"စမ်း":1031,"ယား":1032,"▁နားထောင်":1033,"▁ဖုန်းဆက်":1034,"▁အတူတူ":1035,"▁အွန်":1036,"▁ဝေး":1037,"▁လက်မှတ်":1038,"▁အဆင့်":1039,"လျှောက်":1040,"▁အွန်လိုင်း":1041,"▁ရရှိ":1042,"▁သစ်":1043,"▁ပြေ":1044,"▁ပုံစံ":1045,"ဘာ":1046,"ာန":1047,"▁စွမ်း":1048,"▁ကျွမ်း":1049,"▁စိတ်ဝင်စား":1050,"▁စာချုပ်":1051,"▁ငွေကြေး":1052,"▁ပရို":1053,"▁အတိုး":1054,"▁စိတ်မ":1055,"▁အသား":1056,"▁အထူး":1057,"▁အင်တာနက်":1058,"ခင်":1059,"▁ချည်း":1060,"▁ဝါ":1061,"▁အဲ့လို":1062,"▁အဲ့ဒီ":1063,"တ္တာ":1064,"▁ပွဲ":1065,"▁ငါ့":1066,"▁ယောက်ျား":1067,"ခြေ":1068,"▁ခဏခဏ":1069,"▁ပြင်ဆင်":1070,"လင်း":1071,"▁နယ်":1072,"▁ငို":1073,"▁သဘောကျ":1074,"ှား":1075,"▁ဖြစ်ဖြစ်":1076,"ဖြင့်":1077,"▁အဖေ":1078,"ပညာ":1079,"သန့်":1080,"▁တွဲ":1081,"ပြတ်":1082,"▁စိတ်ညစ်":1083,"မြန်":1084,"တိုက်":1085,"တလေ":1086,"နံပါတ်":1087,"မင်":1088,"လင့်":1089,"အို":1090,"ွေးနွေး":1091,"▁မျှော်လင့်":1092,"သန်":1093,"▁တနင်":1094,"▁အဝ":1095,"▁အတွေ့":1096,"▁နေ့လည်":1097,"▁ရန်ကုန်":1098,"▁ဆံပင်":1099,"▁ပန်း":1100,"▁ပိုင်း":1101,"▁မူး":1102,"▁ဘဏ်":1103,"▁စနစ်":1104,"▁အခက်အ":1105,"▁ကျွမ်းကျင်":1106,"▁အခက်အခဲ":1107,"ပတ်":1108,"ပေါ":1109,"▁ချေး":1110,"▁တစ်ခါတလေ":1111,"▁ညှ":1112,"▁စီအ":1113,"▁တာဝန်ယူ":1114,"▁ရှင်းပြ":1115,"▁ကာလ":1116,"ကပ်":1117,"ုဏ်":1118,"▁ပြောင်းလဲ":1119,"▁ဝမ်းနည်း":1120,"▁ဥ":1121,"▁ရီ":1122,"▁ခေါက်":1123,"▁ပြုံး":1124,"▁ဆော့":1125,"ကြည့်":1126,"▁ဂုဏ်":1127,"▁အနား":1128,"▁ပရောဂ":1129,"▁ပရောဂျက်":1130,"စော":1131,"လိပ်":1132,"▁မြန်မြန်":1133,"▁အခွင့်အရေး":1134,"ပေါင်း":1135,"ျော်":1136,"▁မခိုင်":1137,"▁ဖက်":1138,"▁မြို့":1139,"▁မေတ္တာ":1140,"ဂါ":1141,"တံ":1142,"တန်":1143,"ဗျား":1144,"သင်":1145,"▁လွတ်":1146,"▁ခင်ဗျား":1147,"▁ဆိုင်ရာ":1148,"▁သန့်ရှင်း":1149,"ဌာန":1150,"▁လုံ":1151,"▁အဖြစ်":1152,"▁ဘွဲ့":1153,"▁ချမ်းသာ":1154,"ရှ်":1155,"ကလေး":1156,"စည်း":1157,"ရိမ်":1158,"အိတ်":1159,"▁စွ":1160,"▁နှုန်း":1161,"▁အချက်အ":1162,"▁စောစော":1163,"▁ကျေနပ်":1164,"စစ်":1165,"ဆွဲ":1166,"မလေး":1167,"▁အကြီး":1168,"▁ဆွေးနွေး":1169,"ချမ်း":1170,"▁လက်ရှိ":1171,"▁ဝမ်းသာ":1172,"▁သမီး":1173,"ကဲ့":1174,"စွဲ":1175,"ပိတ်":1176,"အကြုံ":1177,"▁ဖိ":1178,"▁အတော်":1179,"▁ဟုတ်ကဲ့":1180,"▁သတိထား":1181,"▁အတွေ့အကြုံ":1182,"▁အချက်အလက်":1183,"ာဏ်":1184,"္ဓ":1185,"▁ကပ်":1186,"▁ဖော်":1187,"ုပ်ရှား":1188,"▁အဲ့ဒါ":1189,"▁ဝင်ငွေ":1190,"▁စိုးရိမ်":1191,"▁တွက်":1192,"▁သံ":1193,"▁ဘု":1194,"ပြင်":1195,"▁အချက်":1196,"ဝက်":1197,"ဝန်း":1198,"ာဝ":1199,"▁ဌာန":1200,"▁တင်း":1201,"▁တပ်":1202,"▁ဆင်":1203,"▁သင်ယူ":1204,"▁မှတ်မိ":1205,"▁မိန်းကလေး":1206,"ခ်":1207,"▁ပြတ်":1208,"ကြောင့်":1209,"▁နှုတ်":1210,"▁အိပ်ရေး":1211,"▁နိုင်ငံခြား":1212,"▁ကောင်မလေး":1213,"ခိုက်":1214,"ဆာ":1215,"မကောင်း":1216,"▁လွမ်း":1217,"ပြား":1218,"▁အခန်း":1219,"▁အပို":1220,"▁အဖြေ":1221,"▁လည်":1222,"▁ငှား":1223,"ကျွေး":1224,"▁နားမ":1225,"▁ရောဂါ":1226,"ပြည်":1227,"▁အမြန်":1228,"▁ကာကွယ်":1229,"လွှတ်":1230,"ခွန်း":1231,"တွဲ":1232,"နီး":1233,"▁ကိုယ်ပိုင်":1234,"▁တင်ပြ":1235,"▁ရည်ရွယ်":1236,"တောင်း":1237,"▁တန်း":1238,"▁ကောက်":1239,"ောင်တ":1240,"▁အလေး":1241,"▁ဝေ":1242,"▁အလှူ":1243,"▁ဒုက္ခ":1244,"ဝါ":1245,"သနာ":1246,"▁အိုင်":1247,"▁အမှတ်":1248,"▁အားနာ":1249,"▁အစီအ":1250,"▁ခံစားချက်":1251,"▁အစီအစဉ်":1252,"သည်":1253,"▁ဓာတ်":1254,"▁အစာ":1255,"▁ရွာ":1256,"▁ထောက်":1257,"▁လုပ်ဆောင်":1258,"▁အလုပ်သမား":1259,"▁စိတ်ကူး":1260,"▁လက်ဖက်":1261,"▁မေးခွန်း":1262,"ကိုယ်":1263,"▁ပိတ်ရက်":1264,"▁သီချင်း":1265,"▁ဝါသနာ":1266,"သုံး":1267,"▁လေးစား":1268,"▁သဘာဝ":1269,"▁အကုန်လုံး":1270,"ဉာဏ်":1271,"တရား":1272,"▁အဲဒါ":1273,"▁ချက်ချင်း":1274,"က္က":1275,"▁လောက":1276,"ကယ်":1277,"ဗစ်":1278,"ရွာ":1279,"သပ်":1280,"အာ":1281,"▁ကော":1282,"▁သနား":1283,"▁ဖောက်":1284,"▁ရင်းနှီး":1285,"အချင်း":1286,"▁ဖန်တ":1287,"▁သိမ်း":1288,"မြှ":1289,"▁မျက်မှန်":1290,"▁ကံကောင်း":1291,"▁ဖန်တီး":1292,"နယ်":1293,"က်စ်":1294,"▁အရင်း":1295,"▁နည်းလမ်း":1296,"▁ခက်ခဲ":1297,"▁ဆောင်ရွက်":1298,"▁ဘုရား":1299,"စရိတ်":1300,"အဝ":1301,"ိုလ်":1302,"▁ခပ်":1303,"▁ရှင်သန်":1304,"▁ရည်မှန်း":1305,"သိ":1306,"▁မိုက်":1307,"▁ကေ":1308,"▁ရင့်":1309,"▁နေထိုင်":1310,"▁ပြန်လည်":1311,"▁အခွန်":1312,"▁အိပ်မ":1313,"မူ":1314,"ှက်":1315,"▁စောင်":1316,"ည်းစား":1317,"ကြော်":1318,"▁လူငယ်":1319,"▁ဝန်ဆောင်မှု":1320,"▁စည်းကမ်း":1321,"နိုင်ငံ":1322,"ဆီ":1323,"အကျ":1324,"▁ကိုဗစ်":1325,"▁စားပွဲ":1326,"▁အိမ်ထောင်":1327,"▁အမြတ်":1328,"▁ရာခိုင်":1329,"ခန့်ခွဲ":1330,"▁စီမံခန့်ခွဲ":1331,"▁တင်းမ်":1332,"▁ရာခိုင်နှုန်း":1333,"ဆင့်":1334,"▁ဓ":1335,"▁တွင်":1336,"▁အအေး":1337,"▁ရှား":1338,"▁ချော":1339,"▁လိုက်နာ":1340,"ကျက်":1341,"▁အသေး":1342,"▁လက်တွေ့":1343,"▁အရာရာ":1344,"ဗျူး":1345,"▁အရည်အချင်း":1346,"ဖတ်":1347,"သင့်":1348,"▁တိ":1349,"▁တအား":1350,"▁မကြာ":1351,"▁ဒေ":1352,"▁စာရွက်":1353,"▁ပျင်း":1354,"ခြုံ":1355,"▁ဖုန်းနံပါတ်":1356,"▁စွန့်":1357,"▁ရည်မှန်းချက်":1358,"▁မောင်":1359,"▁အရွယ်":1360,"▁အိပ်ရာ":1361,"▁ထိခိုက်":1362,"▁ငယ်ငယ်":1363,"▁မိန်းမ":1364,"သောက်":1365,"▁မဆို":1366,"▁အို":1367,"▁သည်း":1368,"▁နေမကောင်း":1369,"▁ထရ":1370,"▁ဆပ်":1371,"▁အရသာ":1372,"ကျေ":1373,"▁လှူ":1374,"▁ဆက်ဆံရေး":1375,"▁အာရုံစိုက်":1376,"လို့":1377,"▁လကုန်":1378,"▁ရည်းစား":1379,"▁ရှယ်":1380,"▁ချောင်း":1381,"▁အလကား":1382,"▁အားနည်း":1383,"တနာ":1384,"ချိုး":1385,"▁ဘာလို့":1386,"▁ဝယ်ယူ":1387,"▁စိတ်ချမ်းသာ":1388,"ရှ်အာ":1389,"စကား":1390,"▁လိမ်":1391,"▁ကွန်":1392,"▁တောင်းပန်":1393,"▁အမျိုးမျိုး":1394,"▁အနည်းဆုံး":1395,"ပစ္စည်း":1396,"ရောင်":1397,"▁ပု":1398,"▁ကြောင်း":1399,"▁မိနစ်":1400,"▁အသက်ကြီး":1401,"▁မိုးရွာ":1402,"▁အင်တာဗျူး":1403,"▁ဇာတ်":1404,"▁ရိုးသား":1405,"ဂရ":1406,"င်းချင်း":1407,"ကြောင်း":1408,"ပြည့်":1409,"▁ဒဏ်":1410,"▁အချင်းချင်း":1411,"▁အပတ်":1412,"တင်း":1413,"ပိုး":1414,"လီ":1415,"ဟုတ်":1416,"▁ပြေး":1417,"ရှုံး":1418,"▁ခံစားခွင့်":1419,"▁အမှိုက်":1420,"▁မုန်း":1421,"▁နေပူ":1422,"ောက်အ":1423,"▁ဖြင့်":1424,"▁ဟင်":1425,"▁အမျိုးသမီး":1426,"ဝန်းကျင်":1427,"▁နားမလည်":1428,"မီ":1429,"အထ":1430,"ေကား":1431,"▁ဆန်":1432,"▁ဘာကြောင့်":1433,"▁မြင့်":1434,"မြောက်":1435,"ခိုး":1436,"▁ဧ":1437,"▁အကူ":1438,"▁အကောင့်":1439,"▁ပတ်ဝန်းကျင်":1440,"လက်မှတ်":1441,"▁အသုံးပြု":1442,"ဘီ":1443,"▁မန်":1444,"▁အလိုက်":1445,"ကျိုး":1446,"▁အားလပ်":1447,"▁စေတနာ":1448,"▁အင်္ဂ":1449,"အသွေး":1450,"▁အရည်အသွေး":1451,"▁ပိုင်ဆိုင်":1452,"ဂရမ်":1453,"ထောက်":1454,"ပ္":1455,"ရိုး":1456,"သံ":1457,"▁တံ":1458,"▁ကမ္":1459,"▁သည်":1460,"▁ဖိုင်":1461,"ရှုပ်":1462,"▁နှစ်ဆယ့်":1463,"▁အပူ":1464,"▁စီနီယာ":1465,"▁သက်ဆိုင်":1466,"▁ဖိနပ်":1467,"▁ကမ္ဘာ":1468,"ရေ":1469,"▁လွဲ":1470,"▁လိပ်":1471,"▁သွေး":1472,"▁ပါဝင်":1473,"▁ရင်ဆိုင်":1474,"▁စာဖတ်":1475,"▁လှုပ်ရှား":1476,"▁မီးပျက်":1477,"▁အေးချမ်း":1478,"▁လွယ်ကူ":1479,"▁ထမင်းစား":1480,"▁မြန်မာနိုင်ငံ":1481,"စိ":1482,"ဆန်":1483,"မောင်း":1484,"လယ်":1485,"အစား":1486,"▁တည့်":1487,"▁အနာ":1488,"▁နေကောင်း":1489,"▁တစ်ဝက်":1490,"▁ဒေါ":1491,"▁ခြေ":1492,"▁သဘောတူ":1493,"▁မွေးနေ့":1494,"▁ခန့်မှန်း":1495,"▁မူတည်":1496,"▁ပေ":1497,"ပ်တော့":1498,"▁တစ်ဆင့်":1499,"▁လက်ပ်တော့":1500,"▁ရုံးတက်":1501,"▁အများစု":1502,"▁ဆေးခန်း":1503,"▁ယုံကြည်မှု":1504,"▁ကေပေး":1505,"ဆွေ":1506,"ဇာ":1507,"သိုလ်":1508,"▁ရှည်":1509,"▁အပျ":1510,"▁ဖော်ပြ":1511,"ဖ်":1512,"မွန်":1513,"▁လခ":1514,"▁ကွဲ":1515,"ကြိုက်":1516,"▁ပြန်ရောက်":1517,"▁ယူနီ":1518,"▁အမြင်":1519,"▁မျှဝေ":1520,"▁အနေအ":1521,"▁ပြုလုပ်":1522,"▁ခရီးသွား":1523,"တွင်း":1524,"မဟုတ်":1525,"▁ကွယ်":1526,"▁အဆုံး":1527,"▁မနက်စာ":1528,"္ဂလာ":1529,"▁ဆုံးဖြတ်ချက်":1530,"▁မင်္ဂလာ":1531,"ပေါ့":1532,"▁သည်းခံ":1533,"ကွန်း":1534,"▁နက်":1535,"▁ချုပ်":1536,"▁လုပ်အား":1537,"ကျန်":1538,"▁စိတ်ဆိုး":1539,"▁အဆိုး":1540,"▁အပြော":1541,"▁အထက်":1542,"▁မျက်လုံး":1543,"▁အာမခံ":1544,"▁အေးအေး":1545,"▁ရင့်ကျက်":1546,"တိုး":1547,"မား":1548,"ေအ":1549,"▁ကစား":1550,"▁ရှုပ်":1551,"▁အလုပ်အ":1552,"▁နောက်ပိုင်း":1553,"▁နောက်ထပ်":1554,"▁မြန်မာပြည်":1555,"▁အခြေခံ":1556,"▁အဝတ်":1557,"ဆရာ":1558,"ဗီ":1559,"ဘူး":1560,"ဟာ":1561,"▁လွန်":1562,"▁စတင်":1563,"▁တစ်ရာ":1564,"▁ဒေါ်":1565,"▁အားမ":1566,"▁ဦးစား":1567,"ပါယ်":1568,"▁ငွေသား":1569,"▁ရောင်းအား":1570,"▁အသုံးချ":1571,"▁မိတ်ဆွေ":1572,"▁လေ့ကျင့်ခန်း":1573,"▁အင်္ဂလိပ်":1574,"ဌေး":1575,"မဲ":1576,"ူတာ":1577,"္တ":1578,"္လာ":1579,"▁ရွှ":1580,"▁ထမ်း":1581,"ချေ":1582,"ချောင်း":1583,"▁နေ့စဉ်":1584,"▁ဗီ":1585,"▁ဈေးကြီး":1586,"▁ခေါင်းဆောင်":1587,"လှေကား":1588,"▁ဆုတောင်း":1589,"▁တနင်္လာ":1590,"▁ဒေါ်လာ":1591,"မကျ":1592,"သောင်း":1593,"▁ရယူ":1594,"▁လုပ်သက်":1595,"▁နေ့လယ်":1596,"▁နည်းပညာ":1597,"▁ပျော်ရွှင်မှု":1598,"▁လွှတ်":1599,"▁တိုင်ပင်":1600,"▁ဒေတာ":1601,"▁အလုပ်အကိုင်":1602,"▁တနင်္လာနေ့":1603,"ဆပ်":1604,"ဆန်း":1605,"တု":1606,"တို":1607,"မိုး":1608,"လဒ်":1609,"သင်း":1610,"္ကျ":1611,"▁ကူး":1612,"▁သူဌေး":1613,"▁အတင်း":1614,"▁ရေရှည်":1615,"▁အပြောင်း":1616,"▁အထောက်အ":1617,"▁အနံ့":1618,"▁ကြိုတင်":1619,"▁လွှဲ":1620,"▁လုံခြုံ":1621,"▁လိပ်စာ":1622,"▁ဒေါသ":1623,"▁မမ":1624,"▁သို့":1625,"▁စိုက်":1626,"▁ဖျား":1627,"▁ထိုက်":1628,"ချွန်":1629,"▁စိတ်ပူ":1630,"▁နှင့်":1631,"▁အချိန်ပိုင်း":1632,"▁နာကျင်":1633,"▁ဆရာဝန်":1634,"▁သန့်ရှင်းရေး":1635,"စွာ":1636,"တကျ":1637,"ပွ":1638,"▁မောင်း":1639,"စ်စ":1640,"▁ပြည်":1641,"▁အရပ်":1642,"▁သိသာ":1643,"▁ခုနစ်":1644,"▁ရုံးပိတ်":1645,"▁လှမ်း":1646,"▁သာမ":1647,"▁အကြောင်းအ":1648,"▁တူတူ":1649,"▁တိုက်ရိုက်":1650,"▁တည်ဆ":1651,"ပ္ပါယ်":1652,"ကင်း":1653,"င်းပ":1654,"▁အတိ":1655,"▁တက်ရောက်":1656,"▁ကောင်လေး":1657,"▁ခဲတံ":1658,"▁စုံစမ်း":1659,"္ကျီ":1660,"▁တည်ဆောက်":1661,"ဒေ":1662,"ဖွေ":1663,"▁တဖြည်း":1664,"▁ဆုံ":1665,"▁စိတ်ထား":1666,"▁သင်ခန်း":1667,"▁ရက်နေ့":1668,"▁ရှာဖွေ":1669,"▁မှန်မှန်":1670,"▁အခြား":1671,"▁ပြည့်စုံ":1672,"▁ပေါင်းသင်း":1673,"▁ပညာရေး":1674,"▁ပထမဆုံး":1675,"▁ဥပ":1676,"▁ဦးစားပေး":1677,"▁တဖြည်းဖြည်း":1678,"▁သင်ခန်းစာ":1679,"လောင်":1680,"အုံး":1681,"အလဲ":1682,"ျဉ်း":1683,"▁ကန်":1684,"▁နိုး":1685,"▁နံပါတ်":1686,"▁ပါး":1687,"▁ဆူ":1688,"▁အရက်":1689,"▁ဟယ်":1690,"ိန်နင်":1691,"▁အားက":1692,"▁အားကျ":1693,"▁အားသွင်း":1694,"▁အကြောင်းပြ":1695,"▁အဓိပ္ပါယ်":1696,"ငြိမ်":1697,"▁ထရိန်နင်":1698,"တိုင်း":1699,"အညီ":1700,"ါတ်":1701,"▁နောင်တ":1702,"ချို":1703,"▁ရှိရှိ":1704,"ရှု":1705,"▁လက်စ":1706,"▁ပေါ့ပေါ့":1707,"နှံ":1708,"▁ရေချိုး":1709,"▁ခွင့်ပြု":1710,"▁သက်သေ":1711,"▁အောင်မြင်မှု":1712,"▁ပြုပြင်":1713,"▁အပြစ်တင်":1714,"▁အိတ်ရှ်အာ":1715,"▁ဂုဏ်ယူ":1716,"▁အရင်းအ":1717,"▁အကူအညီ":1718,"▁အကြောင်းပြချက်":1719,"ကင်":1720,"ဘော":1721,"ဟင်း":1722,"ုဒ":1723,"င်စင်":1724,"▁ကင်း":1725,"▁လိုင်စင်":1726,"▁စနေ":1727,"▁ချွေ":1728,"▁စီဗီ":1729,"ဒီယာ":1730,"လျှော့":1731,"▁ငြိမ်":1732,"▁အိပ်မက်":1733,"▁ထမ်းဆောင်":1734,"▁အပြောင်းအလဲ":1735,"ကောင့်":1736,"ဂတ်":1737,"ဖောင်း":1738,"္က":1739,"▁အဝေး":1740,"▁ရှက်":1741,"▁အလွန်":1742,"▁အလုပ်ရှင်":1743,"▁အားသာ":1744,"▁သက်တမ်း":1745,"▁ခေါင်းအုံး":1746,"လှယ်":1747,"▁ကွန်ပျ":1748,"▁ချွေတာ":1749,"ထောင့်":1750,"ဘောင်း":1751,"အိုး":1752,"▁စက္က":1753,"▁ချမှတ်":1754,"ကြိုး":1755,"▁တစ်မျိုး":1756,"▁ယောင်":1757,"▁နှိပ်":1758,"▁အောက်ဘောင်း":1759,"▁ဘာသာစကား":1760,"▁ကွန်ပျူတာ":1761,"▁စက္ကန့်":1762,"တော":1763,"မျှ":1764,"သန်း":1765,"▁မဲ":1766,"▁ကန့်":1767,"▁နံ":1768,"▁သီး":1769,"▁ကောင်းမွန်":1770,"▁အကြာ":1771,"▁သုံးဆယ်":1772,"▁ဗုဒ":1773,"▁အင်္ကျီ":1774,"▁သောကြာ":1775,"▁စိတ်ဓာတ်ကျ":1776,"▁ဗုဒ္ဓ":1777,"ပစ်":1778,"အလာ":1779,"▁ရလဒ်":1780,"▁ဘေ":1781,"ီးအို":1782,"▁ရှုံး":1783,"▁တစ်ချက်":1784,"▁လိုက်ပို့":1785,"▁ကျင်းပ":1786,"▁ယာ":1787,"▁အားဖြင့်":1788,"▁စာမေး":1789,"▁တက္က":1790,"▁မျက်စိ":1791,"▁အောက်ဆီ":1792,"▁တန်ဖိုးထား":1793,"▁လိုင်းကား":1794,"▁စီအိုင်":1795,"▁စီအီးအို":1796,"▁အားသာချက်":1797,"▁စာမေးပွဲ":1798,"▁အောက်ဆီဂျင်":1799,"ခုံ":1800,"လော":1801,"ဥတု":1802,"ျော့":1803,"▁မော":1804,"▁မက်":1805,"▁ဘတ်":1806,"▁ဆန်း":1807,"▁ကြေ":1808,"▁ဖြူ":1809,"▁သူတစ်":1810,"▁ဝက်":1811,"▁ဆိုလို":1812,"▁ကျယ်":1813,"▁သင်ကြား":1814,"▁ဝန်ထမ်းက":1815,"▁တာဝန်ခံ":1816,"▁ထူးခြား":1817,"ခါး":1818,"▁ဘောနပ်":1819,"▁အလိုလို":1820,"▁ရာသီဥတု":1821,"▁စနစ်တကျ":1822,"▁သူတစ်ပါး":1823,"▁ကြော်":1824,"▁ဒစ်စ":1825,"▁စိတ်ကြိုက်":1826,"▁အထင်":1827,"▁ဈေးနှုန်း":1828,"▁ပျက်စီး":1829,"▁အစားအသ":1830,"▁နေ့လည်စာ":1831,"▁ညှိ":1832,"▁နက်ဖြန်":1833,"▁အတိအကျ":1834,"▁သောကြာနေ့":1835,"▁ဒစ်စကောင့်":1836,"▁အစားအသောက်":1837,"ဖိ":1838,"လွဲ":1839,"▁ဖျက်":1840,"ုံ့":1841,"▁လူ့":1842,"▁နှစ်ဆယ်":1843,"▁အစော":1844,"▁အသေးစိတ်":1845,"ဆိပ်":1846,"ပို":1847,"ဖွား":1848,"▁မရ":1849,"▁ချိတ်":1850,"▁တစ်ဖက်":1851,"▁လုပ်ကိုင်":1852,"ပြုတ်":1853,"▁ဟေ့":1854,"▁အကြမ်း":1855,"▁အိပ်ပျော်":1856,"▁ခွင့်လွှတ်":1857,"▁တောင်းဆို":1858,"ဂျာ":1859,"▁ဆုံးရှုံး":1860,"▁လျှော့ဈေး":1861,"▁ပရိုမိုး":1862,"▁လက်ဖက်ရည်":1863,"မူနာ":1864,"▁အနာဂတ်":1865,"▁ဘောနပ်စ်":1866,"▁ပရိုမိုးရှင်း":1867,"ဖိုင်":1868,"▁တိတ်":1869,"▁အီး":1870,"▁နေကျ":1871,"▁ချိန်":1872,"▁အလွယ်":1873,"▁ကျက်":1874,"▁ပြောဆို":1875,"▁ဝယ်ကျွေး":1876,"▁စကားလုံး":1877,"▁လမ်းလျှောက်":1878,"▁အကျိုးရှိ":1879,"▁ကြုံတွေ့":1880,"▁အဖြူ":1881,"▁အိုင်ဒီယာ":1882,"▁သာမန်":1883,"ကွဲ":1884,"မို":1885,"လုတ်":1886,"သိန်း":1887,"▁မိတ္":1888,"▁အကြိမ်":1889,"▁ရုံးခွဲ":1890,"▁အကောင်":1891,"▁အထုပ်":1892,"▁ဖုန်းခေါ်":1893,"▁တကယ့်":1894,"▁မှန်ကန်":1895,"▁တစ်ခါတစ်":1896,"▁ကတိ":1897,"▁မေမ":1898,"▁ဖြတ်သန်း":1899,"▁မိတ်ဆက်":1900,"▁ကြက်ဥ":1901,"▁ဒဏ်ရာ":1902,"▁ယူနီဖောင်း":1903,"▁အရင်းအနှီး":1904,"ဏ္":1905,"လံ":1906,"စ်နာ":1907,"▁ပြိုင်":1908,"ုပ်နှံ":1909,"ချော":1910,"▁ဂျပန်":1911,"▁အေဂျင်":1912,"▁စက်ရုံ":1913,"▁သောက":1914,"▁အရှုံး":1915,"▁ရီပို့":1916,"▁ရည်ရွယ်ချက်":1917,"ဏ္ဍ":1918,"▁အေဂျင်စီ":1919,"နွေ":1920,"ဘက်":1921,"ှဉ်":1922,"▁တို":1923,"▁သော့":1924,"▁ဝိုင်း":1925,"▁အတု":1926,"▁အတိတ်":1927,"▁လူမျိုး":1928,"▁နှိုး":1929,"▁မြှ":1930,"ွှန်":1931,"▁ဆိုင်ကယ်":1932,"▁အကြောင်းကြား":1933,"္ဂနွေ":1934,"▁တနင်္ဂနွေ":1935,"▁ထောက်ခံ":1936,"▁သက်ဆိုင်ရာ":1937,"▁အကြောင်းအရာ":1938,"▁မိတ္တူ":1939,"န္ဓ":1940,"လွန်":1941,"သုပ်":1942,"▁ပမာ":1943,"▁မာ":1944,"▁နမူနာ":1945,"▁ဖိတ်":1946,"▁ဝိုင်":1947,"▁ဝေ့":1948,"▁စိတ်ဖိ":1949,"▁နှာ":1950,"▁စာပို့":1951,"▁အဆောင်":1952,"မြန်း":1953,"▁လှည့်":1954,"▁ပျော်ပျော်":1955,"▁အေးဆေး":1956,"တလော":1957,"▁နီးပါး":1958,"▁မြို့နယ်":1959,"▁ရင်းနှီးမြှ":1960,"န္ဓာ":1961,"▁ပမာဏ":1962,"▁စိတ်ဖိစီး":1963,"လူ":1964,"ည်းဖြည်း":1965,"▁ဖြည်းဖြည်း":1966,"ကြွ":1967,"▁ဝိတ်":1968,"▁ကျပ်":1969,"▁အခမဲ့":1970,"▁ချစ်သူ":1971,"▁ခေါ်ယူ":1972,"▁သဘောထား":1973,"▁ခါနီး":1974,"▁အမျိုးသား":1975,"▁စစ်ဆေး":1976,"▁အပြည့်အဝ":1977,"▁ဒုက္ခရောက်":1978,"▁ဓါတ်":1979,"▁အနေအထား":1980,"ဗာ":1981,"သိမ်း":1982,"▁တား":1983,"▁ထိုင်း":1984,"ကျယ်":1985,"▁ညံ့":1986,"▁အကြိုက်":1987,"▁အပြီး":1988,"▁ဆက်တိုက်":1989,"▁ဝင်ရောက်":1990,"▁မေးမြန်း":1991,"▁အင်အား":1992,"▁မှတ်တမ်း":1993,"▁ကျောင်းသား":1994,"▁ငြင်း":1995,"ငြာ":1996,"▁ပရိုဂရမ်":1997,"▁အပျို":1998,"▁မေမေ":1999,"ဖွင့်":2000,"ဝယ်":2001,"သေး":2002,"ွိုင်း":2003,"▁အက်":2004,"▁သယ်":2005,"▁ကြိမ်":2006,"▁တစ်စုံ":2007,"▁အလေ့":2008,"▁ဒီဇ":2009,"နေဂျာ":2010,"▁အသင့်":2011,"▁အနိုင်":2012,"လှမ်း":2013,"▁မီတင်ခန်း":2014,"အထည်":2015,"▁မန်နေဂျာ":2016,"▁ရင်းနှီးမြှုပ်နှံ":2017,"ဇယား":2018,"ထွေး":2019,"ပယ်":2020,"ရိ":2021,"ရံ":2022,"ဟူး":2023,"▁ဉာဏ်":2024,"▁နု":2025,"▁နစ်နာ":2026,"▁ခွေး":2027,"▁ခန္ဓာ":2028,"▁ကျင့်":2029,"▁အမည်":2030,"▁နှလုံး":2031,"▁အသည်း":2032,"▁အချိန်ဇယား":2033,"▁ဝယ်သူ":2034,"▁အင်ဂျင်":2035,"▁တာဝန်ယူမှု":2036,"▁အကောင်အထည်":2037,"▁ခန္ဓာကိုယ်":2038,"▁အကောင်အထည်ဖော်":2039,"ကေ":2040,"ဆိတ်":2041,"တကူ":2042,"ဖန်":2043,"အိမ်":2044,"▁လျက်":2045,"▁စို့":2046,"▁ကြည်":2047,"▁အလား":2048,"▁အတည်":2049,"▁ဒီပ":2050,"▁အသီး":2051,"▁အဆီ":2052,"စာတမ်း":2053,"▁ရေခဲ":2054,"▁သင်္":2055,"▁ဒါမှ":2056,"▁အများဆုံး":2057,"▁ထိရောက်":2058,"▁မီးစက်":2059,"▁ဆေးရုံ":2060,"ဆက်ဆံ":2061,"▁သားသမီး":2062,"▁ပျက်ကွက်":2063,"လျှော်":2064,"▁ခွဲခြား":2065,"▁ဂျူ":2066,"▁ဂျွိုင်း":2067,"▁ခဲဆံ":2068,"မေးလ်":2069,"▁ထိန်းချုပ်":2070,"▁မျှော်လင့်ချက်":2071,"▁ကာကွယ်ဆေး":2072,"▁ဖောက်သည်":2073,"မြှင့်":2074,"▁အားလပ်ရက်":2075,"▁ယာဉ်":2076,"▁အလွယ်တကူ":2077,"ဖုန်း":2078,"မတ်":2079,"မျဉ်း":2080,"လေ":2081,"▁လတ်":2082,"▁အမှု":2083,"▁စဉ်":2084,"▁စရိတ်":2085,"▁တစ်နေ":2086,"▁အလုပ်သင်":2087,"▁ကိုယ်ချင်း":2088,"▁အပင်":2089,"▁အစမ်း":2090,"▁ခွင့်တိုင်":2091,"▁ပိုက်ဆံစု":2092,"လွှဲ":2093,"▁လျှော့ချ":2094,"▁စည်းမျဉ်း":2095,"▁ဆင်းရဲ":2096,"▁အနားယူ":2097,"▁အိပ်ရေးပျက်":2098,"▁စာရွက်စာတမ်း":2099,"▁ဧည့်":2100,"▁ဗုဒ္ဓဟူး":2101,"▁အလားအလာ":2102,"▁ကိုယ်ချင်းစာ":2103,"တည်း":2104,"ထွင်":2105,"ဘိုင်း":2106,"မုန့်":2107,"ဝဲ":2108,"သဖြင့်":2109,"▁မည်":2110,"▁အနှ":2111,"▁ခလုတ်":2112,"▁ဖေ":2113,"▁ဆောက်":2114,"မှူး":2115,"စားစား":2116,"▁အားထုတ်":2117,"▁ဈေးသွား":2118,"▁ရောင်းချ":2119,"ပါးပါး":2120,"▁အခွင့်အလမ်း":2121,"တိယ":2122,"▁တိကျ":2123,"▁လှုပ်ရှားမှု":2124,"▁ရုံးပိတ်ရက်":2125,"▁စိတ်ဖိစီးမှု":2126,"တပ်":2127,"တွက်":2128,"တကယ်":2129,"မော":2130,"လုံ":2131,"▁မွေ့":2132,"▁ရုတ်":2133,"▁ရုန်း":2134,"ကျကျ":2135,"▁စာရေး":2136,"သာသာ":2137,"▁ဈေးကွက်":2138,"▁မှတ်ပုံ":2139,"▁လုပ်ငန်းရှင်":2140,"▁အရေးကြီးဆုံး":2141,"▁အသံသွင်း":2142,"▁ရပ်တည်":2143,"▁ရာထူးတိုး":2144,"▁လောလော":2145,"▁အမှန်တကယ်":2146,"▁အလိုရှိ":2147,"▁စွမ်းဆောင်":2148,"▁အိပ်ရေးဝ":2149,"▁အမြန်ဆုံး":2150,"▁ဓာတ်လှေကား":2151,"▁မောင်လေး":2152,"▁ဒါမှမဟုတ်":2153,"▁မွေ့ယာ":2154,"▁မှတ်ပုံတင်":2155,"▁၍":2156,"▁မန်း":2157,"▁ကွ":2158,"▁သွင်း":2159,"▁ထိပ်":2160,"▁ကျား":2161,"▁အလုပ်ရှုပ်":2162,"▁စိတ်ရင်း":2163,"▁လူနာ":2164,"▁နှစ်ယောက်":2165,"▁ရေနွေး":2166,"▁အပြန်":2167,"▁အပိုင်း":2168,"▁လှလှ":2169,"▁ဂိမ်း":2170,"ချာချာ":2171,"▁မီးဖွား":2172,"▁သက်သက်":2173,"▁ကားဆရာ":2174,"▁အရေးပါ":2175,"▁ထုတ်ကုန်":2176,"▁ထုတ်ပြန်":2177,"▁ပင်စင်":2178,"▁ထူးချွန်":2179,"▁တိုင်ကြား":2180,"▁ပေါင်းသင်းဆက်ဆံ":2181,"▁ဝိုင်ဖိုင်":2182,"▁အစမ်းခန့်":2183,"စည်":2184,"အောင့်":2185,"အစာ":2186,"ုသ":2187,"▁တီ":2188,"▁ချီး":2189,"▁အတတ်":2190,"▁အမေ့":2191,"▁လက်ကျန်":2192,"▁အချိန်ပို":2193,"နှမ":2194,"▁အဆင်သင့်":2195,"▁သေသေ":2196,"▁အထွေ":2197,"▁လမ်းကြောင်း":2198,"▁အဖျား":2199,"▁သတိပေး":2200,"▁ထပ်တူ":2201,"▁ရုပ်ရှင်":2202,"▁အစားအစာ":2203,"▁မောင်နှမ":2204,"▁ရှယ်ယာ":2205,"▁အားနည်းချက်":2206,"▁အီးမေးလ်":2207,"▁အင်ဂျင်နီယာ":2208,"▁လောလောဆယ်":2209,"ကောက်":2210,"ထရီ":2211,"ဖမ်း":2212,"မွေ့":2213,"လစ်":2214,"▁လျော့":2215,"▁မို":2216,"▁ကိတ်":2217,"▁ရူး":2218,"▁ဖောင်း":2219,"▁ကြမ်း":2220,"▁ချော့":2221,"ကြမ်း":2222,"▁လာရောက်":2223,"▁အရစ်":2224,"ိုက်အ":2225,"▁သိသိ":2226,"▁မြောက်":2227,"▁တက်ကြွ":2228,"▁အရင်ဆုံး":2229,"▁ဆုံးမ":2230,"▁နယ်ပယ်":2231,"▁ဥပဒေ":2232,"▁ဖေဖ":2233,"ကိုက်":2234,"ပေါ်":2235,"ဘုတ်":2236,"▁တမင်":2237,"▁ပိန်":2238,"▁လင့်":2239,"▁အန်":2240,"▁သန်":2241,"▁သရက်":2242,"▁ခွက်":2243,"▁လိုလို":2244,"▁ချိုး":2245,"▁ကြီးမား":2246,"▁ရုံးခန်း":2247,"▁ရုံးဆင်း":2248,"▁ရေကူး":2249,"မှတ်ပြု":2250,"ရက်ရှင်":2251,"သက်သာ":2252,"ဆေးဆေး":2253,"▁အနည်းငယ်":2254,"▁အကြံပေး":2255,"ဝါး":2256,"▁ဇာတ်ကား":2257,"▁အေးအေးဆေးဆေး":2258,"▁လုံခြုံရေး":2259,"▁မရွေး":2260,"▁တစ်စုံတစ်":2261,"▁ဒီဇိုင်း":2262,"▁ယာဉ်မောင်း":2263,"▁စွမ်းဆောင်ရည်":2264,"▁သေသေချာချာ":2265,"ခေါင်း":2266,"ဏာ":2267,"ထိပ်":2268,"ပီ":2269,"မကြီး":2270,"အကျင့်":2271,"▁မနည်း":2272,"▁ကင်":2273,"▁လုပ်လုပ်":2274,"▁ဟန်":2275,"ရာယ်":2276,"▁သိရှိ":2277,"▁စိတ်ပျက်":2278,"▁နှေး":2279,"▁လက်ကား":2280,"▁ဦးဆောင်":2281,"ောင့်သက်သာ":2282,"နှိုက်":2283,"▁နားရက်":2284,"▁အပေါက်":2285,"စ္စာ":2286,"▁အင်ဖော်":2287,"▁သဘောကောင်း":2288,"▁ဆိုးကျိုး":2289,"▁စောင့်ကြည့်":2290,"▁အသုံးဝင်":2291,"▁မုန့်ဖိုး":2292,"မေးရှင်း":2293,"▁ဥက္က":2294,"▁ဝေဖန်":2295,"▁မကြာခင်":2296,"္တရာယ်":2297,"ဘောပင်":2298,"▁သီးသန့်":2299,"▁စီအိုင်ဒီ":2300,"▁အင်ဖော်မေးရှင်း":2301,"ကို့":2302,"ဆတ်":2303,"ထုပ်":2304,"န္":2305,"လွယ်":2306,"ဝှက်":2307,"သစ်":2308,"ျောက်":2309,"▁ပွင့်":2310,"▁ပလက်":2311,"▁စည်":2312,"▁စတစ်":2313,"▁ဖရီး":2314,"▁ဆဲ":2315,"▁ရှောက်":2316,"▁ဟိုင်း":2317,"ကျေးဇူး":2318,"▁အလုပ်လျှောက်":2319,"▁သိန်း":2320,"▁စိတ်ရှည်":2321,"▁အချို့":2322,"▁လက်ထပ်":2323,"▁စားသောက်":2324,"▁ကြီးကြီး":2325,"▁ရုံးချုပ်":2326,"▁သင်ပြ":2327,"▁ခြင်":2328,"ခြင်":2329,"ခြောက်":2330,"▁ထင်မြင်":2331,"▁အစစ်":2332,"▁မျိုးစုံ":2333,"ရှင်းရှင်း":2334,"▁ဘက်ထရီ":2335,"▁ကုသ":2336,"▁အမျိုးအစား":2337,"▁ရှေ့ဆက်":2338,"ကာလ":2339,"▁အရောင်းသမား":2340,"ပိုင်ခွင့်":2341,"▁ချေးငွေ":2342,"▁အစာအိမ်":2343,"▁အခွန်ဆောင်":2344,"▁ဒီပရက်ရှင်":2345,"▁တစ်နေကုန်":2346,"▁ပေါင်းသင်းဆက်ဆံရေး":2347,"▁မိုဘိုင်း":2348,"ရုပ်":2349,"အရွယ်":2350,"▁ပီ":2351,"▁အုပ်":2352,"▁အငယ်":2353,"▁ပါဝါ":2354,"▁ဘဏ္ဍ":2355,"▁ထီး":2356,"▁ပေးသွင်း":2357,"▁အရေအ":2358,"ရှာ":2359,"▁အားကောင်း":2360,"▁အစ်ကို့":2361,"▁ညာ":2362,"▁မြေ":2363,"▁ပိုမို":2364,"▁သဘောပေါက်":2365,"ထားမှု":2366,"▁အသက်အရွယ်":2367,"▁ချက်ခ်":2368,"▁အန္တရာယ်":2369,"▁ကံစမ်း":2370,"▁အလှည့်":2371,"▁ရာထူးတက်":2372,"▁လူကြီးမင်း":2373,"▁ဗိုက်အောင့်":2374,"▁လွတ်လပ်":2375,"▁ဆင်ခြင်":2376,"▁စည်းကမ်းချက်":2377,"▁ရွှေ့":2378,"▁ဗီဇာ":2379,"▁ပါးစပ်":2380,"▁ဗုဒ္ဓဟူးနေ့":2381,"▁ဖောင်းပွ":2382,"▁ဖေဖေ":2383,"▁ပလက်ပေါက်":2384,"▁ထင်မြင်ချက်":2385,"▁ဘဏ္ဍာ":2386,"တန့်":2387,"ယှက်":2388,"အစုံ":2389,"ျင်":2390,"▁မကျေ":2391,"▁သပ်":2392,"ကြော":2393,"ပြိုင်":2394,"ပြန့်":2395,"ကျွမ်း":2396,"▁အမျှ":2397,"▁အကြည်":2398,"▁လှပ":2399,"▁မနက်ခင်း":2400,"▁လျှော်":2401,"▁ကျေးဇူးပြု":2402,"▁ဝမ်းသွား":2403,"▁သန့်သန့်":2404,"▁အပြည့်အစုံ":2405,"▁တရားဝင်":2406,"▁ဗိုက်ဆာ":2407,"▁ကိုက်ညီ":2408,"▁ဘောပင်":2409,"▁စွန့်ပစ်":2410,"▁လုပ်အားခ":2411,"▁အထောက်အကူ":2412,"တော့်":2413,"▁အရေအတွက်":2414,"▁မကျေမ":2415,"ခုန်":2416,"ဆောင်း":2417,"ဒိတ်":2418,"ပံ့":2419,"ဖျက်":2420,"ယို":2421,"ရောင်း":2422,"ရောဂ":2423,"လျော်":2424,"ူဟာ":2425,"▁ပူး":2426,"▁ထုပ်":2427,"▁ဆန့်":2428,"▁ပေးဆပ်":2429,"▁တစ်သက်":2430,"▁လုပ်ခ":2431,"▁အလုပ်ဆင်း":2432,"▁အမော":2433,"▁အသင်း":2434,"▁လက်တွဲ":2435,"▁အဆက်အ":2436,"▁ကျွန်တော့်":2437,"▁ဗဟ":2438,"ပါကင်":2439,"▁ကုန်ကျ":2440,"▁ကားပါကင်":2441,"ယာဉ်":2442,"▁လိုအပ်ချက်":2443,"▁အဲယား":2444,"▁လွယ်လွယ်":2445,"▁မိုးအေး":2446,"▁အကျိုးကျေးဇူး":2447,"▁ခါး":2448,"▁ကြက်ကြော်":2449,"▁ဟင်းချက်":2450,"▁နှုတ်ဆက်":2451,"▁တိတိ":2452,"▁ကြော်ငြာ":2453,"▁အပျိုကြီး":2454,"▁အရစ်ကျ":2455,"▁မကျေမနပ်":2456,"ရောဂါ":2457,"▁အဲယားကွန်း":2458,"ကဲ":2459,"ဆဆ":2460,"တရက်":2461,"ဝတ်":2462,"သရီး":2463,"အစည်း":2464,"▁တွင်း":2465,"▁ကွက်":2466,"▁ဖိုး":2467,"▁အလုပ်ချိန်":2468,"▁စိတ်ရှုပ်":2469,"▁အားရှိ":2470,"ဦးဆုံး":2471,"▁တတ်မြောက်":2472,"▁သုံးသပ်":2473,"▁သင့်တော်":2474,"နှောက်":2475,"မြတ်":2476,"မြင့်":2477,"▁နားကပ်":2478,"▁သတိမ":2479,"▁ဈေးတက်":2480,"▁ဆိုင်ခွဲ":2481,"▁ကြာကြာ":2482,"▁မျက်ရည်":2483,"▁အဲကွန်း":2484,"▁ခေါင်းလျှော်":2485,"▁ကုသိုလ်":2486,"▁ရှင်းလင်း":2487,"▁သင်တန်းသား":2488,"▁လွှာ":2489,"▁အေသရီး":2490,"▁အရောင်းအဝ":2491,"▁အတွေးအ":2492,"▁အဖွဲ့အစည်း":2493,"▁ဒုတိယ":2494,"▁ဆော့ဖ်":2495,"▁အရွယ်ရောက်":2496,"▁အဝတ်အစား":2497,"▁ထိုက်တန်":2498,"▁အားကိုး":2499,"▁ပေါ့ပေါ့ဆဆ":2500,"▁ဝန်ထမ်းကဒ်":2501,"▁မြှင့်":2502,"▁ရုတ်တရက်":2503,"န္ဒ":2504,"▁သန့်သန့်ရှင်းရှင်း":2505,"▁အရောင်းအဝယ်":2506,"▁ဆော့ဖ်ဝဲ":2507,"ကိန်း":2508,"ဖော":2509,"ရို":2510,"သောင့်သက်သာ":2511,"အတန်း":2512,"အမှတ်ပြု":2513,"▁ပံ့":2514,"စ်ကား":2515,"▁စင်":2516,"▁ချေ":2517,"▁ချန်":2518,"ကြန်":2519,"▁လုပ်ကျွေး":2520,"▁ပြီးဆုံး":2521,"ကျူး":2522,"▁စိတ်အေး":2523,"▁လူမှု":2524,"▁လက်ဆေး":2525,"▁သုံးစွဲ":2526,"▁ရေဖိုး":2527,"▁ခံယူ":2528,"ွှာ":2529,"▁ဒါရိုက်":2530,"▁အစုံ":2531,"▁ဝန်ခံ":2532,"▁အင်ဗာ":2533,"▁သက်သောင့်သက်သာ":2534,"▁အဲလို":2535,"▁အဖိုး":2536,"▁ငါးရာ":2537,"▁မီတာ":2538,"▁ရပ်ကွက်":2539,"▁အေဖော":2540,"▁အသိအမှတ်ပြု":2541,"▁စီမံကိန်း":2542,"▁ယောက်ျားလေး":2543,"▁နယ်ပြန်":2544,"▁အကြီးဆုံး":2545,"▁မကြာခဏ":2546,"▁အဆုံးအ":2547,"▁ဘတ်စ်ကား":2548,"▁တိတ်ဆိတ်":2549,"▁အလေ့အကျင့်":2550,"▁သင်္ကြန်":2551,"▁ဂျူနီယာ":2552,"▁အဆက်အသွယ်":2553,"▁ပံ့ပိုး":2554,"▁ဒါရိုက်တာ":2555,"▁အင်ဗာတာ":2556,"ဆီး":2557,"ပု":2558,"မွေး":2559,"▁ပန်":2560,"▁လန့်":2561,"▁တယ်လီ":2562,"▁ကိုကြီး":2563,"▁တစ်ရှု":2564,"▁အရွက်":2565,"▁လေယာဉ်":2566,"ကျွတ်":2567,"▁လက်လီ":2568,"▁ဦးနှောက်":2569,"▁ညစ်":2570,"▁အချိန်ကာလ":2571,"စာအုပ်":2572,"▁ရုံးချိန်":2573,"▁ယူလာ":2574,"▁ခင်မင်":2575,"▁ဈေးရောင်း":2576,"▁ရက်စွဲ":2577,"▁ဆေးသောက်":2578,"▁မှတ်သား":2579,"▁လမ်းခွဲ":2580,"▁ပြည့်ဝ":2581,"ဒ်မင်":2582,"▁အတိုင်းအ":2583,"▁ဆုမဲ":2584,"▁တည်ငြိမ်":2585,"▁အသိပေး":2586,"▁ရိုးရိုး":2587,"▁ငြိမ်း":2588,"▁ပထမဦးဆုံး":2589,"▁ရာသီလာ":2590,"▁အထူးသဖြင့်":2591,"▁ပန်းတိုင်":2592,"▁အလေးထား":2593,"▁ခန့်မှန်းခြေ":2594,"▁အက်ဒ်မင်":2595,"▁ချီးကျူး":2596,"▁သိသိသာသာ":2597,"▁လင့်ခ်":2598,"▁အဆုံးအဖြတ်":2599,"▁တစ်ရှုး":2600,"ကွာ":2601,"စတော့":2602,"ဆုံ":2603,"ဋ်":2604,"တက":2605,"တား":2606,"ဒနာ":2607,"ပတ":2608,"မစိုက်":2609,"လန်း":2610,"အရည်":2611,"အထူး":2612,"▁တိပ်":2613,"င်ဝေ":2614,"▁အင်း":2615,"▁ကလစ်":2616,"▁ဘီ":2617,"▁ဘောင်း":2618,"▁ဖောင်တ":2619,"▁ဆောင်း":2620,"▁ချည်":2621,"▁ချိန်း":2622,"▁သူခိုး":2623,"▁ဒိတ်":2624,"▁ဝဋ်":2625,"▁အလုပ်ဝင်":2626,"▁ယှဉ်":2627,"▁လူသား":2628,"▁လက်မဲ့":2629,"▁လက်မခံ":2630,"နက်ရှင်":2631,"▁နည်းပါး":2632,"▁အစစ":2633,"▁အထဲ":2634,"▁မင်းသား":2635,"▁သာယာ":2636,"▁ဈေးဝယ်":2637,"ဝန်ထမ်း":2638,"▁ထုတ်လုပ်":2639,"▁တာဝန်ကျေ":2640,"လှုပ်ရှား":2641,"▁အလှကုန်":2642,"▁ပြုစု":2643,"▁ကော်နက်ရှင်":2644,"▁မျက်နှာငယ်":2645,"လွှာ":2646,"စပ်စပ်":2647,"▁စာချုပ်ချုပ်":2648,"▁နှုန်းထား":2649,"▁ကောက်ခံ":2650,"▁ထောက်ပံ့":2651,"▁အားမနာ":2652,"▁နောင်တရ":2653,"▁စနေနေ့":2654,"▁ကန့်သတ်":2655,"▁တာဝန်ခံမှု":2656,"▁အထွေအထူး":2657,"▁အန်တီ":2658,"▁အတွေးအခေါ်":2659,"▁ဖောင်တိန်":2660,"ခမ်း":2661,"ထု":2662,"ရုတ်":2663,"▁လက္":2664,"▁အံ့":2665,"▁အက်စ်":2666,"▁သစ္စာ":2667,"▁ဘိုင်":2668,"▁ခိုး":2669,"▁စပ်":2670,"▁တစ်ချိန်":2671,"▁လုပ်ဖော်":2672,"▁ကျော":2673,"▁စိတ်လှုပ်ရှား":2674,"▁အသေအ":2675,"▁စာအိတ်":2676,"▁မြတ်":2677,"▁ယူဆ":2678,"▁သင့်လျော်":2679,"▁နေ့ရက်":2680,"ခြံ":2681,"▁ငွေလွှဲ":2682,"▁မီးပ":2683,"▁လမ်းထိပ်":2684,"▁ရေးဆွဲ":2685,"▁အာမ":2686,"▁အာဏာ":2687,"▁ခေါင်းကိုက်":2688,"▁နိုင်ငံသား":2689,"ကိုင်ဖက်":2690,"▁ခန့်ထားမှု":2691,"ခဏာ":2692,"▁ဖြေရှင်းချက်":2693,"▁သီတင်း":2694,"▁လက်မှတ်ထိုး":2695,"▁ရီမ":2696,"▁ခေါက်ဆွဲ":2697,"▁အိမ်ထောင်ပြု":2698,"▁စီမံခန့်ခွဲမှု":2699,"▁ရှယ်ရင်း":2700,"▁သဘောတူညီ":2701,"▁ပေတံ":2702,"▁ရွှေ":2703,"▁သို့မဟုတ်":2704,"▁သက်သေပြ":2705,"▁ညှိနှ":2706,"▁တစ်ဖက်သား":2707,"▁ရင်းနှီးမြှုပ်နှံမှု":2708,"▁တယ်လီဂရမ်":2709,"▁ဘောင်းဘီ":2710,"▁လက္ခဏာ":2711,"▁လုပ်ဖော်ကိုင်ဖက်":2712,"▁အသေအချာ":2713,"▁သီတင်းကျွတ်":2714,"ကု":2715,"ခွန်":2716,"ဘေ":2717,"လင်":2718,"▁လန်း":2719,"▁စူး":2720,"▁စလုံး":2721,"▁သူမ":2722,"ပြီ":2723,"▁အလွှာ":2724,"▁လေလံ":2725,"ရှူ":2726,"▁ကိုယ်ဝန်":2727,"▁မြဲ":2728,"▁ရေမ":2729,"▁အိမ်သာ":2730,"ွှန်း":2731,"ခံစား":2732,"▁ဆေးလိပ်":2733,"▁ရေးသား":2734,"ဗျူဟာ":2735,"လက်အေး":2736,"▁ပရင့်":2737,"▁အကျိုးအ":2738,"▁အစားထိုး":2739,"▁ကျော်ဖြတ်":2740,"▁ဖြေရှင်းနည်း":2741,"▁အကြံဉာဏ်":2742,"▁ညှပ်":2743,"▁ဆင်ခြေ":2744,"▁တန်းတူ":2745,"▁အိပ်မပျော်":2746,"▁အိုတီ":2747,"▁စိတ်ချမ်းသာမှု":2748,"▁ဧပြီ":2749,"▁ပိုင်ဆိုင်မှု":2750,"▁အားကစား":2751,"ချိုင့်":2752,"▁ဝက်သား":2753,"▁အမှုဆောင်":2754,"▁သရက်သီး":2755,"▁ဟန်ဆောင်":2756,"▁ကံစမ်းမဲ":2757,"▁မြှင့်တင်":2758,"▁စိတ်အေးလက်အေး":2759,"▁အာမမခံ":2760,"▁ညှိနှိုင်း":2761,"ဏန်း":2762,"တရ":2763,"ပိ":2764,"ဖိုက်":2765,"လွတ်":2766,"အနက်":2767,"အမ်":2768,"▁လိ":2769,"▁အိုက်":2770,"ားရှင်း":2771,"▁နွေး":2772,"▁ခွန်":2773,"▁ပြင်း":2774,"▁ဆန္ဒ":2775,"▁ကြောင်":2776,"▁တစ်သောင်း":2777,"ပြေး":2778,"▁အလုပ်ထွက်":2779,"▁လက်မ":2780,"▁လက်ကိုင်":2781,"▁စာလုံး":2782,"▁ပျိုး":2783,"ကားကား":2784,"▁ရုံးဝန်ထမ်း":2785,"▁နေ့ခင်း":2786,"▁အပေါင်း":2787,"▁ဗားရှင်း":2788,"▁ဖုန်းဘေ":2789,"▁ကုန်ပစ္စည်း":2790,"▁ပုံသေ":2791,"▁မီးအား":2792,"▁ကားမောင်း":2793,"▁ပို့ဆောင်":2794,"▁ငါးဆယ်":2795,"ရွှင်ရွှင်":2796,"▁အသံထွက်":2797,"▁ခရီးထွက်":2798,"ပန်မှု":2799,"▁ရွေးချယ်မှု":2800,"▁ပိုင်ရှင်":2801,"▁ဘောလုံး":2802,"▁အဆင့်အတန်း":2803,"▁ပြေလည်":2804,"▁လုံလောက်":2805,"▁အားလပ်ချိန်":2806,"▁အထောက်အထား":2807,"▁နံနက်":2808,"▁တက္ကစီ":2809,"▁တနင်္ဂနွေနေ့":2810,"▁နှာခေါင်း":2811,"စည်ကားကား":2812,"▁စည်စည်ကားကား":2813,"▁ဟိုင်းဖိုက်":2814,"▁ပူးပေါင်း":2815,"▁ကုန်ကျစရိတ်":2816,"▁တိတိကျကျ":2817,"▁အတိုင်းအတာ":2818,"▁မီးပလပ်":2819,"ဋ္":2820,"တကြီး":2821,"မူး":2822,"ရော":2823,"ုတ":2824,"္တိ":2825,"▁အဟ":2826,"▁ကဲ":2827,"▁နောင်":2828,"▁သွက်":2829,"▁ပြသ":2830,"▁ပြောင်":2831,"▁စိန်":2832,"ကြေ":2833,"▁ဖြစ်နိုင်":2834,"▁လာလာ":2835,"▁စိတ်ပါ":2836,"▁စိတ်အား":2837,"▁စိတ်တို":2838,"▁စိတ်တိုင်း":2839,"▁ကိုယ်ရေး":2840,"▁အားတင်း":2841,"▁စားစရာ":2842,"▁တတ်ကျွမ်း":2843,"▁အဆူ":2844,"▁သုံးဆယ့်":2845,"▁တိုင်းမ်":2846,"မြော":2847,"▁အပျော်":2848,"▁လှည်း":2849,"▁အစိုး":2850,"▁ငွေထုတ်":2851,"▁သတ္တိ":2852,"▁အဖေ့":2853,"▁ထုတ်ယူ":2854,"▁တူညီ":2855,"▁နာရီဝက်":2856,"▁နိုင်ငံရေး":2857,"▁ဂရုမစိုက်":2858,"▁ကာလာ":2859,"▁ထူးဆန်း":2860,"▁အပ်ပ်":2861,"▁သတ်မှတ်ချက်":2862,"▁တိုးတက်မှု":2863,"▁ဘွဲ့လက်မှတ်":2864,"▁ဝေဒနာ":2865,"▁လက်ဖက်သုပ်":2866,"▁တွင်ကျယ်":2867,"▁ရှားပါး":2868,"▁တံဆိပ်":2869,"▁ဒေါသထွက်":2870,"▁လက်စသတ်":2871,"▁တက္ကသိုလ်":2872,"▁ကျယ်ပြန့်":2873,"▁တစ်ခါတစ်လေ":2874,"▁ဥက္ကဋ္":2875,"▁အလှည့်ကျ":2876,"▁သပ်သပ်":2877,"▁အံ့ဩ":2878,"▁ရီမုတ်":2879,"▁ဧပြီလ":2880,"▁ခွန်အား":2881,"▁စိတ်တိုင်းကျ":2882,"▁ဥက္ကဋ္ဌ":2883,"ဇ်":2884,"ဇဉ်":2885,"ညံ့":2886,"ညွတ်":2887,"နိုး":2888,"မတန်":2889,"ယော":2890,"ယွင်း":2891,"လန့်":2892,"ဝမ်း":2893,"ွံ":2894,"▁တုံ့":2895,"▁သရဲ":2896,"▁စမတ်":2897,"▁မှီ":2898,"▁ဒက်":2899,"▁လေးလေး":2900,"ရာသီ":2901,"▁လူသိ":2902,"▁နှိမ်":2903,"▁အချဉ်":2904,"▁လက်ထောက်":2905,"▁စာသင်":2906,"▁ညစာ":2907,"▁မြည်း":2908,"▁ဗူး":2909,"▁ဂိတ်":2910,"▁အထီး":2911,"▁မီးလုံး":2912,"▁ကားသမား":2913,"▁ကားနံပါတ်":2914,"▁အရာရှိ":2915,"▁လမ်းည":2916,"▁အသက်ရှူ":2917,"ရှင်ကြား":2918,"▁ဗျို့":2919,"ပျောက်":2920,"▁တိုက်ခန်း":2921,"▁ပူလောင်":2922,"▁ကျွမ်းကျင်မှု":2923,"▁စိုးရိမ်ပူ":2924,"▁သံယော":2925,"▁စားပွဲခုံ":2926,"▁အပူချိန်":2927,"▁ကွဲပြား":2928,"▁ရှောက်သီး":2929,"▁အကြည်ဓာတ်":2930,"▁ဆန့်ကျင်":2931,"▁အပ်ပ်ဒိတ်":2932,"▁တုံ့ပြန်":2933,"▁လူသိရှင်ကြား":2934,"▁သံယောဇဉ်":2935,"ကွေး":2936,"ခွာ":2937,"တီး":2938,"ဒင်း":2939,"ပုံး":2940,"ါး":2941,"ွံ့":2942,"ှိုက်":2943,"▁လိမ်း":2944,"▁မုန်":2945,"▁အိုး":2946,"ေးမ":2947,"▁ဖရဲ":2948,"▁ဖျောက်":2949,"▁ထီ":2950,"▁ပေးချေ":2951,"ကြိမ်":2952,"မ်းမျှ":2953,"▁လဲလှယ်":2954,"▁ဝှိုက်":2955,"▁ကျောက်":2956,"▁ကောင်းကျိုး":2957,"ရှယ်":2958,"ရှောက်":2959,"▁နှမြော":2960,"▁အချို":2961,"▁ပေါ့ပါး":2962,"▁ပျမ်းမျှ":2963,"▁အကွက်":2964,"▁နားနား":2965,"▁အစပ်":2966,"▁ဈေးပေါ":2967,"ွင်းချက်":2968,"▁မေးလ်":2969,"▁ညီညွတ်":2970,"▁မှတ်စု":2971,"▁စောင့်ရှောက်":2972,"▁ဆရာကြီး":2973,"▁ထမင်းချိုင့်":2974,"က္ကူ":2975,"ပျို":2976,"▁စာရင်းကိုင်":2977,"▁စုဆောင်း":2978,"▁အော်ဒါ":2979,"▁တည်ထောင်":2980,"▁အရောင်းပိုင်း":2981,"▁အကြံပြု":2982,"▁ဝေးကွာ":2983,"▁အသားအရည်":2984,"▁ဂုဏ်ပြု":2985,"စည်းကမ်း":2986,"▁ဖိုင်တွဲ":2987,"▁ကန့်ကွက်":2988,"▁ကြေညာ":2989,"▁ထောက်ခံစာ":2990,"▁ပျော်ပျော်ရွှင်ရွှင်":2991,"▁ဖြည်းဖြည်းချင်း":2992,"▁ထိရောက်မှု":2993,"▁ဧည့်သည်":2994,"▁ထိပ်တန်း":2995,"▁သန်မာ":2996,"▁ကွက်တိ":2997,"▁ဘီယာ":2998,"▁လှည်းတန်း":2999,"▁ဒက်စတော့":3000,"▁စိုးရိမ်ပူပန်မှု":3001,"▁ဖရဲသီး":3002,"▁ဝှိုက်ဘုတ်":3003,"ဆည်း":3004,"ဘ်":3005,"ဘေး":3006,"မရာ":3007,"မဝင်":3008,"အင်း":3009,"▁ပရင်":3010,"▁မတ်":3011,"▁အူ":3012,"ေးရှင်း":3013,"▁ခုံ":3014,"▁ခိုင်":3015,"▁စွဲ":3016,"▁ဖောင်":3017,"▁ရှော့":3018,"▁ကြပ်":3019,"▁ချွေး":3020,"▁ချွင်းချက်":3021,"ော်တာ":3022,"▁တစ်ထောင်":3023,"▁ရင်ခုန်":3024,"▁ဒေါက်":3025,"▁အလည်":3026,"▁ကျရှုံး":3027,"ကျောင်း":3028,"▁အလုပ်ရုံ":3029,"▁စိတ်ခံစား":3030,"▁လက်ရာ":3031,"▁နှစ်ထောင့်":3032,"▁ညွှန်":3033,"▁ခုန":3034,"▁အပြု":3035,"▁ဂွတ်":3036,"▁စီဘီ":3037,"▁ထွက်သွား":3038,"▁မှတ်တိုင်":3039,"▁လမ်းကြုံ":3040,"▁အဖွား":3041,"▁အာ့":3042,"▁အနီး":3043,"▁ဆရာမ":3044,"▁ထမင်းဘူး":3045,"▁ပြည့်ပြည့်":3046,"▁နားလည်မှု":3047,"▁ငယ်ရွယ်":3048,"▁ရှောင်ရှား":3049,"ငြိမ်း":3050,"▁နီးစပ်":3051,"▁အဝလွန်":3052,"▁အလေးအနက်":3053,"ကိုယ်တာ":3054,"▁ထရိန်း":3055,"▁တံတား":3056,"▁အနေအထိုင်":3057,"▁အကြိမ်ကြိမ်":3058,"▁ဖိတ်ခေါ်":3059,"▁အပြီးသတ်":3060,"▁ဉာဏ်ကောင်း":3061,"▁အတည်ပြု":3062,"▁မန်းလေး":3063,"▁အိုက်စပ်စပ်":3064,"▁ပျိုးထောင်":3065,"▁ဖြစ်နိုင်ခြေ":3066,"▁ကိုယ်ရေးကိုယ်တာ":3067,"▁အစိုးရ":3068,"▁လမ်းညွှန်":3069,"▁ပရင်တာ":3070,"ဂျက်":3071,"တောက်":3072,"မကြေ":3073,"လိုက်":3074,"သပတ":3075,"▁ရွှင်":3076,"ေးနေ့":3077,"ူးတက":3078,"▁ဖွဲ့":3079,"▁ဖေးမ":3080,"▁ထောင်":3081,"▁ဆား":3082,"ိုင်အ":3083,"▁ချဲ့":3084,"▁ပေးဆောင်":3085,"▁ဖြန့်":3086,"ကြောင်":3087,"▁အလုံး":3088,"▁ကျသင့်":3089,"▁ငပိ":3090,"▁လေးဆယ်":3091,"▁အလုပ်ထုတ်":3092,"▁ယား":3093,"▁အားငယ်":3094,"▁အဆို":3095,"စာရင်း":3096,"ွယ်ဝ":3097,"▁ဝယ်စား":3098,"▁ရုံးဖွင့်":3099,"▁အိပ်ရှ်အာ":3100,"▁အကောက်":3101,"▁ရေဘူး":3102,"▁ဒါဆို":3103,"▁အမြင့်":3104,"▁တကူးတက":3105,"▁မီးလောင်":3106,"▁ကြာသပတ":3107,"လှုံ":3108,"ရီးယား":3109,"▁အသံဖမ်း":3110,"▁တိုက်ဆိုင်":3111,"▁ရုပ်ဆိုး":3112,"▁ကိုက်ခဲ":3113,"▁အကြီးကြီး":3114,"▁သံသ":3115,"▁အိုင်တီ":3116,"▁အစာမကြေ":3117,"▁စွန့်လွှတ်":3118,"▁အိုကေ":3119,"▁တံခါး":3120,"▁အပျင်း":3121,"▁အင်္ဂလိပ်စာ":3122,"▁ကန်တော့":3123,"▁ဘေလ်":3124,"▁ခဲဆံဘောပင်":3125,"▁စည်းမျဉ်းစည်းကမ်း":3126,"▁အားထုတ်မှု":3127,"ုသုတ":3128,"▁ရှယ်ယာရှင်":3129,"▁ဗဟုသုတ":3130,"▁သဘောတူညီချက်":3131,"▁စာလုံးပေါင်း":3132,"▁ဖုန်းဘေလ်":3133,"▁စိတ်ပါဝင်စား":3134,"▁မုန်တိုင်း":3135,"▁ကြာသပတေးနေ့":3136,"ဇင်ဝေ":3137,"တွယ်":3138,"ပွန်":3139,"ပွင့်":3140,"ဖွဲ့":3141,"မနေ":3142,"ဲအ":3143,"▁တလွဲ":3144,"▁လု":3145,"▁လစဉ်":3146,"▁မဖြစ်":3147,"▁မဇင်ဝေ":3148,"▁ကဗျ":3149,"▁ရပိုင်ခွင့်":3150,"▁စတန်း":3151,"▁ဖျော်":3152,"▁ကြေး":3153,"ချေး":3154,"င့်အင်း":3155,"မ်းက":3156,"▁အလျင်":3157,"▁အလဲအ":3158,"▁ဝန်း":3159,"▁ဟောင်း":3160,"▁ဟင့်အင်း":3161,"နေနေ":3162,"▁လူကောင်း":3163,"ိမ္":3164,"▁နှစ်စဉ်":3165,"▁အကြည့်":3166,"▁သုံးဆောင်":3167,"▁တိုင်းတာ":3168,"ဈေးနှုန်း":3169,"▁ဆက်စပ်":3170,"▁ညီလေး":3171,"▁ကုန်ဈေးနှုန်း":3172,"▁ပိုက်ဆံအိတ်":3173,"▁အင်မတန်":3174,"▁မီးသီး":3175,"▁နေရာထိုင်":3176,"▁အရေးကြုံ":3177,"▁အရေးတကြီး":3178,"▁ငါးထောင်":3179,"▁မျှတ":3180,"▁အသုံးစရိတ်":3181,"▁ကျောင်းတက်":3182,"▁တစ်ယောက်ယောက်":3183,"▁စာရင်းပေး":3184,"▁ဖြတ်ပိုင်း":3185,"▁အကြွေးဆပ်":3186,"▁အရှည်":3187,"▁စွမ်းရည်":3188,"လင်းလင်း":3189,"ပြတ်ပြတ်":3190,"▁နှုတ်ထွက်":3191,"▁အလှူခံ":3192,"▁ဝါသနာပါ":3193,"▁ခပ်ပြတ်ပြတ်":3194,"▁အမှိုက်ပုံး":3195,"▁ပြည်တွင်း":3196,"▁အားသွင်းကြိုး":3197,"▁ပေါ့ပေါ့ပါးပါး":3198,"▁မဲနှိုက်":3199,"▁ဝက်ခြံ":3200,"▁ဝန်ထမ်းကတ်":3201,"▁ပရိုဂရမ်မာ":3202,"▁ကင်မရာ":3203,"▁အမောပြေ":3204,"▁အကျိုးအမြတ်":3205,"▁လက်ကိုင်ဖုန်း":3206,"▁အဟောင်း":3207,"▁အထီးကျန်":3208,"▁နားနားနေနေ":3209,"▁ကျသင့်ငွေ":3210,"▁မဖြစ်မနေ":3211,"▁ကဗျာ":3212,"▁စတန်းဒင်း":3213,"▁နေရာထိုင်ခင်း":3214,"ငိုက်":3215,"တိတ်":3216,"တကာ":3217,"တခင်":3218,"ရွေ":3219,"▁လိမ္":3220,"▁အဘ":3221,"▁အယူ":3222,"▁နူး":3223,"▁လိုရင်း":3224,"▁စတိုင်":3225,"▁မှောက်":3226,"▁ကြွက်":3227,"ချီ":3228,"ို့ဝှက်":3229,"▁လုပ်ရပ်":3230,"▁လာယူ":3231,"▁ယော":3232,"▁ယဉ်":3233,"▁နှိုင်း":3234,"▁အခက်":3235,"▁သေးသေး":3236,"စာလှုံ":3237,"▁နေ့စွဲ":3238,"▁တကွ":3239,"▁မင်းသမီး":3240,"▁ခေါ်စာ":3241,"▁မီးချောင်း":3242,"ရှိခိုး":3243,"▁ဆေးထိုး":3244,"ဒီယို":3245,"▁အသုံးအ":3246,"▁ကောင်တာ":3247,"▁စာရင်းစစ်":3248,"▁ရှောင်တခင်":3249,"▁မူရင်း":3250,"▁ထိန်းသိမ်း":3251,"▁ကြက်ခြေ":3252,"▁ညှစ်":3253,"▁ဖောက်ပြန်":3254,"▁ဘုရားရှိခိုး":3255,"▁ချောင်းဆိုး":3256,"▁ဇာတ်လမ်း":3257,"▁အပတ်စဉ်":3258,"ပိုးအိတ်":3259,"▁နေပူစာလှုံ":3260,"ဟာရ":3261,"▁နေ့လယ်စာ":3262,"ချွန်စက်":3263,"▁ခဲတံချွန်စက်":3264,"▁ရုန်းကန်":3265,"▁ကျောပိုးအိတ်":3266,"▁တိုင်းမ်လိုင်း":3267,"▁လေးလေးစားစား":3268,"▁ထရိန်းနင်":3269,"▁ချဲ့ထွင်":3270,"▁အကောက်ခွန်":3271,"▁အသံဖမ်းစက်":3272,"ဂိတ်":3273,"ညှ":3274,"ထိန်း":3275,"ဘီး":3276,"ဘိုင်":3277,"ယဉ်":3278,"ရိုင်း":3279,"ွီ":3280,"▁မွှ":3281,"▁မက်စ်":3282,"▁အော့":3283,"▁ကနေ့":3284,"▁ရိုင်း":3285,"▁နို့":3286,"▁သကြား":3287,"စ်က":3288,"▁စုတ်":3289,"▁ဖမ်း":3290,"▁ထိတ်":3291,"▁ထည်":3292,"▁ရှူ":3293,"▁ချီ":3294,"▁တစ်နှစ်":3295,"▁လိုက်ရှာ":3296,"ပြာ":3297,"▁ဝဒီ":3298,"▁အတန်း":3299,"▁လက်လျှော့":3300,"▁စားစရိတ်":3301,"▁မိခင်":3302,"ဖြေး":3303,"▁အကြွေ":3304,"▁ခုနှစ်":3305,"▁ရေသန့်":3306,"မြစ်":3307,"▁သေဆုံး":3308,"▁ဆက်လုပ်":3309,"▁ခွင့်ရက်":3310,"▁လျှို့ဝှက်":3311,"▁ရက်စက်":3312,"▁ကားဂိတ်":3313,"▁ပို့စ်":3314,"▁အသက်ရှင်":3315,"▁အကုန်အကျ":3316,"▁ပညာရပ်":3317,"▁ရုပ်ချော":3318,"အသင်း":3319,"▁အသိပညာ":3320,"▁စမ်းသပ်":3321,"▁ပန်းကန်":3322,"▁ဓာတ်ပုံ":3323,"▁ချောချော":3324,"▁ဒေသ":3325,"▁ခြေထောက်":3326,"▁အကြိုက်ဆုံး":3327,"▁ဘဏ္ဍာရေး":3328,"▁ဆော့ဖ်ဝဲလ်":3329,"▁လိဖ်":3330,"▁စိတ်ခံစားချက်":3331,"▁ထိတ်လန့်":3332,"ခို":3333,"ခတ်":3334,"စေး":3335,"စေ့":3336,"ဆိုင်း":3337,"နောက်":3338,"ယောင်":3339,"ရင့်":3340,"လတ်":3341,"အင်":3342,"ွိုင်":3343,"▁မနာ":3344,"▁အနက်":3345,"▁ရောင်":3346,"▁ပြုတ်":3347,"▁စရံ":3348,"▁ဆာ":3349,"▁ရှု":3350,"▁ရှဲ":3351,"▁မှာယူ":3352,"▁ကြွား":3353,"▁ကြွေး":3354,"▁ကြံ့":3355,"▁ချောင်":3356,"ကြို":3357,"▁ကျုပ်":3358,"▁ကျဆင်း":3359,"▁ဟော":3360,"▁လေးနက်":3361,"ကျေး":3362,"ကျော်":3363,"▁လူစု":3364,"▁အောင်လက်မှတ်":3365,"▁နှစ်ရာ":3366,"▁အိပ်ငိုက်":3367,"▁ရေကြီး":3368,"▁အပြုံး":3369,"▁နည်းဗျူဟာ":3370,"▁လှောင်":3371,"▁အဲ့လောက်":3372,"▁တွေ့ဆုံ":3373,"▁အထည်":3374,"▁သက်ရောက်":3375,"▁တင်ဒါ":3376,"▁ထည့်သွင်း":3377,"▁အာဟာရ":3378,"▁လျှောက်လွှာ":3379,"▁တိုးမြှင့်":3380,"▁ပရိ":3381,"ဂျီအ":3382,"▁ပညာရှင်":3383,"တီတီ":3384,"နိုင်ဆုံး":3385,"▁နာမည်ကြီး":3386,"▁လည်ပတ်":3387,"▁အလေးချိန်":3388,"▁အလှူငွေ":3389,"▁အမှတ်တရ":3390,"▁လွှတ်ချ":3391,"▁ကူးစက်":3392,"▁ပြည်သူ":3393,"ဟင်းခါး":3394,"▁ဖြူစင်":3395,"▁အကြမ်းဖ":3396,"▁ဓါတ်ပုံ":3397,"▁နှလုံးသား":3398,"▁ပင်စင်ယူ":3399,"▁အတတ်နိုင်ဆုံး":3400,"▁ကိတ်မုန့်":3401,"▁ဖောင်းပွမှု":3402,"▁အဖိုးတန်":3403,"▁မီတာခ":3404,"▁အက်စ်တီတီ":3405,"▁အပေါင်းအသင်း":3406,"▁မှတ်စုစာအုပ်":3407,"▁ရုံးဖွင့်ရက်":3408,"▁မနာလို":3409,"▁ကြံ့ခိုင်":3410,"ကတ်":3411,"ငှား":3412,"တွန်း":3413,"ထန်":3414,"ဖစ်":3415,"ယှဉ်":3416,"ဝဝ":3417,"အဆ":3418,"အကဲ":3419,"▁တုပ်":3420,"▁လျော်":3421,"▁အံ":3422,"▁ကတ်":3423,"▁သရုပ်":3424,"▁ဘရို":3425,"▁ဘစ်က":3426,"▁ပြို":3427,"▁စောက်":3428,"▁နေစား":3429,"▁နေနေ":3430,"▁ကြွေ":3431,"▁ချို":3432,"▁ဖြုတ်":3433,"ကြပ်":3434,"▁တစ်သိန်း":3435,"ပြောင်း":3436,"▁ဒေါင်း":3437,"▁လာပို့":3438,"▁ပြီးပြည့်":3439,"▁အရောက်":3440,"▁အလုပ်ခန့်":3441,"▁စိတ်ပိုင်း":3442,"▁အမွေ":3443,"▁နှယောက်":3444,"▁လက်အိတ်":3445,"ဖြေ":3446,"▁ဂဏန်း":3447,"▁ငွေစု":3448,"▁ဈေးလျှော့":3449,"▁ကြိုးကြိုး":3450,"▁ရက်မှန်":3451,"▁သဘောမကျ":3452,"▁ချက်ပြုတ်":3453,"▁အနီ":3454,"လှစ်":3455,"▁ဖွင့်လှစ်":3456,"▁ကုဒ်":3457,"▁ကုလား":3458,"▁ပြောပြော":3459,"ဂျတ်":3460,"▁မုန့်ဟင်းခါး":3461,"▁ရပ်တန့်":3462,"▁ကော်ပီ":3463,"▁ပျောက်ကင်း":3464,"▁ထိုင်ခုံ":3465,"▁အခွင့်အခါ":3466,"▁အားပေးမှု":3467,"က္ခမ":3468,"▁လက်ဆောင်ပစ္စည်း":3469,"န်တေးရှင်း":3470,"▁စိတ်မကောင်း":3471,"▁စိတ်မဝင်စား":3472,"▁အကြီးအကဲ":3473,"▁တွက်ချက်":3474,"▁ပြတ်သား":3475,"▁နှုတ်ခမ်း":3476,"▁လည်ချောင်း":3477,"▁လိမ်မာ":3478,"▁ဖိနပ်စင်":3479,"▁ယူနီကု":3480,"▁စီအိုင်အို":3481,"▁ဆန်းစစ်":3482,"▁ဝေ့ပေး":3483,"လူဝေး":3484,"▁မှတ်တမ်းတင်":3485,"▁ပရိုဂရမ်မင်း":3486,"▁ဆောက်လုပ်":3487,"▁ပီတိ":3488,"▁နံနက်စာ":3489,"▁ပြည့်ပြည့်ဝဝ":3490,"▁အလဲအလှယ်":3491,"▁ဝန်းကျင်":3492,"▁ယောက္ခမ":3493,"▁နှိုင်းယှဉ်":3494,"▁ကြက်ခြေထောက်":3495,"▁အော့ဖစ်":3496,"▁လူစုလူဝေး":3497,"▁ဘစ်ကွိုင်":3498,"▁ပြီးပြည့်စုံ":3499,"▁ကြိုးကြိုးစားစား":3500,"▁ရက်မှန်ကြေး":3501,"▁ယူနီကုဒ်":3502,"▁အော့ဖစ်ဇ်":3503,"ထွေ":3504,"ဒဏ်":3505,"ဓံ":3506,"ဖူး":3507,"လျ":3508,"သွေး":3509,"အောက်":3510,"အနား":3511,"ိုင့်":3512,"▁မွန်း":3513,"▁အောင့်":3514,"▁ကယ်":3515,"▁ကဲ့":3516,"▁ကဒ်":3517,"▁ကြွယ်ဝ":3518,"▁ကိုကို":3519,"▁ဒတ်":3520,"▁ပြီးမြောက်":3521,"▁လေးဆယ့်":3522,"▁လေဆိပ်":3523,"▁သိမ်":3524,"▁အမလေး":3525,"▁ညွှန်း":3526,"▁ပျော့":3527,"မြဲ":3528,"▁ခြား":3529,"▁မနက်ပိုင်း":3530,"▁ကြိုးစားမှု":3531,"▁ထွက်ခွာ":3532,"▁ထက်သန်":3533,"▁ချက်လက်မှတ်":3534,"▁သတိပြု":3535,"▁ပြည့်မီ":3536,"▁တိုက်တွန်း":3537,"▁ကြိုဆို":3538,"▁ခရီးရောက်":3539,"▁ဆွဲဆောင်မှု":3540,"ကန်ကန်":3541,"ဆင်းရဲ":3542,"▁အရှေ့":3543,"▁အဆင့်မြင့်":3544,"▁အတိုးနှုန်း":3545,"▁နားမထောင်":3546,"▁စိတ်ကူးယဉ်":3547,"▁လောကဓံ":3548,"▁ကမ္ဘာ့":3549,"▁ခြေလှမ်း":3550,"▁မှန်မှန်ကန်ကန်":3551,"▁ဘေစင်":3552,"▁ဘတ်ဂျတ်":3553,"▁ကတိတည်":3554,"▁ထောက်ခံချက်":3555,"▁အနှောင့်":3556,"▁အိပ်ရေးဝဝ":3557,"အမ်မ်":3558,"▁ဒေါက်တာ":3559,"▁ဂွတ်ဘိုင်":3560,"▁စရံငွေ":3561,"▁အကြမ်းဖျဉ်း":3562,"▁နေစားငြိမ်း":3563,"ခွက်":3564,"တည့်":3565,"ဒက":3566,"နင်း":3567,"ပိုက်":3568,"မီး":3569,"မပြု":3570,"ယံ":3571,"လောင်း":3572,"သွက်":3573,"အယှက်":3574,"▁တွန်း":3575,"▁လယ်":3576,"▁အနှစ်":3577,"▁သုပ်":3578,"▁သွန်":3579,"တ်ဒ်":3580,"▁ထူ":3581,"▁ဖြစ်ပေါ်":3582,"▁ဟတ်ဒ်":3583,"▁အတ္တ":3584,"▁စိတ်ဆင်းရဲ":3585,"▁ပေါင်":3586,"▁စားသုံး":3587,"▁စာနာ":3588,"▁ကြီးပွား":3589,"သာယာ":3590,"▁ခုခု":3591,"▁ဟာသ":3592,"▁ခြံ":3593,"▁လှိုင်":3594,"ခြင်း":3595,"▁နာရေး":3596,"▁လျှပ်":3597,"▁အကြောင်းရင်း":3598,"▁သေချာပေါက်":3599,"▁ကြာရှည်":3600,"▁သင်တန်းတက်":3601,"▁မှားယွင်း":3602,"▁ပူပူ":3603,"▁ဘာသာပြန်":3604,"▁ဂျင်း":3605,"▁စက်ဘီး":3606,"▁အိတ်ရှ်":3607,"▁စောဒက":3608,"▁အဖွဲ့ဝင်":3609,"▁ပရိုဂျက်":3610,"▁စိတ်မချ":3611,"▁ဆော့ပင်":3612,"▁မိုက်ရိုင်း":3613,"▁အိပ်ရာထ":3614,"▁ငြင်းဆန်":3615,"▁ပန်ကာ":3616,"▁ယှဉ်ပြိုင်":3617,"▁စူးစိုက်":3618,"▁ကိုယ်ဝန်ဆောင်":3619,"▁နွေးထွေး":3620,"▁မတ်တပ်":3621,"▁ရွှင်လန်း":3622,"▁အယူအဆ":3623,"▁အနှောင့်အယှက်":3624,"▁အိတ်ရှ်အို":3625,"ဂ္ဂ":3626,"တတ်":3627,"ရုံး":3628,"သော":3629,"အသား":3630,"▁တပ":3631,"▁တမ်း":3632,"▁တရုတ်":3633,"▁မက":3634,"▁ကမ်း":3635,"▁ရွက်":3636,"▁နွေ":3637,"▁စံ":3638,"▁မှောင်":3639,"▁ကြံ":3640,"▁ကိုရီးယား":3641,"▁ဖြုန်း":3642,"ကြွေး":3643,"▁ငတ်":3644,"▁ဟဲ":3645,"နေရေး":3646,"▁အသွား":3647,"▁စားဝတ်":3648,"▁စာရင်":3649,"▁ခုတလော":3650,"▁နောက်ခါ":3651,"စ္ဆာ":3652,"▁ထွက်ပြေး":3653,"▁အရေးပေါ်":3654,"▁အေးဂျ":3655,"လှန်":3656,"▁နိုင်ငံတကာ":3657,"▁အကောင်းမြင်":3658,"▁အောင်မြင်စွာ":3659,"▁စာရင်းသွင်း":3660,"▁ခြောက်ဆယ်":3661,"▁အိတ်ကပ်":3662,"▁ကိုင်ဆောင်":3663,"က္ခာ":3664,"▁ခဲဖျက်":3665,"▁မိတ်ကပ်":3666,"▁ကျေပွန်":3667,"▁ဝေးဝေး":3668,"▁ပြုံးပြ":3669,"▁လွတ်မြောက်":3670,"▁ဖော်ရွေ":3671,"▁ဌာနမှူး":3672,"▁သီချင်းဆို":3673,"▁မန်ဘာ":3674,"▁အဆုံးသတ်":3675,"▁လုပ်သက်ခွင့်":3676,"▁ချိတ်ဆက်":3677,"▁ပြိုင်ပွဲ":3678,"▁လတ်တလော":3679,"▁ပွင့်လင်း":3680,"▁ညစ်ပတ်":3681,"▁ဘောလုံးပွဲ":3682,"▁သံသယ":3683,"▁အလျင်လို":3684,"▁ယဉ်ကျေး":3685,"▁ကြွေးမြ":3686,"▁ပြိုလဲ":3687,"▁လျှပ်စစ်":3688,"▁ပရိုဂျက်တာ":3689,"▁စားဝတ်နေရေး":3690,"▁အေးဂျင့်":3691,"ကဒ်":3692,"စွက်":3693,"ဆစ်":3694,"တယ်":3695,"ထည်":3696,"ဒင်":3697,"နူး":3698,"ရဲ့":3699,"ရမီ":3700,"လော့":3701,"အချက်":3702,"ေဒင်":3703,"င်နာ":3704,"▁ပါရမီ":3705,"▁ဖေ့":3706,"မ်းအနား":3707,"▁ဆိုဒ်":3708,"▁သွားလာ":3709,"▁အရိပ်":3710,"▁စိတ်ကောက်":3711,"▁ယနေ့":3712,"ရှူး":3713,"▁လူပျို":3714,"▁ကိုယ်ခံ":3715,"▁အခမ်းအနား":3716,"▁အချိုး":3717,"▁လက်သန့်":3718,"▁လက်အောက်":3719,"▁ဦးရေ":3720,"ဖြူ":3721,"▁ညောင်း":3722,"▁များစွာ":3723,"▁အိပ်စက်":3724,"▁အကဲ":3725,"▁ရောက်ရောက်":3726,"▁အိမ်နီး":3727,"▁အပါ":3728,"▁အပန်း":3729,"▁ဗမာ":3730,"▁ဗေဒင်":3731,"▁အစု":3732,"▁စီတီ":3733,"▁ငွေချေး":3734,"▁လျှင်":3735,"▁အခုတလော":3736,"▁မီးလာ":3737,"▁တကယ်တမ်း":3738,"▁မှတ်ချက်":3739,"▁အရေးမကြီး":3740,"အားဖြင့်":3741,"▁လမ်းမ":3742,"▁အဖော်":3743,"▁အသက်မွေး":3744,"▁ရေးထိုး":3745,"▁ဖွင့်ပွဲ":3746,"▁ဝတ်စုံ":3747,"▁ရန်ဖြစ်":3748,"လွှား":3749,"▁သန့်စင်":3750,"▁ဇွဲ":3751,"▁ရိုးရှင်း":3752,"▁ခေတ်မီ":3753,"▁ဖြည့်စွက်":3754,"စီတီ":3755,"▁အရှိ":3756,"▁ဆွေးနွေးပွဲ":3757,"▁ဝေမျှ":3758,"▁အိမ်ထောင်ကျ":3759,"▁အမြတ်ငွေ":3760,"ဒေသ":3761,"▁ငြိမ်ငြိမ်":3762,"▁အသည်းကွဲ":3763,"▁လတ်ဆတ်":3764,"▁တစ်စုံတစ်ရာ":3765,"▁တစ်စုံတစ်ယောက်":3766,"▁ငြိမ်းချမ်း":3767,"▁ပရင့်ထုတ်":3768,"▁စိန်ခေါ်":3769,"▁စတိုင်လ်":3770,"▁အသုံးအနှုန်း":3771,"▁တုပ်ကွေး":3772,"▁သရုပ်ဆောင်":3773,"▁ကဲ့ရဲ့":3774,"ဂ္ဂိုလ်":3775,"▁အိမ်နီးချင်း":3776,"▁စီတီအို":3777,"ကောင်":3778,"ကိစ္စ":3779,"စောင့်":3780,"စနစ်":3781,"စက္ကူ":3782,"ဆော့":3783,"တူး":3784,"တစား":3785,"တိပ်":3786,"ဖောက်":3787,"မက်":3788,"မန်း":3789,"မျက်":3790,"မပြတ်":3791,"ယုတ်":3792,"ရွှ":3793,"ရွေ့":3794,"အောင်":3795,"အပျက်":3796,"အပြား":3797,"အမူ":3798,"▁တုန်":3799,"▁ပလပ်":3800,"▁လောင်း":3801,"▁မနှစ်":3802,"ောရီး":3803,"▁ဘောင်":3804,"▁ခန်း":3805,"▁ဖွယ်":3806,"▁နေသား":3807,"▁ထုံ":3808,"▁ဆီး":3809,"▁ဆောရီး":3810,"▁ဘူးသီး":3811,"▁တောင့်":3812,"▁ရှေး":3813,"▁ကြိတ်":3814,"န်းကင်း":3815,"▁တစ်ပတ်":3816,"▁တစ်ကိုယ်":3817,"▁ကျိုး":3818,"▁ကျဉ်း":3819,"▁အရုပ်":3820,"▁အရိုး":3821,"▁ငရဲ":3822,"▁ပြောကြား":3823,"▁စိတ်နေ":3824,"▁စိတ်ကုန်":3825,"▁ကိုယ်စား":3826,"▁စေ့":3827,"▁လက်တော့":3828,"▁စားကောင်း":3829,"ရေးမှူး":3830,"▁အိပ်ယာ":3831,"▁အကန့်":3832,"▁ဒါကြောင့်":3833,"▁အများအပြား":3834,"▁အထာ":3835,"▁ဆက်လက်":3836,"▁ငွေချေ":3837,"▁ဝန်ဆောင်":3838,"ချာလည်":3839,"▁သာကေ":3840,"▁ရှာတွေ့":3841,"▁ပရိတ်":3842,"▁ရှင်းရှင်း":3843,"ဂျီ":3844,"▁စစ်ကြည့်":3845,"▁ခွဲစိတ်":3846,"▁စုစု":3847,"▁စုစည်း":3848,"▁စက်လှေကား":3849,"▁လောဘ":3850,"▁ဆယ်တန်း":3851,"ကာပူ":3852,"▁ခဲသား":3853,"▁ဘေးနား":3854,"▁စိတ်မဆိုး":3855,"▁အဖြစ်အပျက်":3856,"▁အိုင်စီတီ":3857,"▁စောင်ခြုံ":3858,"▁အအေးမိ":3859,"▁ကွန်ဖမ်း":3860,"▁မင်္ဂလာဆောင်":3861,"ပွိုင့်":3862,"▁ပြည်ပ":3863,"▁အကြောင်းအရင်း":3864,"▁အဖြူရောင်":3865,"▁ဓါတ်ခဲ":3866,"▁ကျင့်သုံး":3867,"▁မန်းနီး":3868,"▁ဂိမ်းဆော့":3869,"▁သတိမေ့":3870,"▁ဘိုင်ပြတ်":3871,"ရှယ်ယာ":3872,"▁အပြုအမူ":3873,"▁လိမ္မာ":3874,"▁ညှစ်ထုတ်":3875,"▁မွှေး":3876,"▁ပရိသတ်":3877,"▁ဆောက်လုပ်ရေး":3878,"▁ဒတ်လိုင်း":3879,"▁သိမ်ငယ်":3880,"▁ဟဲလို":3881,"▁အကဲဖြတ်":3882,"▁အစုရှယ်ယာ":3883,"▁နေသားကျ":3884,"▁သာကေတ":3885,"▁ကွန်ဖမ်းမ်":3886,"ကိုင်း":3887,"ငွေ့":3888,"ညံ":3889,"တသိ":3890,"ထွန်း":3891,"ဒေါ်":3892,"နဲ":3893,"ပေ":3894,"မပေး":3895,"အမြင်":3896,"အလက်":3897,"▁၏":3898,"▁ပွ":3899,"▁ပုပ်":3900,"▁မွဲ":3901,"▁အဒေါ်":3902,"▁ကုတ်":3903,"▁ရောင့်":3904,"▁ရွယ်":3905,"▁နိမ့်":3906,"▁ပါတီ":3907,"▁ဘော်":3908,"ပ်ဘ်":3909,"▁စိ":3910,"▁စို":3911,"▁ဖုံး":3912,"▁ဖိုက်အ":3913,"ချင်":3914,"င့်ချိန်":3915,"▁ချရေး":3916,"▁ချင့်ချိန်":3917,"▁ရှိခိုး":3918,"▁တစ်ရေး":3919,"▁ဖြစ်တည်":3920,"▁အလွဲ":3921,"▁အလျှ":3922,"▁ဝပ်ဘ်":3923,"▁ကျွတ်":3924,"▁နှိုက်":3925,"▁နှောင့်":3926,"▁အသုပ်":3927,"▁အသိုင်း":3928,"▁နှစ်သက်":3929,"▁နှစ်ထောင်":3930,"▁များသော":3931,"▁သုံးရာ":3932,"▁နောက်မကျ":3933,"▁ရောက်လာ":3934,"▁ထင်မှတ်":3935,"▁ငွေစက္ကူ":3936,"▁ရက်ပိုင်း":3937,"▁ဆေးရည်":3938,"▁ချက်စား":3939,"▁ထပ်ခါ":3940,"▁လျှောက်သွား":3941,"▁ပြင်ပ":3942,"▁မိုးလင်း":3943,"▁ဖတ်ရှု":3944,"▁လေ့လာရေး":3945,"▁သတင်းအချက်":3946,"တည်တည်":3947,"တ္တ":3948,"▁လွှင့်":3949,"▁အေဂျီအ":3950,"▁စမ်းချောင်း":3951,"▁အမှန်တရား":3952,"▁ကိုင်တွယ်":3953,"▁ညနေစာ":3954,"စိတ်ထား":3955,"▁မင်အိုး":3956,"ပေါင်းစက်":3957,"▁အမှတ်စဉ်":3958,"▁ဆန်ဆန်":3959,"▁မြင့်မား":3960,"▁အလိုက်တသိ":3961,"▁ပါဝင်မှု":3962,"▁လုပ်အားပေး":3963,"▁အဆိုးဆုံး":3964,"လွဲပိုင်း":3965,"▁အစောဆုံး":3966,"▁တိတ်တိတ်":3967,"▁တစ်ခါတစ်ခါ":3968,"▁အလေ့အထ":3969,"▁နစ်နာကြေး":3970,"မြှင့်စက်":3971,"▁အဖျားရှူး":3972,"▁ပံ့ပိုးမှု":3973,"▁ရေမော်တာ":3974,"▁မီးအားမြှင့်စက်":3975,"▁ဟောပြော":3976,"▁ဂဏန်းပေါင်းစက်":3977,"▁မွန်းလွဲပိုင်း":3978,"▁လှိုင်သာယာ":3979,"▁ကိုယ်ခံအား":3980,"▁အသက်မွေးဝမ်း":3981,"▁သန့်စင်ခန်း":3982,"မန်းနီး":3983,"▁စိတ်နေစိတ်ထား":3984,"▁ပရိတ်သတ်":3985,"▁စုစုပေါင်း":3986,"▁ခဲသားဘောပင်":3987,"▁ဖိုက်အက်စ်":3988,"▁များသောအားဖြင့်":3989,"▁သတင်းအချက်အလက်":3990,"▁အေဂျီအမ်":3991,"ကိုး":3992,"စောင်း":3993,"စိမ်း":3994,"တင့်":3995,"ထည့်":3996,"မယ်":3997,"လွင်":3998,"ဝိုင်အ":3999,"သွန်":4000,"အိုက်":4001,"အဆို":4002,"အလှန်":4003,"ုသိုလ်":4004,"▁လောင်":4005,"▁အငြ":4006,"▁ရို":4007,"▁သု":4008,"▁သရွေ့":4009,"▁ခုတ်":4010,"▁ခွန်း":4011,"စ်တာ":4012,"▁စိမ်း":4013,"▁ဆွမ်း":4014,"ချစ်":4015,"▁ချွတ်":4016,"▁တစ်ဆယ်":4017,"ေါင်":4018,"▁လုပ်ယူ":4019,"▁အလင်း":4020,"▁လာလည်":4021,"▁သွားသွား":4022,"မှား":4023,"▁အလုပ်ခွင်":4024,"▁စိတ်ဝင်":4025,"▁နှရက်":4026,"▁ဦးစီး":4027,"▁စာပေ":4028,"▁အဆိပ်":4029,"ဖြိုး":4030,"▁နှစ်ရက်":4031,"▁အကြော":4032,"▁အကြား":4033,"▁ယူသုံး":4034,"▁အကုသိုလ်":4035,"မြို့":4036,"▁ဂစ်တာ":4037,"▁အစွမ်း":4038,"▁ခေါ်ဆို":4039,"▁ညီအ":4040,"▁ပုံပြင်":4041,"▁ရက်ရော":4042,"▁သဘောဆောင်":4043,"▁ကားမူး":4044,"▁အကျယ်":4045,"▁ငါးသောင်း":4046,"▁ထပ်မံ":4047,"ရည်တူ":4048,"▁ထမင်းကြမ်း":4049,"▁မိုးရာသီ":4050,"မ္မာ":4051,"ဒါန်း":4052,"စုံစမ်း":4053,"▁ဝတ်ဆင်":4054,"▁ကံဆိုး":4055,"▁ကံမကောင်း":4056,"▁အသံကြား":4057,"▁ပူအိုက်":4058,"▁အေဝိုင်အ":4059,"▁ဆွဲဆောင်":4060,"▁တရားထိုင်":4061,"▁ဖြည့်ဆည်း":4062,"▁ပွဲစား":4063,"ပတ်လည်":4064,"▁တပ်ဆင်":4065,"ခ်ျ":4066,"▁ကောက်ရ":4067,"▁လှူဒါန်း":4068,"▁အပြောအဆို":4069,"▁ဒေါ်လာဈေး":4070,"▁နေ့လယ်ခင်း":4071,"▁ဒစ်စကောင့်ချ":4072,"▁မရမ်းက":4073,"▁မာလာ":4074,"▁မေးမြန်းစုံစမ်း":4075,"▁ရုန်းထွက်":4076,"▁အပြန်အလှန်":4077,"မွေ့မွေ့":4078,"▁ကင်ဆာ":4079,"▁ပွင့်ပွင့်":4080,"▁ခေါက်ဆွဲပြုတ်":4081,"▁ရေမချိုး":4082,"▁တန်းတူရည်တူ":4083,"▁စမတ်ဖုန်း":4084,"▁အချဉ်ပေါင်း":4085,"▁ငပိရည်":4086,"▁အဘွား":4087,"▁ရှုထောင့်":4088,"▁သက်ရောက်မှု":4089,"▁အံဆွဲ":4090,"▁တပည့်":4091,"▁ဖေ့စ်":4092,"▁စိန်ခေါ်မှု":4093,"▁အကန့်အသ":4094,"▁စိစစ်":4095,"▁အငြင်း":4096,"▁စိတ်ဝင်တစား":4097,"▁အေဝိုင်အေ":4098,"▁မရမ်းကုန်း":4099,"▁ပွင့်ပွင့်လင်းလင်း":4100,"ထိ":4101,"ထင်":4102,"ဓါတ်":4103,"နွမ်း":4104,"ပုပ်":4105,"ဗူး":4106,"မရ":4107,"မော်":4108,"မယ့်":4109,"မပြန်":4110,"ယန်တေးရှင်း":4111,"လိ":4112,"လန်":4113,"လျော့":4114,"ဝိုင်း":4115,"သုတ်":4116,"သိမ့်":4117,"▁တုံး":4118,"▁ပယ်":4119,"▁လင်":4120,"▁လစ်":4121,"▁မဲ့":4122,"▁မောက်":4123,"▁အိ":4124,"▁ရွံ":4125,"▁နင်း":4126,"▁ဘန်းကင်း":4127,"င်းအထ":4128,"▁ခုန်":4129,"▁လိုလား":4130,"▁စော်":4131,"▁ဖား":4132,"▁ဖွံ့":4133,"▁ရှိုး":4134,"▁ကြင်နာ":4135,"▁ချမ်း":4136,"▁တစ်လုံး":4137,"▁တစ်လျှောက်":4138,"ေါ့":4139,"▁ရင်ဖွင့်":4140,"▁ဒဿ":4141,"▁ဆိုက်":4142,"▁အရေ":4143,"▁ငှက်":4144,"▁ငရုတ်":4145,"▁အလုပ်ခေါ်":4146,"▁အလုပ်ကိစ္စ":4147,"▁လူတန်း":4148,"▁ကိုယ်တွေ့":4149,"▁ဦးတည်":4150,"ဖြည့်":4151,"▁ကြည့်ကြည့်":4152,"▁နှစ်မျိုး":4153,"▁နှစ်သစ်":4154,"▁နှစ်ပတ်လည်":4155,"▁ညည်း":4156,"▁အချိန်တန်":4157,"▁အကြောက်":4158,"▁နောက်ဆက်":4159,"နှေး":4160,"▁အပြင်းအထ":4161,"လုံးငွေ":4162,"▁အမြည်း":4163,"▁ဖုန်းချ":4164,"▁ကြိုက်နှစ်":4165,"▁ငွေလုံးငွေ":4166,"▁လျှာ":4167,"ရီယန်တေးရှင်း":4168,"ငယ်သား":4169,"▁မီးတိပ်":4170,"▁စကားဝှက်":4171,"▁ပို့ခ":4172,"▁အနု":4173,"ပင်ပန်း":4174,"▁ဆရာ့":4175,"မ္မ":4176,"▁ရယ်မော":4177,"▁သမိုင်း":4178,"▁ဘာသာရပ်":4179,"▁ပျောက်ဆုံး":4180,"▁ခရီးစဉ်":4181,"▁အော်ရီယန်တေးရှင်း":4182,"▁ကော်ဖီထုပ်":4183,"ထပ်ခါ":4184,"▁ကြက်သွန်":4185,"▁အရှက်":4186,"▁စွမ်းအား":4187,"▁မူးဝေ":4188,"▁အနားပေး":4189,"▁လွတ်ကျ":4190,"▁ဖိအား":4191,"▁အမှတ်အသား":4192,"▁ခပ်တည်တည်":4193,"▁ပုဒ်":4194,"▁တည့်တည့်":4195,"▁ဗီဒီယို":4196,"▁ခွင့်ပြုချက်":4197,"▁ကြေငြာ":4198,"▁အတုယူ":4199,"▁မြှောက်":4200,"▁အနိုင်ယူ":4201,"▁ကြည်လင်":4202,"▁ဂျူတီ":4203,"▁အတတ်ပညာ":4204,"▁ဝဋ်ကြွေး":4205,"▁စပ်စု":4206,"▁ဝက်သားဟင်း":4207,"▁ထီပေါက်":4208,"▁ခိုင်လုံ":4209,"ညှပ်":4210,"▁ချောချောမွေ့မွေ့":4211,"▁နွေရာသီ":4212,"▁အသွားအလာ":4213,"▁လက်အောက်ငယ်သား":4214,"▁အပန်းဖြေ":4215,"မျက်နှာ":4216,"▁ပလပ်ပေါက်":4217,"▁ရွယ်တူ":4218,"▁ဘော်ဒါ":4219,"▁ထပ်ခါထပ်ခါ":4220,"▁ညီအစ်":4221,"▁ဖွံ့ဖြိုး":4222,"▁လူတန်းစား":4223,"▁နောက်ဆက်တွဲ":4224,"▁အပြင်းအထန်":4225,"▁ကြိုက်နှစ်သက်":4226,"▁ငွေလုံးငွေရင်း":4227,"ဆု":4228,"ဆေ့":4229,"တံ့":4230,"ထူ":4231,"ဒယ်":4232,"ပီအ":4233,"ဖို":4234,"မိုက်":4235,"ဟိ":4236,"အဝင်":4237,"အကူ":4238,"ူရှင်":4239,"ျာ":4240,"▁တောက်":4241,"▁မသင်":4242,"▁မတရား":4243,"▁အယ်":4244,"▁အဝင်":4245,"▁အညီ":4246,"▁ကန်တ":4247,"▁ရစ်":4248,"▁ရမ်း":4249,"▁ရော့":4250,"▁နုတ်":4251,"▁သ၍":4252,"▁ခရ":4253,"▁မှို":4254,"▁ထုံး":4255,"▁ဆင့်":4256,"▁ချပြ":4257,"▁ချွဲ":4258,"▁ပေးအပ်":4259,"▁ပေးစရာ":4260,"▁ဒက်စ်":4261,"▁ဖြစ်စဉ်":4262,"▁ဖြစ်ရပ်":4263,"▁အလွတ်":4264,"▁သွားတိုက်":4265,"▁ကျူရှင်":4266,"▁လေးထောင့်":4267,"ရှိုင်း":4268,"▁အမာ":4269,"▁အမိ":4270,"▁အမီ":4271,"▁အမေး":4272,"▁လူကြိုက်":4273,"▁အောင်အောင်":4274,"▁နှိမ့်":4275,"▁အခိုက်အ":4276,"▁ဦးလေး":4277,"▁စာသား":4278,"▁စာကျက်":4279,"▁စာမျက်နှာ":4280,"▁နှစ်ဦး":4281,"▁နှစ်သိမ့်":4282,"▁အချိန်ကုန်":4283,"▁အချိန်မီ":4284,"▁အကြွင်း":4285,"▁သုံးထောင်":4286,"▁ယူအမ်မ်":4287,"▁ရေသောက်":4288,"▁ရေပိုက်":4289,"▁အိမ်ပြန်":4290,"▁လှုပ်":4291,"▁လှေကား":4292,"▁ဂါ":4293,"▁အစိမ်း":4294,"▁ချစ်စရာ":4295,"▁ချစ်ခင်":4296,"▁ပုံဖော်":4297,"▁အကြောင်းပြန်":4298,"▁မီးပူ":4299,"▁ဆေးဝါး":4300,"▁လမ်းဘေး":4301,"▁အဖတ်":4302,"▁အသက်ငယ်":4303,"▁ပတ်ချာလည်":4304,"▁တန်ကြေး":4305,"▁ကွာခြား":4306,"မြင်မြင်":4307,"▁ဖြေဆို":4308,"▁အနောက်":4309,"▁လျှောက်ပြော":4310,"▁မြန်မာ့":4311,"▁သမား":4312,"ကြေးငွေ":4313,"▁ပင်ပန်းနွမ်း":4314,"▁အတွင်းရေးမှူး":4315,"▁စက်ပစ္စည်း":4316,"▁ဇိမ်":4317,"▁ရှေ့နေ":4318,"▁စည်းလုံး":4319,"သေတ္တာ":4320,"ရပ်ရပ်":4321,"▁အကြွေးရှင်":4322,"▁လေ့ကျင့်ရေး":4323,"▁အရောင်ဆိုး":4324,"▁အဝါ":4325,"▁ပန်းချီ":4326,"▁ဆင်တူ":4327,"▁တန်းစီ":4328,"သုံးစား":4329,"▁လေးစားမှု":4330,"▁မျက်မှန်သမား":4331,"▁မျက်မှန်ကိုင်း":4332,"▁ကေပီအ":4333,"▁စီမံခန့်ခွဲရေး":4334,"▁ဓား":4335,"▁အိပ်ရာခင်း":4336,"ကျေနပ်":4337,"▁အာရုံစိုက်မှု":4338,"▁မန်မို":4339,"▁လုံခြုံမှု":4340,"▁သာမက":4341,"▁ဥပမာ":4342,"▁ငြိမ်သက်":4343,"▁သီးခြား":4344,"▁အထင်သေး":4345,"▁ဆုံးရှုံးမှု":4346,"▁အရှုံးပေး":4347,"▁မာကာ":4348,"▁ဝေ့မန်းနီး":4349,"▁ဓါတ်လှေကား":4350,"▁ကျင့်ဝတ်":4351,"▁ကြည်နူး":4352,"▁အသီးသီး":4353,"▁ရေခဲသေတ္တာ":4354,"▁မီးဖွားခွင့်":4355,"▁လူမှုရေး":4356,"▁လန်းဆန်း":4357,"▁ပြင်းထန်":4358,"▁မီးပလပ်ပေါက်":4359,"▁အဆူခံ":4360,"▁သပ်သပ်ရပ်ရပ်":4361,"▁ကုလားထိုင်":4362,"▁အပါအဝင်":4363,"▁ဆီးချို":4364,"▁ဝန်ဆောင်ခ":4365,"▁အလွဲသုံးစား":4366,"▁အလျှော့":4367,"▁ဟောပြောပွဲ":4368,"▁သုည":4369,"▁အကန့်အသတ်":4370,"▁စော်ကား":4371,"▁ဒဿမ":4372,"▁အနုပညာ":4373,"▁မသင်ဇာ":4374,"▁ကန်တင်း":4375,"▁ဒက်စ်တော့":4376,"▁အောင်အောင်မြင်မြင်":4377,"▁နှိမ့်ချ":4378,"▁အခိုက်အတန့်":4379,"▁အကြွင်းမဲ့":4380,"▁ပင်ပန်းနွမ်းနယ်":4381,"▁ကေပီအိုင်":4382,"▁မန်မိုရီ":4383,"ညွှန်း":4384,"ပင်း":4385,"ပုန်း":4386,"ဖျ":4387,"ဘတ်":4388,"မချ":4389,"မလွှတ်":4390,"ယီ":4391,"ရစ်":4392,"ရန်း":4393,"ရွား":4394,"ရိပ်":4395,"ရွတ်":4396,"ရစ္ဆာ":4397,"လူး":4398,"လိမ်":4399,"သည့်":4400,"အပ":4401,"အက်စ်":4402,"အတည်း":4403,"▁တလော":4404,"▁မော်":4405,"▁မရှ":4406,"▁မတိုင်":4407,"▁မဟာ":4408,"▁မော်တာ":4409,"▁ကွင်း":4410,"▁ကွမ်း":4411,"ေးဖြေး":4412,"▁ဘား":4413,"▁ဘရန်း":4414,"ပ်အတည်း":4415,"▁စက":4416,"▁စွက်":4417,"▁စသဖြင့်":4418,"▁ချဉ်":4419,"▁ဖြေးဖြေး":4420,"ကြမ္မာ":4421,"▁တစ်ပုံ":4422,"▁ရင်မ":4423,"ပြင်း":4424,"▁ဆိုတော့":4425,"▁ဟိုး":4426,"▁လေးလံ":4427,"▁အတွဲ":4428,"▁အတက်အ":4429,"▁သိက္ခာ":4430,"▁စိတ်ဓါတ်":4431,"▁စိတ်ပင်ပန်း":4432,"▁စိတ်ကျေနပ်":4433,"▁ယုတ်":4434,"▁အမူ":4435,"▁အမဲ":4436,"▁လူလည်":4437,"ိမဖြစ်":4438,"▁ကိုယ်စီ":4439,"▁အားဖြည့်":4440,"▁ကျွန်ုပ်":4441,"▁တိုင်းရင်း":4442,"▁ရေစက်":4443,"▁အပြာ":4444,"▁အပြေး":4445,"▁အိမ်ရှင်":4446,"▁အိမ်ငှား":4447,"▁အိမ်အကူ":4448,"ဆောင်တာ":4449,"▁ခွင့်မလွှတ်":4450,"▁ဈေးဆစ်":4451,"▁ရက်လိ":4452,"▁အကြောင်းကြောင်း":4453,"▁မီးပိတ်":4454,"▁မီးပွိုင့်":4455,"▁ဆေးစာ":4456,"▁ဆေးကြော":4457,"▁အကျပ်အတည်း":4458,"▁မှတ်ဉာဏ်":4459,"▁သောက်သုံး":4460,"▁အရေးအ":4461,"▁အရေးယူ":4462,"▁လုပ်ငန်းဆောင်တာ":4463,"▁ညီမျှ":4464,"▁ကွာရှင်း":4465,"▁ခေါင်းစဉ်":4466,"▁ဆိုးရွား":4467,"▁တိုးတိုး":4468,"▁ပရဟိ":4469,"▁တစ်ခါတည်း":4470,"▁ကံတရား":4471,"▁ကံကြမ္မာ":4472,"▁အလှအပ":4473,"▁အပေါ်ယံ":4474,"▁ပညာတတ်":4475,"▁ကိုးကွယ်":4476,"▁အခြေအတင်":4477,"တ္ထု":4478,"▁အော်သံ":4479,"▁မွေးစား":4480,"▁ဆုချ":4481,"▁အပြစ်ပြော":4482,"▁ခန့်အပ်":4483,"▁ကျော်လွှား":4484,"အသန်":4485,"▁တည်တည်":4486,"▁ကတည်းက":4487,"▁အသိဉာဏ်":4488,"▁အာရုံကြော":4489,"▁မူလ":4490,"▁ပေါက်ဈေး":4491,"▁အချစ်ရေး":4492,"▁အချစ်ဆုံး":4493,"▁ဘေးကင်း":4494,"▁ဆံသား":4495,"▁စိတ်မရှည်":4496,"▁ကျွမ်းကျင်သူ":4497,"သင်ပုန်း":4498,"▁စွပ်":4499,"▁နိုင်ငံခြားသား":4500,"▁အမှတ်ရ":4501,"▁လက်ဖက်ခြောက်":4502,"▁သိမ်းဆည်း":4503,"အဝိုင်း":4504,"▁ဓါး":4505,"▁အသေးအ":4506,"▁တိရစ္ဆာ":4507,"▁သည်းမခံ":4508,"▁ပုဂ္ဂိုလ်":4509,"▁တစ်ရာ့":4510,"▁ဆူညံ":4511,"▁ယာယီ":4512,"▁မက်ဆေ့":4513,"▁တစ်ခါတစ်ရံ":4514,"▁တိုတို":4515,"ရိယာ":4516,"▁ရေခဲရေ":4517,"▁မည်သည့်":4518,"▁စားသောက်ဆိုင်":4519,"▁ဘက်ထရီအိုး":4520,"▁ထုပ်ပိုး":4521,"▁ဗဟို":4522,"▁လေလံပွဲ":4523,"▁ကျောက်သင်ပုန်း":4524,"▁ကျရှုံးမှု":4525,"▁ညွှန်ကြား":4526,"▁အဆိုတော်":4527,"▁မျှတမှု":4528,"▁နှုတ်ခမ်းနီ":4529,"▁ခြားနား":4530,"ရွှေ့":4531,"▁အစုရှယ်ယာရှင်":4532,"▁ဖြစ်တည်မှု":4533,"▁အသိုင်းအဝိုင်း":4534,"▁ယူအမ်မ်ဂျီ":4535,"▁မရှိမဖြစ်":4536,"▁စွက်ဖက်":4537,"▁အတက်အကျ":4538,"▁ပရဟိတ":4539,"▁တိရစ္ဆာန်":4540,"စေ":4541,"စို":4542,"စခန်း":4543,"ဆုတ်":4544,"ညို":4545,"တဲ့":4546,"တို့":4547,"ထုံး":4548,"ဖူ":4549,"ဗ္":4550,"ဗွီ":4551,"ဘောင်":4552,"ဘွဲ့":4553,"ရလဒ်":4554,"ရွံ့":4555,"လွင့်":4556,"ဝင်း":4557,"အန":4558,"အေ":4559,"ိဗ္":4560,"ွန့်":4561,"▁ဪ":4562,"▁တူး":4563,"▁တတိယ":4564,"▁ပွတ်":4565,"▁ပီအ":4566,"▁လင်း":4567,"▁မာန":4568,"▁အယောက်":4569,"▁ကဏ္ဍ":4570,"▁ရထား":4571,"▁နိဗ္":4572,"▁ဘုန်း":4573,"▁ထွေ":4574,"▁ရှမ်း":4575,"ချဉ်":4576,"ို့တဲ့":4577,"▁ချော်":4578,"▁ချို့တဲ့":4579,"ော်အမြင်":4580,"▁တစ်ဦး":4581,"▁တစ်စီး":4582,"▁တစ်ပြား":4583,"▁လုပ်ဆောင်မှု":4584,"▁လုပ်ရိုး":4585,"▁ရင်ဘတ်":4586,"▁လေးထောင်":4587,"ကျပ်":4588,"▁စိတ်ကောင်း":4589,"▁ယခု":4590,"ရှမ်းက":4591,"▁လူပု":4592,"▁နှခု":4593,"▁အားကုန်":4594,"▁စားစား":4595,"▁စာလုပ်":4596,"▁အဆက်":4597,"▁နှစ်ဆ":4598,"▁နှစ်နှစ်":4599,"▁နှစ်သောင်း":4600,"▁သုံးသောင်း":4601,"▁ရုံးသွား":4602,"▁ရေရာ":4603,"▁ရေတင်":4604,"မြက်":4605,"ဆောင်ရွက်":4606,"▁တက်တူး":4607,"▁အစီ":4608,"▁အစုတ်":4609,"▁အထွက်":4610,"▁ဖုန်းအား":4611,"▁ဝင်စား":4612,"▁ခွင့်တောင်း":4613,"▁ထိထိ":4614,"▁ကုန်ဆုံး":4615,"လုပ်စဉ်":4616,"▁လုံးလုံး":4617,"▁သက်သတ်":4618,"▁တင်သွင်း":4619,"ရောက်ရောက်":4620,"▁ညီမလေး":4621,"▁အဖို့":4622,"▁ဆီဖိုး":4623,"▁ခေါင်းမူး":4624,"▁နည်းနည်းပါးပါး":4625,"▁လျှောက်လည်":4626,"▁လျှောက်လှမ်း":4627,"▁ဆိုးဝါး":4628,"▁ကုစား":4629,"▁သင်တန်းကြေး":4630,"▁မိုးမ":4631,"▁မိုးကာ":4632,"▁မိုးရေ":4633,"▁အခြေနေ":4634,"▁အကျိုးရလဒ်":4635,"ပျင်း":4636,"▁ကိစ္စရပ်":4637,"▁စစ်မှန်":4638,"▁အဆင်မပြေမှု":4639,"▁အလှပြင်":4640,"▁ပေါင်းစုံ":4641,"▁သတင်းစာ":4642,"▁မွေးဖွား":4643,"လပ်လပ်":4644,"▁အမေရိ":4645,"▁ယုံကြည်ချက်":4646,"▁ဇွတ်":4647,"▁ရှောင်လွှဲ":4648,"▁တိုင်ပတ်":4649,"▁ငြီး":4650,"▁တရားမဝင်":4651,"▁စီမံချက်":4652,"▁စိတ်ဓာတ်မကျ":4653,"▁ဘောစိ":4654,"▁မင်မင်":4655,"▁ဝါး":4656,"▁ရီဆိုင်း":4657,"▁လွတ်လွတ်":4658,"▁သန့်ရှင်းမှု":4659,"▁ဘွဲ့ရ":4660,"▁ဓာတ်ခဲ":4661,"▁သွေးတိုး":4662,"▁အေးချမ်းမှု":4663,"▁မင်္ဂလာပွဲ":4664,"▁ရင့်ကျက်မှု":4665,"▁အဝတ်လျှော်":4666,"▁မက်မော":4667,"▁အထင်ကြီး":4668,"▁ဖျက်ဆီး":4669,"▁အကြမ်းဖက်":4670,"▁မိတ္တူကူး":4671,"▁နှာစေး":4672,"ဗာန်":4673,"▁ထိုင်းနိုင်ငံ":4674,"▁နုပျို":4675,"▁အသည်းအသန်":4676,"▁အသီးအ":4677,"▁အနှံ့":4678,"▁အထွေထွေ":4679,"▁စင်တာ":4680,"▁တည်ထောင်သူ":4681,"▁နူးညံ့":4682,"▁ပြုတ်ကျ":4683,"▁လူပျိုကြီး":4684,"▁ရှင်းရှင်းလင်းလင်း":4685,"▁အသက်မွေးဝမ်းကျောင်း":4686,"▁မာလာရှမ်းက":4687,"▁ဖေ့စ်ဘုတ်":4688,"▁မောက်စ်":4689,"▁တိုင်းရင်းသား":4690,"▁ပီအေ":4691,"▁နိဗ္ဗာန်":4692,"▁လုပ်ရိုးလုပ်စဉ်":4693,"▁ထိထိရောက်ရောက်":4694,"▁သက်သတ်လွတ်":4695,"▁အမေရိကန်":4696,"▁လွတ်လွတ်လပ်လပ်":4697,"▁မာလာရှမ်းကော":4698,"ကရ":4699,"ခေါင်":4700,"ဂို":4701,"ဂဏန်း":4702,"စွမ်း":4703,"စိမ့်":4704,"ဌာ":4705,"ထက်":4706,"ထွား":4707,"နိမ့်":4708,"နံ့":4709,"ဖွဲ":4710,"ဗဲ":4711,"မေ့":4712,"မထား":4713,"မယား":4714,"ရယ်":4715,"လေ့":4716,"လတီ":4717,"လျောက်":4718,"သော်":4719,"အဆန်း":4720,"ဥာဏ်":4721,"ွပ်":4722,"▁တီး":4723,"▁တွန့်":4724,"▁ပွား":4725,"▁ပလန်":4726,"▁မကောင်း":4727,"▁ပါဆယ်":4728,"▁ပြဌာ":4729,"▁စူ":4730,"▁စောင်း":4731,"▁စနှိုက်":4732,"▁စက္ကူ":4733,"▁ဖခင်":4734,"▁ဆော်":4735,"ုံရင်း":4736,"▁ဖြောင့်":4737,"▁တစ်ည":4738,"▁တစ်စိတ်":4739,"▁လုပ်စား":4740,"▁လုပ်စရာ":4741,"ိတ်အ":4742,"▁ဒဗဲ":4743,"▁ဒုံရင်း":4744,"▁ဖြစ်ထွန်း":4745,"▁လဲကျ":4746,"▁ဝဝ":4747,"▁ဆိုလာ":4748,"▁ကျူး":4749,"▁ငဲ့":4750,"▁ငိုက်":4751,"▁ဟေး":4752,"▁အတက်":4753,"ိုင်းရပ်":4754,"ျားရည်":4755,"▁အခေါက်":4756,"▁အားရ":4757,"▁အားတက်":4758,"ဦးလွင်":4759,"▁လက်ခ":4760,"▁လက်င":4761,"▁လက်တို့":4762,"▁စာကြည့်":4763,"▁ကြည့်ရှု":4764,"▁အချိန်ပြည့်":4765,"▁ကြီးထွား":4766,"▁ယူသွား":4767,"▁ရေဘေး":4768,"▁ရေလောင်း":4769,"▁ခံနိုင်":4770,"မြေ":4771,"မြေ့":4772,"▁အပြုသ":4773,"သားသား":4774,"▁ခြစ်":4775,"▁အပျက်":4776,"▁တစ်ခွန်း":4777,"▁ဗိုင်းရပ်":4778,"▁တကာ":4779,"▁ငွေသွင်း":4780,"▁ဈေးသည်":4781,"▁သဘောရိုး":4782,"▁အရာရောက်":4783,"▁ထက်မြက်":4784,"ရှင်နယ်":4785,"▁ချက်ဘ":4786,"▁မြင်ယောင်":4787,"▁အာလူး":4788,"▁ပြောင်းရွှေ့":4789,"လက်ချ":4790,"လှဲ":4791,"▁ပြင်ဦးလွင်":4792,"▁မိုးတွင်း":4793,"ဂျစ်":4794,"▁ကျောင်းသူ":4795,"▁ရုပ်ရည်":4796,"▁ရုပ်ပိုင်း":4797,"▁လိုင်းကျ":4798,"▁ဂျီ":4799,"▁ဖြတ်တောက်":4800,"▁စိတ်ချလက်ချ":4801,"▁ဟိုတယ်":4802,"▁ရှစ်ရာ":4803,"▁ရှစ်ဆယ်":4804,"▁ကြက်သား":4805,"▁အရှိန်":4806,"▁ရာသီသွေး":4807,"▁အဆင့်ဆင့်":4808,"ဘာသာ":4809,"▁စိတ်မပူ":4810,"▁ပန်းစည်း":4811,"လိပ်စာ":4812,"▁မေတ္တာရပ်":4813,"▁ကပ်စေး":4814,"▁လုပ်ဆောင်ချက်":4815,"▁နေထိုင်မှု":4816,"▁အိမ်ထောင်မပြု":4817,"▁ဓလေ့":4818,"▁အသေးစား":4819,"▁စွန့်စား":4820,"▁ဆပ်ပြာ":4821,"▁အကူညီ":4822,"▁အင်္ဂါ":4823,"▁ခန့်မှန်းချေ":4824,"▁ရှုပ်ထွေး":4825,"▁လွန်ကဲ":4826,"▁အားမပေး":4827,"▁သို့သော်":4828,"▁အရင်းအမြစ်":4829,"▁ကင်းရှင်း":4830,"▁အဝေးကြီး":4831,"▁ဗုဒ္ဓဘာသာ":4832,"▁အောက်ဆီဂျင်အိုး":4833,"▁ကြေကွဲ":4834,"▁မိတ်ဆက်ပွဲ":4835,"▁လှည့်ပတ်":4836,"▁ဝိတ်ချ":4837,"▁ရေခဲမုန့်":4838,"▁အပင်ပန်း":4839,"▁ဧည့်ခံ":4840,"▁ရုတ်သိမ်း":4841,"▁ရေနွေးအိုး":4842,"▁တိုင်ကြားစာ":4843,"▁တီဗီ":4844,"▁တီထွင်":4845,"▁တီဗွီ":4846,"ဆတ်ဆတ်":4847,"▁အုပ်စု":4848,"▁အငယ်ဆုံး":4849,"▁အထောက်အကူပြု":4850,"▁ပေးဆပ်မှု":4851,"▁သတိမထား":4852,"▁စင်ကာပူ":4853,"▁မြတ်နိုး":4854,"▁ရှောက်သီးသုပ်":4855,"▁အကြံပြုချက်":4856,"▁အမြင့်ဆုံး":4857,"▁အခက်ခဲ":4858,"▁ဓါတ်ပုံရိုက်":4859,"▁တွန်းအား":4860,"▁ကြွေးမြီး":4861,"လော့ပါ":4862,"▁လွှင့်ပစ်":4863,"▁လင်မယား":4864,"▁အရေပြား":4865,"▁ညီအစ်ကို":4866,"▁ထုံးစံ":4867,"▁အမာရွတ်":4868,"▁မော်ဒယ်":4869,"▁မဟာဗျူဟာ":4870,"▁ဘုန်းကြီး":4871,"▁အစီရင်":4872,"▁ပြဌာန်း":4873,"▁ဒဗဲလော့ပါ":4874,"▁ခံနိုင်ရည်":4875,"▁အပြုသဘော":4876,"▁ဗိုင်းရပ်စ်":4877,"ကံ":4878,"ခူး":4879,"ခေါက်":4880,"ဂဲ":4881,"စွင့်":4882,"စတန်":4883,"ဆော်":4884,"တုံး":4885,"တောင်":4886,"ထိုင်း":4887,"နံ":4888,"နဲ့":4889,"န္တ":4890,"ဖောင်":4891,"ဖျော်":4892,"မဝ":4893,"မွှ":4894,"မတင်":4895,"မမှန်":4896,"လျင်":4897,"သည်း":4898,"သိပ်":4899,"အလင်း":4900,"ိရိယာ":4901,"ံပေါက်":4902,"▁ဤ":4903,"▁ပွေ":4904,"▁ပိုး":4905,"▁လပြည့်":4906,"▁မန္တ":4907,"▁အင":4908,"▁အမ်း":4909,"က်ကြော":4910,"▁ရရ":4911,"▁ရွတ်":4912,"▁နွေးနွေး":4913,"▁သန်း":4914,"▁ပါစေ":4915,"▁ဘူ":4916,"▁ဘီး":4917,"▁ခမ်း":4918,"▁ပြန့်":4919,"▁စပါး":4920,"▁စတပ်":4921,"▁မှည့်":4922,"▁ဖောင့်":4923,"▁ထံ":4924,"▁ထွန်း":4925,"▁ထာဝ":4926,"ုပ်ကိုင်":4927,"▁ဆုပ်ကိုင်":4928,"▁ကြွ":4929,"ချဲ့":4930,"ချည်":4931,"ချိန်း":4932,"ော်ဖက်":4933,"▁လိုက်လံ":4934,"▁လုပ်သား":4935,"▁ဒူး":4936,"▁ဒံပေါက်":4937,"▁ဝတ္ထု":4938,"▁သွားဝယ်":4939,"▁ဟော့":4940,"ရာရာ":4941,"▁စိတ်ကျ":4942,"▁ယောဂ":4943,"လိုမာ":4944,"▁ပေါများ":4945,"နေမှု":4946,"ရှပ်":4947,"▁အမူး":4948,"▁အမည်း":4949,"▁လူရာ":4950,"▁လူဆိုး":4951,"▁လူနေမှု":4952,"ွေးထည်":4953,"▁နှခါ":4954,"▁နှနှစ်":4955,"ိမိတ်":4956,"▁ကိုယ်ကျင့်":4957,"▁အသေ":4958,"▁အားစိုက်":4959,"▁အားဆေး":4960,"မှုန့်":4961,"▁လက်နက်":4962,"▁လက်လှမ်း":4963,"▁ဦးထုပ်":4964,"▁နှစ်သိန်း":4965,"▁အချိန်ဆွဲ":4966,"ရေးကြေး":4967,"▁ဝယ်တိုက်":4968,"▁နောက်ကွယ်":4969,"▁အိပ်ချိန်":4970,"▁သင့်တင့်":4971,"▁ရေဆေး":4972,"▁ရေစစ်":4973,"▁ရေစို":4974,"▁ခံတွင်း":4975,"▁နားစွင့်":4976,"▁နည်းစနစ်":4977,"ခြစ်":4978,"ခြိုက်":4979,"▁တောင်ကြီး":4980,"ခံစာ":4981,"▁ဂတ်":4982,"▁သေသပ်":4983,"▁စီစစ်":4984,"▁ငွေဈေး":4985,"▁ငွေပေး":4986,"▁ငွေရေးကြေး":4987,"▁ခွင့်တင်":4988,"▁ဆိုင်ပိတ်":4989,"▁ကုန်ကြမ်း":4990,"▁မြန်ဆန်":4991,"▁သဘောတရား":4992,"▁ကြာမြင့်":4993,"▁မျက်စ":4994,"▁အကျအန":4995,"▁ကလေးမွေး":4996,"▁လုပ်ငန်းစဉ်":4997,"▁လမ်းပျောက်":4998,"▁ရောင်းစား":4999,"▁ထုတ်ပြော":5000,"▁ဖြေကြား":5001,"▁ခေါင်းဆောင်မှု":5002,"▁အနွေးထည်":5003,"▁အေးစက်":5004,"▁လျှောက်မ":5005,"▁သားသား":5006,"▁ကြောက်ရွံ့":5007,"▁ပရော်ဖက်":5008,"▁ဆရာသမား":5009,"▁ထမင်းအိုး":5010,"▁မိုးမိ":5011,"▁မိုးသံ":5012,"▁အကျိုးဆက်":5013,"ပျော":5014,"▁ကာစတန်":5015,"▁စာအုပ်ဆိုင်":5016,"▁အမှာ":5017,"▁အလှဆုံး":5018,"▁ပညာသင်":5019,"▁ပြုမူ":5020,"▁သတင်းထောက်":5021,"ရွယ်ရွယ်":5022,"▁ဇင်ဝေ":5023,"▁ဇက်ကြော":5024,"▁ညနေခင်း":5025,"▁အပ်ဒိတ်":5026,"▁အရောင်းဆိုင်":5027,"▁ပေါက်ကွဲ":5028,"▁ဖယ်ရီကဒ်":5029,"▁အရောင်စုံ":5030,"▁စီစဉ်သူ":5031,"နှစ်ဖက်":5032,"▁စိတ်ဝင်စားမှု":5033,"▁ပွဲတော်":5034,"▁ဆံပင်ညှပ်":5035,"▁ဖက်ရှင်":5036,"တံဆိပ်":5037,"▁ဘုရင်":5038,"▁သင်ယူမှု":5039,"▁အိမ်ထောင်ရေး":5040,"▁ချောမွေ့":5041,"▁ပျင်းရိ":5042,"▁ငယ်ငယ်ရွယ်ရွယ်":5043,"▁ရိုးသားမှု":5044,"▁ဒဏ်ကြေး":5045,"▁ဒေါပုံ":5046,"▁ပေမယ့်":5047,"▁နက်နက်":5048,"▁အာမခံချက်":5049,"▁အားမငယ်":5050,"▁အတိအလင်း":5051,"▁ဥပုသ":5052,"▁ရှုံးနိမ့်":5053,"▁လိုင်းကားစီး":5054,"▁မောနင်း":5055,"▁ဝိုင်းဝန်း":5056,"▁ဒီပလိုမာ":5057,"▁ခဲဆံဘူး":5058,"▁လတ်လတ်":5059,"▁မည်သူ":5060,"လုံရေး":5061,"▁ထပ်တူကျ":5062,"▁ဝေဖန်မှု":5063,"▁အငယ်တန်း":5064,"▁သပ်ရပ်":5065,"▁လူမှုဖူ":5066,"▁ခံယူချက်":5067,"▁အရွက်ကြော်":5068,"▁ပို့ဆောင်ခ":5069,"▁သွက်သွက်":5070,"▁မှီခို":5071,"▁ဆန့်ကျင်ဘက်":5072,"▁ခိုင်မာ":5073,"▁စီဘီပေး":5074,"▁ဖွဲ့စည်း":5075,"▁ကြွက်သား":5076,"▁ပြီးပြည့်စုံမှု":5077,"▁စူးစိုက်မှု":5078,"▁မတ်တပ်ရပ်":5079,"▁တမ်းတ":5080,"▁ကြံစည်":5081,"▁ကြွေးမြီ":5082,"▁ဗေဒင်ဆရာ":5083,"▁ထုံထိုင်း":5084,"▁ကိုယ်စားလှယ်":5085,"▁ရောင့်ရဲ":5086,"▁နှောင့်နှေး":5087,"▁ဆိုက်ကား":5088,"▁ငှက်ပျော":5089,"▁နှစ်ဦးနှစ်ဖက်":5090,"▁မီးပူတိုက်":5091,"▁ယုတ်မာ":5092,"▁မိုးမရွာ":5093,"▁လက်ငင်း":5094,"▁မန္တလေး":5095,"▁စတပ်ဖ်":5096,"▁ထာဝရ":5097,"▁ငွေရေးကြေးရေး":5098,"▁ပရော်ဖက်ရှင်နယ်":5099,"▁ကာစတန်မာ":5100,"▁ဥပုသ်":5101,"▁လတ်လတ်ဆတ်ဆတ်":5102,"▁လူမှုဖူလုံရေး":5103,"ကန်း":5104,"ကွင်း":5105,"ခပ်":5106,"ခုံး":5107,"စိန်":5108,"စွန်း":5109,"ဆိုက်":5110,"ဇန်တေးရှင်း":5111,"ဋိ":5112,"တွေး":5113,"တလုံး":5114,"ဒု":5115,"ဒို":5116,"ဘဏ်":5117,"ရဆုံး":5118,"လု":5119,"သဘော":5120,"အမ်း":5121,"အိပ်":5122,"အမှန်":5123,"အဆီး":5124,"ဩဇာ":5125,"ုပ္":5126,"▁တုတ်":5127,"▁တွယ်":5128,"▁ပိ":5129,"▁ပစ္စ":5130,"▁လျ":5131,"▁အညို":5132,"▁ကိန်း":5133,"ယ်ဇန်တေးရှင်း":5134,"ားအဆီး":5135,"▁နီ":5136,"▁နော့":5137,"▁နဂို":5138,"▁သဲ":5139,"▁ပြစ်":5140,"▁လိုချင်":5141,"▁စမူ":5142,"▁စမြဲ":5143,"▁ဖော":5144,"▁နေရပ်":5145,"▁ထို":5146,"▁ဆွေ":5147,"ချောင်":5148,"▁ပေးပို့":5149,"▁သူတော်":5150,"▁တစ်ထောင့်":5151,"▁လိုက်ဖက်":5152,"▁လိုက်လျ":5153,"▁ရင်ပြည့်":5154,"▁ဒင်း":5155,"▁ဘယ်တော့":5156,"▁လာကြို":5157,"▁ဝီ":5158,"▁ဆိုရှယ်":5159,"▁ကျရောက်":5160,"▁ငပျင်း":5161,"▁ဟန်း":5162,"▁ပြောရေး":5163,"▁လေသံ":5164,"▁အတားအဆီး":5165,"▁သိမြင်":5166,"▁စိတ်ဒဏ်":5167,"▁စိတ်ဒု":5168,"▁အမ်":5169,"▁လူလိမ်":5170,"▁ကိုယ်လက်":5171,"▁အချော":5172,"မှုန်":5173,"▁လက်လွှတ်":5174,"▁လက်ဘက်":5175,"▁မျောက်":5176,"▁ပျံ့":5177,"▁အချိန်ပေး":5178,"▁တိုင်းပြည်":5179,"▁တိုင်းဒေသ":5180,"နှိပ်":5181,"▁အိမ်စာ":5182,"▁အိမ်စီး":5183,"▁အိမ်မက်":5184,"▁ခြုံ":5185,"▁အပေး":5186,"▁တစ်ခေါက်":5187,"▁ဗလာ":5188,"▁ဂိုက်":5189,"▁အမြော်အမြင်":5190,"▁အစိတ်အ":5191,"▁အထား":5192,"▁ဖုန်းကိုင်":5193,"▁ဆက်လျှောက်":5194,"▁ဝင်ခွင့်":5195,"▁သာဓ":5196,"▁အဆင်ပြေပြေ":5197,"▁ဆိုင်ရှင်":5198,"လုပ်ငန်း":5199,"▁မီးဖိုး":5200,"▁မီးဖို":5201,"▁ထွက်ငွေ":5202,"▁အဖက်":5203,"▁အဖေါ်":5204,"▁ကွာလတီ":5205,"▁ထည့်ရေး":5206,"လှုပ်":5207,"ပါးရ":5208,"▁ဖွင့်ဆို":5209,"▁ပရယ်ဇန်တေးရှင်း":5210,"ဆိုခွင့်":5211,"▁ရှင်းတမ်း":5212,"▁အောက်ဆုံး":5213,"▁အောက်ဆင်း":5214,"အေးအေး":5215,"▁မေ့ကျန်":5216,"▁မီဒီယာ":5217,"▁မုန့်စား":5218,"ထူးထူး":5219,"▁တန်ဖိုးကြီး":5220,"▁အသံဖိုင်":5221,"▁တိုက်ခိုက်":5222,"▁ကိုးရီးယား":5223,"▁ဘာသာရေး":5224,"▁ကျော်ကြား":5225,"▁တည်မြဲ":5226,"▁ဇာ":5227,"▁သတ်သတ်":5228,"▁ဆွဲခြင်း":5229,"▁ခေတ်စား":5230,"▁မူပိုင်ခွင့်":5231,"▁ပေါက်ပေါက်":5232,"▁ပေါက်ကရ":5233,"▁မိသားစုဝင်":5234,"▁တစ်နေ့တာ":5235,"▁စိတ်မပါ":5236,"▁တွဲလုပ်":5237,"▁မြန်မြန်ဆန်":5238,"▁ပြတ်ပြတ်":5239,"▁အိပ်ရေးမဝ":5240,"▁အဖြေရှာ":5241,"▁ဒုက္ခပေး":5242,"▁မေးခွန်းထုတ်":5243,"▁သနားစရာ":5244,"▁စွန့်ဦး":5245,"▁လိမ်လည်":5246,"▁ဇာတ်သိမ်း":5247,"▁အမှိုက်ကား":5248,"▁မြင့်တက်":5249,"▁စေတနာ့":5250,"▁သွေးတက်":5251,"▁ကွဲလွဲ":5252,"▁အမြင်ကပ်":5253,"▁ဗီဇ":5254,"▁စိုက်ထုတ်":5255,"▁ထိုက်သင့်":5256,"စ်စမတ်":5257,"▁ဆုံတွေ့":5258,"ငြိမ်ငြိမ်":5259,"▁နောင်တမရ":5260,"▁အကြာကြီး":5261,"▁အထင်မ":5262,"▁ဝိုင်းကူ":5263,"▁ဖိတ်စာ":5264,"လူကြီး":5265,"▁ဝိတ်ကျ":5266,"▁အက်ပ်":5267,"▁အသင့်ဖျော်":5268,"ရိတ္တ":5269,"▁စာရေးဆရာ":5270,"▁တီချယ်":5271,"▁တစ်စုံတစ်ခု":5272,"▁အစစ်အမှန်":5273,"▁အစာအိမ်ရောဂါ":5274,"▁လွတ်လပ်မှု":5275,"▁အသင်းသား":5276,"▁သတိမရ":5277,"▁ခေါင်းလျှော်ရည်":5278,"▁ချန်နယ်":5279,"ပုရာ":5280,"▁အသိပေးချက်":5281,"တကွ":5282,"▁အလှကုန်ပစ္စည်း":5283,"▁ကောက်ခံငွေ":5284,"▁ကန့်သတ်ချက်":5285,"▁အက်စ်အေ":5286,"▁တစ်ချိန်ချိန်":5287,"▁စူးစမ်း":5288,"▁ပုံသေနည်း":5289,"▁စိန်တလုံး":5290,"▁သရဲခြောက်":5291,"▁စွဲလမ်း":5292,"▁ဖြန့်ချီ":5293,"▁အလုံးစုံ":5294,"▁သံသရာ":5295,"▁အပျင်းပြေ":5296,"▁လိမ္မော်":5297,"▁စုတ်ပြတ်":5298,"▁လျှို့ဝှက်ချက်":5299,"▁အနက်ရောင်":5300,"▁အနီရောင်":5301,"ထွေထူးထူး":5302,"လျူ":5303,"▁ပေါင်မုန့်":5304,"▁ပြုံးပြုံး":5305,"▁တစ်ရေးနိုး":5306,"▁ငရုတ်သီး":5307,"▁ခရစ်စမတ်":5308,"▁အဝါရောင်":5309,"▁ကွင်းဆင်း":5310,"▁ရင်မဆိုင်":5311,"▁ရက်လိဇ်":5312,"▁တည်တည်ငြိမ်ငြိမ်":5313,"▁ထွေထွေထူးထူး":5314,"▁ချော်လဲ":5315,"▁ကျူးလွန်":5316,"▁အားရပါးရ":5317,"ဂျစ်တယ်":5318,"▁အစီရင်ခံစာ":5319,"▁အပြုသဘောဆောင်":5320,"မွှား":5321,"▁ဟော့ပေါ့":5322,"▁မျက်စိမ":5323,"ုပ္ပန်":5324,"▁ပစ္စုပ္ပန်":5325,"▁ကိန်းဂဏန်း":5326,"▁စမူဆာ":5327,"▁သူတော်ကောင်း":5328,"▁လိုက်လျော":5329,"▁ပြောရေးဆိုခွင့်":5330,"▁စိတ်ဒဏ်ရာ":5331,"▁စိတ်ဒုက္ခ":5332,"▁လက်ဘက်ရည်":5333,"▁တိုင်းဒေသကြီး":5334,"▁အိမ်စီးကား":5335,"▁အစိတ်အပိုင်း":5336,"▁မြန်မြန်ဆန်ဆန်":5337,"ခွေ":5338,"စဲ":5339,"စိပ်":5340,"ဇော်":5341,"ညွှ":5342,"တုံ":5343,"တန်တ":5344,"ထစ်":5345,"ထောင်း":5346,"ထမင်း":5347,"နို့":5348,"နဦး":5349,"ပက္ခ":5350,"ဖျား":5351,"ဖွယ်":5352,"ဘု":5353,"ဘွတ်":5354,"မွေ":5355,"မိုင်":5356,"ရူး":5357,"ရိုင်":5358,"ရွေး":5359,"လခ":5360,"လိန်း":5361,"သွေ့":5362,"အန်":5363,"အရင်း":5364,"အပါး":5365,"ူဘိုင်း":5366,"ူဂဲ":5367,"္ကာပူ":5368,"▁ပဋိ":5369,"▁လော့":5370,"▁မိုင်":5371,"▁မလို":5372,"▁အီ":5373,"▁အုန်း":5374,"▁ကန်း":5375,"▁ကနဦး":5376,"▁ရိပ်":5377,"▁ရတနာ":5378,"▁နပ်":5379,"▁နတ်":5380,"▁နွား":5381,"▁သနပ်":5382,"▁ပါကင်":5383,"▁ဘောက်":5384,"▁ဘလော့":5385,"▁ခင်း":5386,"▁ခူး":5387,"စ်လျူ":5388,"▁ပြတင်း":5389,"▁စွတ်":5390,"▁စရိုက်":5391,"▁တာမွေ":5392,"▁မှင်":5393,"▁ဖန်":5394,"▁ဖိုက်":5395,"▁ဖုန်":5396,"▁ဖရုံ":5397,"▁ထောင့်":5398,"▁ဆုတ်":5399,"▁ဆွေး":5400,"▁ဆံ့":5401,"▁ချွန်":5402,"ကြယ်":5403,"ကြောက်":5404,"▁သူနာ":5405,"▁သူစိမ်း":5406,"မ်းမိုး":5407,"▁တစ်နည်း":5408,"▁တစ်လက်":5409,"▁တစ်ပါး":5410,"▁တစ်ပြိုင်":5411,"▁လုပ်ရည်":5412,"▁ရင်ခွင်":5413,"▁ဒွန်":5414,"▁ဒူဘိုင်း":5415,"▁ဖြစ်ပွား":5416,"▁ဖြစ်ပျက်":5417,"▁အလယ်":5418,"▁အလုံ":5419,"▁အလိမ်":5420,"▁ပြီးစီး":5421,"▁သွားစား":5422,"▁ကျိန်":5423,"▁ကျုံ့":5424,"▁အရူး":5425,"▁ငေး":5426,"▁ငလျင်":5427,"▁လေထု":5428,"ကျည်း":5429,"▁အတို":5430,"▁စိတ်နာ":5431,"▁စိတ်ပျော်":5432,"▁ယို":5433,"▁အမိုက်":5434,"▁လူဦး":5435,"▁လူထု":5436,"▁လူယုတ်":5437,"▁အောင်သွယ်":5438,"▁နှပ်":5439,"▁ကိုယ်ကျိုး":5440,"▁လက်ရေး":5441,"▁လက်ချည်":5442,"▁မျဉ်း":5443,"▁အဆုတ်":5444,"▁ညား":5445,"▁မြင်း":5446,"▁မြစ်":5447,"▁မြွေ":5448,"▁အချိန်မ":5449,"▁သုံးသိန်း":5450,"▁ဝယ်လာ":5451,"▁ယူဆောင်":5452,"▁အကာ":5453,"▁ရေဆာ":5454,"▁ရေတွင်း":5455,"▁ရေခပ်":5456,"▁အပြတ်":5457,"▁နားပူ":5458,"▁နားကြပ်":5459,"▁သင်ဇာ":5460,"▁အပိတ်":5461,"▁အပေါ့":5462,"▁လှုံ့":5463,"ခြိမ်း":5464,"▁တက်တက်":5465,"▁တက်လမ်း":5466,"▁တက်စီ":5467,"▁ဗွီ":5468,"▁ဂူဂဲ":5469,"▁အစပိုင်း":5470,"▁အထပ်":5471,"▁ရာနှုန်း":5472,"▁ဝင်လာ":5473,"▁ဝန်ကြီး":5474,"▁ဘဝင်":5475,"ပေးပွဲ":5476,"▁အကြောင်းတရား":5477,"▁ထွက်လာ":5478,"▁သက်တ":5479,"▁သက်လုံ":5480,"▁တင်ဆက်":5481,"▁သဘောမ":5482,"အပ်ဆုံး":5483,"▁ကားခ":5484,"▁သောက်ရေ":5485,"▁ခံစားမှု":5486,"ရင်းနှီး":5487,"▁ချက်ကျွေး":5488,"▁ပြောင်းပြန်":5489,"▁အခြောက်":5490,"လက်ဆောင်":5491,"▁အနိမ့်":5492,"▁အေးမြ":5493,"▁သားနား":5494,"▁တွေးခေါ်":5495,"▁စောင့်မျှ":5496,"▁အသစ်အဆန်း":5497,"▁အောက်ပါ":5498,"▁မိုးခြိမ်း":5499,"▁အကျိုးပြု":5500,"▁ပျက်ဆီး":5501,"▁ကာယ":5502,"▁အတူတကွ":5503,"▁လေ့လာမှု":5504,"▁လေ့လာသူ":5505,"ကိုင်ရည်":5506,"▁ပူပန်":5507,"▁ရန်လို":5508,"▁ကိုးဆယ့်":5509,"တီထွင်":5510,"▁အစားစား":5511,"▁ပျောက်ဆေး":5512,"▁ပျောက်ကွယ်":5513,"▁ထိုင်စား":5514,"▁ထိုင်ကြည့်":5515,"▁ထိုင်စောင့်":5516,"▁ဆုပေးပွဲ":5517,"▁အပြစ်မတင်":5518,"▁လွှမ်းမိုး":5519,"▁တည်တံ့":5520,"▁ဇယား":5521,"▁မေလ":5522,"▁အသိမှတ်ပြု":5523,"▁ခြောက်သွေ့":5524,"▁ဖယ်ရှား":5525,"▁ငြင်းပ":5526,"▁တရားစခန်း":5527,"▁ဆယ်စု":5528,"▁ဆယ်သိန်း":5529,"▁ဆယ်ကျော်":5530,"▁နီးကပ်":5531,"▁မူကြို":5532,"▁ရဲရင့်":5533,"▁ရှစ်ဆယ့်":5534,"▁ပေါက်ကြား":5535,"▁ဗိုက်ပြည့်":5536,"▁အလိုအပ်ဆုံး":5537,"▁အကြံဥာဏ်":5538,"▁စွမ်းအင်":5539,"▁စိတ်မကြည်":5540,"▁ရီဗျူး":5541,"▁ကျေနပ်မှု":5542,"▁သံပုရာ":5543,"ပြည်သူ":5544,"▁အလေးမထား":5545,"▁မျက်မှန်တပ်":5546,"▁စားပွဲထိုး":5547,"▁ဓမ္မ":5548,"▁ပုစ္ဆာ":5549,"▁လိပ်ပြာ":5550,"▁ခြေသုတ်":5551,"▁ရှည်ရှည်":5552,"▁ချုပ်ဆို":5553,"▁အပြောမခံ":5554,"▁အထက်လူကြီး":5555,"မားဆုံး":5556,"▁ကစားသမား":5557,"▁အားမရ":5558,"▁အားမကိုး":5559,"▁လွှဲပြောင်း":5560,"▁ဒေါသကြီး":5561,"▁နိုးထ":5562,"▁စီဗီဖောင်":5563,"▁နှိပ်စက်":5564,"▁မျက်စိနောက်":5565,"▁ဆန်းသစ်":5566,"▁လက်ဖက်ရည်ဆိုင်":5567,"▁ဘောနပ်စ်ကြေး":5568,"▁ကြက်ဥကြော်":5569,"▁အရှုံးမပေး":5570,"▁မိတ္တူဆွဲ":5571,"▁ဝိတ်လျှော့":5572,"▁တားဆီး":5573,"ထွေးထွေး":5574,"▁နှလုံးသွင်း":5575,"▁ကြည်ကြည်":5576,"▁သင်္ကာ":5577,"▁ထိန်းချုပ်မှု":5578,"▁ခွင့်တိုင်ကြား":5579,"▁ဧည့်ကြို":5580,"▁အသံသွင်းခန်း":5581,"▁ကြမ်းတမ်း":5582,"▁စတစ်ခ်":5583,"▁စားသောက်ကုန်":5584,"▁ခြင်ဆေး":5585,"▁အုပ်ချုပ်":5586,"▁မြေဩဇာ":5587,"▁လက်တွဲဖော်":5588,"▁မျက်ရည်ကျ":5589,"▁စင်္ကာပူ":5590,"▁လန့်ရှ်":5591,"▁ငြိမ်းအေး":5592,"▁ဆောင်းတွင်း":5593,"ခမ်းနား":5594,"▁သစ္စာရှိ":5595,"▁လိင်":5596,"▁ပူးပေါင်းဆောင်ရွက်":5597,"▁အပျော်အပါး":5598,"▁စောင့်ရှောက်မှု":5599,"▁အလုံးအရင်း":5600,"▁ရှောင်တခင်ခွင့်":5601,"▁ပန်းကန်ဆေး":5602,"▁ဓာတ်ပုံရိုက်":5603,"အင်္ကျီ":5604,"▁တွေ့ဆုံပွဲ":5605,"ဂျီအန်":5606,"▁ကတ်ကြေး":5607,"▁ချိုသာ":5608,"▁ကော်ပီကူး":5609,"▁ဒေါက်တာဘွဲ့":5610,"▁ကမ်းခြေ":5611,"▁ကမ်းလှမ်း":5612,"▁ဘောင်ချာ":5613,"▁တောင့်ခံ":5614,"▁စေ့စပ်":5615,"▁ရောင့်တက်":5616,"▁ဖုံးကွယ်":5617,"▁ဝပ်ဘ်ဆိုက်":5618,"▁နှောင့်ယှက်":5619,"▁ကြိုက်နှစ်သက်ရာ":5620,"▁တောက်ပ":5621,"▁နုတ်ထွက်":5622,"▁အမိန့်":5623,"▁ဂါဝန်":5624,"ဖျင်း":5625,"▁စကရင်":5626,"▁စွပ်စွဲ":5627,"▁အသေးအမွှား":5628,"▁ခြားနားချက်":5629,"▁အဆက်မပြတ်":5630,"▁စူပါ":5631,"▁လပြည့်နေ့":5632,"▁နွေးနွေးထွေးထွေး":5633,"▁လူရာဝင်":5634,"▁ကိုယ်ကျင့်တရား":5635,"▁ငွေပေးချေ":5636,"▁လျစ်လျူ":5637,"▁သာဓု":5638,"▁မီးဖိုချောင်":5639,"▁ပြတ်ပြတ်သားသား":5640,"▁စွန့်ဦးတီထွင်":5641,"▁အထင်မသေး":5642,"ရိုင်ဘာ":5643,"▁ပဋိပက္ခ":5644,"▁သနပ်ခါး":5645,"▁ပြတင်းပေါက်":5646,"▁သူနာပြု":5647,"▁လုပ်ရည်ကိုင်ရည်":5648,"▁ဒွန်တွဲ":5649,"▁လူဦးရေ":5650,"▁လူယုတ်မာ":5651,"▁လှုံ့ဆော်":5652,"▁ဗွီဒီယို":5653,"▁စောင့်မျှော်":5654,"▁ငြင်းပယ်":5655,"▁ဆယ်ကျော်သက်":5656,"▁ခြေသုတ်ခုံ":5657,"ကီ":5658,"ကုန်း":5659,"ကေးရှင်း":5660,"ကိရိယာ":5661,"ခွ":5662,"ခက်":5663,"ခရီး":5664,"ခနဲ":5665,"ငါး":5666,"စတစ်":5667,"ဆူ":5668,"ဇင်":5669,"တေး":5670,"တုန်":5671,"နု":5672,"ပလာ":5673,"ဖာ":5674,"ဖယ်":5675,"ဖေး":5676,"ဖုံး":5677,"ဘဝ":5678,"ဘောဂ":5679,"မိတ်":5680,"ယစ်":5681,"ယျာ":5682,"ရမ်း":5683,"ရည်းစား":5684,"လစာ":5685,"လိမ်း":5686,"လကာ":5687,"သိမ":5688,"သရေ":5689,"အမှတ်":5690,"အကွယ်":5691,"အတင့်":5692,"ာပြေ":5693,"ိယ":5694,"ှါး":5695,"▁တိမ်":5696,"▁တဖြေး":5697,"▁ပက်":5698,"▁ပေ့":5699,"▁ပျားရည်":5700,"ိုသိပ်":5701,"▁လပတ်":5702,"▁မည်း":5703,"▁မန့်":5704,"▁မဟုတ်":5705,"▁မကွေး":5706,"▁ကွေ့":5707,"▁ရံ":5708,"▁ရခိုင်":5709,"▁နဖူး":5710,"▁သုတ်":5711,"▁သခင်":5712,"▁သဖြင့်":5713,"န်ကောက်":5714,"▁ဘယ့်":5715,"▁ဘူတာ":5716,"▁ဘန်ကောက်":5717,"▁ခွာ":5718,"▁ပြပွဲ":5719,"▁စစ":5720,"▁စတာ":5721,"▁စတော့":5722,"▁မှိတ်":5723,"▁ဖင်":5724,"▁နေထွက်":5725,"▁နေစရိတ်":5726,"▁ထထ":5727,"▁ထောင်း":5728,"▁ထွင်":5729,"▁ဆိတ်":5730,"▁ကြိမ်း":5731,"ိုင်နာ":5732,"▁ချူ":5733,"▁သူတောင်း":5734,"▁တစ်ထပ်":5735,"▁တစ်ရံ":5736,"▁လိုက်စား":5737,"▁လုပ်ပုံ":5738,"▁လုပ်ပိုင်ခွင့်":5739,"▁ဘယ်ဘက်":5740,"▁အလော":5741,"▁အလွမ်း":5742,"▁ဆိုပြ":5743,"▁သွားနာ":5744,"▁သွားလည်":5745,"▁သွားတက်":5746,"▁သွားစရာ":5747,"▁ဟဲ့":5748,"▁အလုပ်လက်":5749,"▁ဒီလောက်":5750,"▁စိတ်ပုပ်":5751,"▁စိတ်သဘော":5752,"▁ယုန်":5753,"▁ယတိ":5754,"▁လူပါး":5755,"▁လူစိတ်":5756,"▁အောင်ပွဲ":5757,"▁နှယ်":5758,"▁ပြန်သွား":5759,"▁ပြန်ပြန်":5760,"▁ပြန်အမ်း":5761,"▁အခကြေးငွေ":5762,"▁လက်တစ်":5763,"▁စာရိုက်":5764,"▁အဆောက်အ":5765,"▁အဆာပြေ":5766,"ဖြုတ်":5767,"ဖြုန်း":5768,"▁ညို":5769,"▁ညခင်း":5770,"▁မြောင်း":5771,"▁ပျံ":5772,"▁များကြီး":5773,"▁အကြော်":5774,"တော်ကြီး":5775,"▁ဝယ်စု":5776,"▁နောက်ပြန်":5777,"▁ယူအမ်":5778,"နှဲ":5779,"▁အကယ်":5780,"မြူ":5781,"နက်နက်":5782,"▁အိမ်ရာ":5783,"▁အိမ်မပြန်":5784,"▁ပိုပို":5785,"▁အပိုင်":5786,"▁အပလီ":5787,"မာမာ":5788,"▁တောင်တက်":5789,"▁ဗောက်":5790,"▁ဂီ":5791,"▁အများပြည်သူ":5792,"▁အစဉ်":5793,"▁အစပြု":5794,"▁အထိုင်":5795,"▁အထိမ်း":5796,"▁အထိုက်အ":5797,"▁ဖုန်းဝင်":5798,"▁ဖုန်းပြော":5799,"▁ကြိုက်ကြိုက်":5800,"▁ငွေဝင်":5801,"▁ငွေစာရင်း":5802,"▁မျိုးဆက်":5803,"▁သတ္တ":5804,"▁မေးမေး":5805,"▁မေးစရာ":5806,"▁ကြိုးမဲ့":5807,"▁ပုံနှိပ်":5808,"▁ရက်ရက်":5809,"▁ပိုက်ဆံချေး":5810,"▁တော်ရုံ":5811,"▁ထွက်ကျ":5812,"▁ကားလက်မှတ်":5813,"▁အကျဉ်း":5814,"▁မှတ်ယူ":5815,"▁ကလေးထိန်း":5816,"▁လမ်းစ":5817,"▁လမ်းပြ":5818,"▁ကျေးဇူးဆပ်":5819,"▁အဖုံး":5820,"▁ပို့ချ":5821,"▁တန်ခိုး":5822,"▁တူမ":5823,"▁တာဝန်မ":5824,"▁ငါးသိန်း":5825,"▁ဗျူဟာ":5826,"ဆက်မပြတ်":5827,"▁ဆီချက်":5828,"▁ဆီဈေး":5829,"▁အနစ်နာ":5830,"လှူ":5831,"▁တွေးတော":5832,"▁တိုးပွား":5833,"▁ဖွင့်ပြော":5834,"▁ကုတင်":5835,"▁လွယ်အိတ်":5836,"▁စောင့်ထိန်း":5837,"▁စောင့်ဆိုင်း":5838,"▁အကောင်းစား":5839,"မ်ဒီ":5840,"▁ဝမ်းချုပ်":5841,"▁ထမင်းဆိုင်":5842,"▁ထမင်းကြော်":5843,"▁သင်တန်းဆင်း":5844,"▁အောက်ကျ":5845,"နစ်နာ":5846,"▁အသုံးမကျ":5847,"▁မေ့မေ့":5848,"▁မုန့်ကျွေး":5849,"▁အောင်မြင်သူ":5850,"▁ပစ္စည်းပို့":5851,"▁စစ်စစ်":5852,"▁အမှောင်":5853,"▁ကံထူး":5854,"▁အလှတရား":5855,"▁ပေါင်းဖက်":5856,"▁ပညာအရည်":5857,"▁ခွဲယူ":5858,"▁ကိုးဆယ်":5859,"တီအမ်မ်":5860,"▁ရပ်ဝန်း":5861,"တစ်ယောက်":5862,"▁ကော်မ":5863,"▁အော်ပြော":5864,"▁မွေးမြူ":5865,"▁မျက်နှာသစ်":5866,"▁ဆုကြေးငွေ":5867,"▁အတွင်းကျကျ":5868,"▁အေတီအမ်မ်":5869,"▁ဇီ":5870,"▁ဇီး":5871,"▁ရှေ့လျှောက်":5872,"▁အသိတရား":5873,"ဆင်ဂျာ":5874,"▁ထူးထူး":5875,"သီလ":5876,"▁ဖြတ်ကျော်":5877,"▁ဆွဲချ":5878,"▁ခေတ်ကာလ":5879,"▁အကြွေးကျေ":5880,"▁အဲဒီ့":5881,"▁ကော်ဖီဆိုင်":5882,"▁အရှုပ်":5883,"▁သီလ":5884,"▁အလိုလိုက်":5885,"▁သစ်ပင်":5886,"▁အတွေ့ကြုံ":5887,"▁မူးယစ်":5888,"▁ဥယျာ":5889,"▁ဖက်တွယ်":5890,"▁မေတ္တာတရား":5891,"▁လုံလုံ":5892,"▁ဘွဲ့လွန်":5893,"▁စွံ":5894,"▁အကြီးမားဆုံး":5895,"ချမ်းချမ်း":5896,"▁သမီးရည်းစား":5897,"▁ဖော်ဆောင်":5898,"▁သံရုံး":5899,"▁ဌာနခွဲ":5900,"▁တင်းကျပ်":5901,"ပြားပြား":5902,"▁ရောဂါပိုး":5903,"▁ကောက်ယူ":5904,"▁ဓာတ်အား":5905,"▁အိမ်ထောင်ဖက်":5906,"▁အရည်အချင်းစစ်":5907,"▁အိုမင်း":5908,"▁ချောင်းသာ":5909,"▁ပုတီး":5910,"▁ဒဏ်ရိုက်":5911,"▁အပူအ":5912,"▁လွယ်ကူစွာ":5913,"▁ချုပ်ချယ်":5914,"▁အေးအေးလူ":5915,"▁အတင်းပြော":5916,"▁လွှဲအပ်":5917,"▁လှမ်းပြော":5918,"▁ပြည့်စုံမှု":5919,"▁ကန်ဘောင်":5920,"▁ကင်းကင်း":5921,"▁အဝေးမှုန်":5922,"▁သက်တမ်းတိုး":5923,"▁ဘေဘီ":5924,"▁မက်ဆင်ဂျာ":5925,"▁ဆန်းဆန်း":5926,"▁ကျယ်ကျယ်":5927,"▁အထင်လွဲ":5928,"▁ပျက်စီးမှု":5929,"▁ကြက်ဥပြုတ်":5930,"▁ပြိုင်ဘက်":5931,"ဘက်ခါ":5932,"▁ဝိတ်တာ":5933,"▁ဝိတ်တက်":5934,"▁တားမြစ်":5935,"▁ဒီဇိုင်နာ":5936,"▁အသင့်အတင့်":5937,"ရိယ":5938,"▁နစ်နာသူ":5939,"▁သင်္ဘော":5940,"▁စဉ်ဆက်မပြတ်":5941,"▁စာရေးကိရိယာ":5942,"▁ကွန့်":5943,"▁ထိပ်ဆုံး":5944,"▁ချီးမြှင့်":5945,"▁ရုပ်ရှင်ရုံ":5946,"▁လျော့ဈေး":5947,"▁လျော့ပါး":5948,"▁သန်ဘက်ခါ":5949,"▁ဥက္ကဌ":5950,"▁ဥက္ကလာ":5951,"▁ရှောက်ယို":5952,"▁လက်ထပ်ခွင့်":5953,"▁ကုသမှု":5954,"▁ပီသ":5955,"▁ညာပြော":5956,"▁ဖောင်းပွနှုန်း":5957,"▁ပူးတွဲ":5958,"▁လုပ်ခလစာ":5959,"န္ဒိယ":5960,"▁လေယာဉ်မယ်":5961,"▁ဝဋ်လည်":5962,"▁ဈေးဝယ်သူ":5963,"▁ထောက်ပံ့ကြေး":5964,"▁ငွေလွှဲခ":5965,"▁သဘောတူညီမှု":5966,"▁အကျိုးအကြောင်း":5967,"▁အိုတီပီ":5968,"▁ပြင်းပြ":5969,"ရောရော":5970,"▁အပ်ပ်ဒိတ်တ်":5971,"▁တုံ့ပြန်မှု":5972,"▁ကြပ်တည်း":5973,"▁ချွေးမ":5974,"▁ချွေးထွက်":5975,"▁စီဘီဘဏ်":5976,"▁နီးစပ်ရာ":5977,"▁ဖေးမမှု":5978,"▁ဘေလ်ဖိုး":5979,"▁အခက်ဆုံး":5980,"▁မွှေ":5981,"▁ရိုင်းပင်း":5982,"▁သကြားဓာတ်":5983,"▁ချောင်ထိုး":5984,"▁ပရိဘောဂ":5985,"▁လျော်ကြေး":5986,"▁ချိုချို":5987,"▁ဒေါင်းလု":5988,"▁ကြက်ခြေထောက်ထောင်း":5989,"▁ကယ်တင်":5990,"▁ပျော့ညံ့":5991,"▁ဖြုန်းတီး":5992,"▁အရှိဆုံး":5993,"▁တောင့်တ":5994,"▁ငရဲကြီး":5995,"▁စေ့စေ့":5996,"▁နိမ့်ကျ":5997,"▁ရိုသေ":5998,"▁အစွမ်းကုန်":5999,"▁အငြင်းပွား":6000,"▁အိန္ဒိယ":6001,"▁ချမ်းမြေ့":6002,"▁အလုပ်ခေါ်စာ":6003,"▁ကြက်သွန်ဖြူ":6004,"▁အယ်ရာ":6005,"ရှိုင်းရှိုင်း":6006,"▁ဦးလေးကြီး":6007,"▁အစိမ်းရောင်":6008,"▁အဖတ်တင်":6009,"▁ဆီးချိုရောဂါ":6010,"▁အလျှော့ပေး":6011,"▁စိတ်ကျေနပ်မှု":6012,"▁အမူအကျင့်":6013,"▁တစ်ဦးတစ်ယောက်":6014,"▁လူပုဂ္ဂိုလ်":6015,"▁အသီးအပွင့်":6016,"▁တွန့်ဆုတ်":6017,"▁စနှိုက်ကြော်":6018,"▁စာကြည့်တိုက်":6019,"▁မေတ္တာရပ်ခံ":6020,"▁ကပ်စေးနှဲ":6021,"▁ဗုဒ္ဓဘာသာဝင်":6022,"▁လက်လှမ်းမီ":6023,"▁ပညာသင်ဆု":6024,"▁နက်နက်ရှိုင်းရှိုင်း":6025,"▁ငှက်ပျောသီး":6026,"▁ဆွေမျိုး":6027,"▁ဝီရိယ":6028,"▁အမ်မ်ဒီ":6029,"▁ကွဲလွဲမှု":6030,"▁မျက်စိမနောက်":6031,"▁လက်ဘက်ရည်ဆိုင်":6032,"▁တစ်ပါးသူ":6033,"▁ယိုယွင်း":6034,"▁အမိုက်စား":6035,"▁အကာအကွယ်":6036,"▁ရာနှုန်းပြည့်":6037,"▁သက်တောင့်သက်သာ":6038,"▁အနိမ့်ဆုံး":6039,"▁ဆယ်စုနှစ်":6040,"▁တဖြေးဖြေး":6041,"▁ပေ့ခ်ျ":6042,"▁မဟုတ်မမှန်":6043,"▁စတာပလာ":6044,"▁သူတောင်းစား":6045,"▁အလုပ်လက်မဲ့":6046,"▁ယတိပြတ်":6047,"▁ပြန်အမ်းငွေ":6048,"▁ယူအမ်ဂျီအန်":6049,"▁အပလီကေးရှင်း":6050,"▁အထိမ်းအမှတ်":6051,"▁အထိုက်အလျောက်":6052,"▁ရက်ရက်ရောရော":6053,"▁ပညာအရည်အချင်း":6054,"▁မူးယစ်ဆေး":6055,"▁ဥယျာဉ်":6056,"▁အေးအေးလူလူ":6057,"▁ဒေါင်းလုဒ်":6058,"ကဏ္ဍ":6059,"ခလုတ်":6060,"ခွံ":6061,"ဂံ":6062,"ဂုံ":6063,"စွန်":6064,"ဆား":6065,"ဉ့်":6066,"ညက်":6067,"တမဲ့":6068,"တဝါး":6069,"ထဲ":6070,"ဒိန်":6071,"ဒရိုက်":6072,"ဓမ္မ":6073,"နော":6074,"နမူနာ":6075,"ပိန်":6076,"ပျိုး":6077,"ပလိန်း":6078,"ဗ်":6079,"ဘွား":6080,"မွ":6081,"မည်း":6082,"မောင်":6083,"မသာ":6084,"မကျိုး":6085,"မနော":6086,"ယျ":6087,"ယက်":6088,"ရရ":6089,"ရန်":6090,"လိုင်":6091,"လျား":6092,"ဝသ":6093,"ဝတီ":6094,"သိုး":6095,"ဟပ်":6096,"ဟောင်":6097,"အုံ":6098,"အရာ":6099,"အသက်":6100,"အကောင့်":6101,"အဖွဲ့":6102,"ေမယ့်":6103,"ေဘု":6104,"ဲလ်":6105,"့စ်":6106,"▁ဩ":6107,"▁တု":6108,"▁ပုတ်":6109,"▁ပလတ်":6110,"ိုရီ":6111,"ိုဘီ":6112,"▁မည့်":6113,"▁မချစ်":6114,"▁အန်း":6115,"▁အဟုတ်":6116,"▁အငှား":6117,"▁အငွေ့":6118,"▁အအိပ်":6119,"▁ကီး":6120,"▁ကုန်း":6121,"ယ်လ်":6122,"▁ရွေ့":6123,"▁နန်း":6124,"▁နုံး":6125,"▁နွဲ့":6126,"▁နိမိတ်":6127,"▁သိုး":6128,"▁သည့်":6129,"▁သွယ်":6130,"▁သဝန်":6131,"▁သီအ":6132,"ေးရှား":6133,"▁ဘိတ်":6134,"▁ခို":6135,"▁ခိုက်":6136,"▁ခေါင်":6137,"ပ်အင်္ကျီ":6138,"▁ပြာ":6139,"▁ပြဲ":6140,"▁ပြက္ခ":6141,"▁ဖျ":6142,"▁ဖဲ့":6143,"▁ဖလား":6144,"▁နေဝင်":6145,"▁နေရောင်":6146,"ီးချင်း":6147,"▁ထစ်":6148,"▁ဆူး":6149,"ောက်ယှက်":6150,"▁ဘူးညွှ":6151,"▁ရှပ်အင်္ကျီ":6152,"▁ချောက်":6153,"▁ကိုရို":6154,"ိုးဇော်":6155,"▁ပဲပြုတ်":6156,"▁ပဲခူး":6157,"▁ဖြီး":6158,"▁ဖြန်း":6159,"▁ဖြိုးဇော်":6160,"ကြွယ်ဝ":6161,"မ်းမင်း":6162,"▁တစ်ကောင်":6163,"▁လိုက်လာ":6164,"▁လိုက်ဖ်":6165,"▁ရင်ပူ":6166,"ပြောင်":6167,"ပြီးချင်း":6168,"▁ဒရိုက်":6169,"▁ဒလီ":6170,"▁ဒိုဘီ":6171,"▁အလတ်":6172,"▁အလန်း":6173,"▁လည်းကောင်း":6174,"▁ပြီးပြီးချင်း":6175,"▁ဝံ့":6176,"▁ဝှက်":6177,"▁ဝဘ်":6178,"▁ဆိုင်း":6179,"▁သွားယူ":6180,"▁သွားရောက်":6181,"▁ကျေး":6182,"▁ကျန်း":6183,"▁အရင့်":6184,"▁ငပေါ":6185,"▁ဟီး":6186,"▁လေးရာ":6187,"▁လေးသိန်း":6188,"မှိတ်":6189,"မှိုင်း":6190,"မှိန်":6191,"▁လေဝင်":6192,"▁အတန်":6193,"▁အတိုက်အ":6194,"▁ဒီဂျစ်တယ်":6195,"▁စိတ်နှ":6196,"▁စိတ်ပြေ":6197,"▁စိတ်လေ":6198,"▁စိတ်ထိန်း":6199,"▁ယခင်":6200,"▁ယေဘု":6201,"လိုရီ":6202,"▁ပေါတော":6203,"▁အမယ်":6204,"▁အမုန်း":6205,"▁မလေးရှား":6206,"▁လူစား":6207,"▁လူရွှင်":6208,"▁လူမိုက်":6209,"▁နှနာ":6210,"▁ပြန်ပို့":6211,"▁အခေါ်":6212,"▁အသာ":6213,"▁အသဲ":6214,"▁အသွင်":6215,"▁အားအင်":6216,"▁လက်ဆင့်":6217,"▁လက်ထက်":6218,"▁လက်သည်း":6219,"▁စာကလေး":6220,"▁စာရိတ္တ":6221,"▁မျော":6222,"ဖြူး":6223,"▁မြိုသိပ်":6224,"▁ပျို့":6225,"▁အချိန်စေ့":6226,"စာချုပ်":6227,"▁များပြား":6228,"တော်ဆုံး":6229,"▁ကြီးရင့်":6230,"▁ဝယ်သုံး":6231,"▁နောက်ဆုတ်":6232,"▁ရုံးရောက်":6233,"▁အိပ်ဆေး":6234,"နှိမ်":6235,"▁အကို့":6236,"သူကြီး":6237,"▁ရေမကြီး":6238,"▁ရေနံ":6239,"မြူး":6240,"မြောင်း":6241,"▁အိမ်လခ":6242,"လာဒ်":6243,"▁ခြိမ်း":6244,"▁အပေါ":6245,"▁အပွင့်":6246,"▁လှဲ":6247,"▁လှိုက်":6248,"▁လှိုင်း":6249,"ခြည်":6250,"▁တွေ့ကြုံ":6251,"▁အစွဲ":6252,"▁ဖုန်းလာ":6253,"▁ဝင်လုပ်":6254,"▁ငွေလဲ":6255,"▁မျိုးရိုး":6256,"▁ဝန်မလေး":6257,"▁ဝန်ထုပ်":6258,"▁ဈေးကျ":6259,"▁ဈေးမှန်":6260,"▁ဈေးဆိုင်":6261,"▁ဈေးတန်":6262,"▁ဈေးနှိမ်":6263,"▁ခေါ်ခေါ်":6264,"▁ဆိုင်ဖွင့်":6265,"▁ဆိုင်လိပ်စာ":6266,"မှတ်ရာ":6267,"▁ကုန်စည်":6268,"▁ရက်ချိန်း":6269,"▁မီးမီး":6270,"▁မီးထွန်း":6271,"▁မီးခလုတ်":6272,"▁နေရာတကာ":6273,"▁နေရာဒေသ":6274,"▁စကားသံ":6275,"▁ထွက်ထွက်":6276,"▁ကားစီး":6277,"▁ကားသံ":6278,"▁ရှာကြည့်":6279,"▁အရေးအသား":6280,"▁လမ်းကူး":6281,"▁လမ်းစရိတ်":6282,"▁လမ်းဆုံ":6283,"▁အဲလောက်":6284,"▁စီးဆင်း":6285,"▁ပေါ်တင်":6286,"▁ငါးဟင်း":6287,"▁ရင်းရင်းနှီး":6288,"▁လစာထုတ်":6289,"▁ဘက်စုံ":6290,"▁သတိတရ":6291,"▁အာဇ":6292,"▁အာဆီ":6293,"▁ဆီလျော်":6294,"▁ခေါင်းစည်း":6295,"▁ခေါင်းအေးအေး":6296,"လက်လက်":6297,"လက်ရှည်":6298,"▁နိုင်ငံကူး":6299,"▁တိုးချဲ့":6300,"▁ဖွင့်ရက်":6301,"ဆေးပြား":6302,"▁ကြောက်လန့်":6303,"ဆိုဒ်":6304,"ုန့်ပြန်":6305,"▁ထမင်းချက်":6306,"▁ထမင်းဝိုင်း":6307,"▁သင်တန်းကျောင်း":6308,"▁မိုးလေ":6309,"▁တောင်းစား":6310,"▁အသုံးများ":6311,"▁အသုံးမဝင်":6312,"▁အသုံးမပြု":6313,"▁မေ့လျော့":6314,"▁အကျိုးစီး":6315,"▁အကျိုးခံစား":6316,"န်းမာရေး":6317,"▁ပင်လယ်":6318,"▁ကျောင်းဆရာ":6319,"▁မှားမှား":6320,"▁ဝတ်စား":6321,"▁အမှီ":6322,"လျှံ":6323,"▁အသံဝင်":6324,"▁အလှဆင်":6325,"▁ဂရုစိုက်မှု":6326,"▁ပေါင်းတင်":6327,"▁ပြုစား":6328,"ရွက်ဆိတ်":6329,"▁စုပေါင်း":6330,"ကူကူ":6331,"▁သတင်းပို့":6332,"▁ကျေးဇူးတင်လွှာ":6333,"▁မွေးထုတ်":6334,"▁အပြစ်မြင်":6335,"▁မိဘမဲ့":6336,"▁ဇော်":6337,"▁ဇနီး":6338,"▁အသိဆုံး":6339,"▁ခြောက်ထောင်":6340,"▁ခြောက်ဆယ့်":6341,"▁ရိုးရာ":6342,"▁မျှော်မှန်း":6343,"▁တရားသူကြီး":6344,"▁ကောင်းကောင်းမွန်":6345,"▁အကြွေးတောင်း":6346,"▁ရဲရဲ":6347,"▁ညနေစောင်း":6348,"▁ဒါပေမယ့်":6349,"▁ဆက်သွယ်ရေး":6350,"▁အဖွဲ့သား":6351,"▁ဗိုက်နာ":6352,"▁ဗိုက်ဘာ":6353,"▁ရိုက်ခတ်":6354,"▁ရိုက်ထည့်":6355,"▁စုံလင်":6356,"▁အလိုမကျ":6357,"▁ဘေးဖယ်":6358,"▁တစ်နေ့နေ့":6359,"▁ဟင်းပွဲ":6360,"▁ပရိုဂရ":6361,"▁စိတ်မပျက်":6362,"▁စိတ်မညစ်":6363,"▁အသားဖြူ":6364,"▁အထူးကု":6365,"တိုက်မှု":6366,"▁အဝယ်":6367,"▁နေ့လည်ခင်း":6368,"▁ဘဏ်အကောင့်":6369,"ပေါင်":6370,"▁ဥစ္စာ":6371,"▁ဂုဏ်ထူး":6372,"ဂါတ်":6373,"▁ချမ်းသာကြွယ်ဝ":6374,"▁အကြီးစား":6375,"▁အကြီးအကျ":6376,"▁ဖိစီး":6377,"▁အတော်ဆုံး":6378,"▁စိုးရိမ်စိတ်":6379,"▁တွက်ဆ":6380,"▁သံဓာတ်":6381,"▁နှုတ်ပိတ်":6382,"▁အခန်းကဏ္ဍ":6383,"▁အပိုဆောင်း":6384,"▁လည်ပင်း":6385,"▁အလေးထားမှု":6386,"▁အလှူအတန်း":6387,"ဝါဒ":6388,"ဝါရီ":6389,"▁အမှတ်တမဲ့":6390,"▁အစာစား":6391,"▁ရွာသား":6392,"▁ထောက်ပြ":6393,"အာဏာ":6394,"▁ဖောက်ထွက်":6395,"▁ဖန်တီးမှု":6396,"▁ဘုရားဖူး":6397,"▁ခပ်သွက်":6398,"▁အိမ်ထောင်သည်":6399,"▁အအေးဆိုင်":6400,"▁ရည်းစားစာ":6401,"▁လိမ်ညာ":6402,"▁ပုဂံ":6403,"▁ပုစွန်":6404,"▁ပုရွက်ဆိတ်":6405,"ောက်အယှက်":6406,"▁ဆန်ပြုတ်":6407,"ရေစာ":6408,"▁သွေးဝမ်း":6409,"▁ပါဝင်ပစ္စည်း":6410,"▁အနာဂါတ်":6411,"▁မွေးနေ့ရှင်":6412,"ဇာကြောင်":6413,"▁ဖော်ပြပါ":6414,"▁ကွဲကွဲ":6415,"▁အမြင်ကတ်":6416,"▁ကွယ်လွန်":6417,"▁အဆိုးမြင်":6418,"▁ဗီရို":6419,"ဆန်းဆန်း":6420,"▁အတင်းအ":6421,"▁နာကျင်မှု":6422,"▁အရပ်ပု":6423,"▁ခုနစ်ဆယ့်":6424,"ဒေတာ":6425,"▁လက်စွပ်":6426,"▁ကင်းဝေး":6427,"▁ကင်းကွာ":6428,"▁အိပ်မက်မက်":6429,"▁အဝေးသင်":6430,"▁မဲလိပ်":6431,"▁ဆန်းပြား":6432,"▁ဆန်းကြယ်":6433,"▁သင်ကြားမှု":6434,"▁သင်ကြားရေး":6435,"▁အထင်မကြီး":6436,"▁အထင်အမြင်":6437,"▁မေမေ့":6438,"▁ပြိုင်ကား":6439,"▁ဂျပန်စာ":6440,"▁သော့တွဲ":6441,"▁သော့ခတ်":6442,"▁နှိုးစက်":6443,"▁လှည့်ကြည့်":6444,"▁စစ်ဆေးမှု":6445,"▁ထိုင်းမှိုင်း":6446,"▁မှတ်တမ်းမှတ်ရာ":6447,"▁အသင့်တော်ဆုံး":6448,"▁ခွေးဟောင်":6449,"▁နှလုံးခုန်":6450,"▁တစ်နေရာ":6451,"▁အနှောက်အယှက်":6452,"မောမော":6453,"▁ထိပ်တိုက်":6454,"▁ရုပ်ရှင်ကား":6455,"▁လျော့ကျ":6456,"▁လျော့နည်း":6457,"▁ပိန်ပိန်":6458,"▁သရက်ပင်":6459,"▁မနည်းမနော":6460,"▁စိတ်ရှည်လက်ရှည်":6461,"▁ခြင်ထောင်":6462,"▁ခြင်ကိုက်":6463,"▁မိုဘိုင်းဖုန်း":6464,"▁မိုဘိုင်းဒေတာ":6465,"▁လွတ်လပ်ရေး":6466,"▁ဘဏ္ဍာနှစ်":6467,"▁လွယ်လွယ်ကူကူ":6468,"▁ခါးနာ":6469,"▁ခါးပိုက်":6470,"▁တတ်မြောက်ရေး":6471,"မြတ်နိုး":6472,"▁သင်္ကြန်ပွဲ":6473,"▁ခင်မင်မှု":6474,"▁အင်းစိန်":6475,"▁ယူဆချက်":6476,"▁ရေးဆွဲနည်း":6477,"▁ရွှေဈေး":6478,"▁မြှင့်တင်ရေး":6479,"▁ပြင်းပြင်း":6480,"▁နံနက်ခင်း":6481,"▁အပျော်ဆုံး":6482,"▁တံဆိပ်ခေါင်း":6483,"▁အချဉ်ရည်":6484,"▁ရှောက်သီးဆေးပြား":6485,"▁အချိုရည်":6486,"▁အချိုမှုန့်":6487,"▁ဖြန့်ဝေ":6488,"ကြောင်ကြောင်":6489,"▁အိုင်တီသမား":6490,"▁အပျင်းမကြီး":6491,"▁နို့ဆီ":6492,"▁ချီတက်":6493,"▁ကယ်လိုရီ":6494,"▁ထက်သန်မှု":6495,"▁သွန်ပစ်":6496,"▁စံပြ":6497,"▁စံနမူနာ":6498,"▁မန်ဘာကတ်":6499,"▁ယဉ်ကျေးမှု":6500,"▁တစ်ကိုယ်ကောင်း":6501,"▁လက်တော့ပ်":6502,"▁ခွဲစိတ်မှု":6503,"▁ပုပ်သိုး":6504,"▁အသက်မွေးဝမ်းကြောင်း":6505,"▁လောင်ကျွမ်း":6506,"▁အဆိပ်သင့်":6507,"▁ရက်ရောမှု":6508,"▁ပွဲစားခ":6509,"▁ပယ်ဖျက်":6510,"▁လစ်လပ်":6511,"▁ရှိုးပွဲ":6512,"▁အကြောက်တရား":6513,"▁အရှက်ခွဲ":6514,"▁အယ်လ်":6515,"▁လူကြိုက်များ":6516,"▁စိတ်ဓါတ်ကျ":6517,"▁အမူအရာ":6518,"▁အိမ်ရှင်မ":6519,"▁အိမ်ငှားခ":6520,"▁အရေးအခင်း":6521,"▁အသေးအဖွဲ":6522,"▁မက်ဆေ့ခ်ျ":6523,"▁တက်တူးထိုး":6524,"▁ငြီးငွေ့":6525,"▁အကြမ်းဖက်မှု":6526,"▁အသီးအရွက်":6527,"▁တစ်စိတ်တစ်":6528,"▁လက်ခုပ်":6529,"▁ချက်ဘောက်":6530,"▁ချက်ဘော့":6531,"▁ဂျီမေးလ်":6532,"▁အင်္ဂါနေ့":6533,"▁အခက်ခဲဆုံး":6534,"ကံရှင်":6535,"▁ဘူဖေး":6536,"▁စိတ်ကျန်းမာရေး":6537,"▁အားစိုက်ထုတ်":6538,"▁လျှောက်မပြော":6539,"▁ဇက်ကြောတက်":6540,"▁ရှုံးနိမ့်မှု":6541,"▁သွက်သွက်လက်လက်":6542,"▁ဥပုသ်စောင့်":6543,"▁ပြစ်ဒဏ်":6544,"▁အဖက်ဖက်":6545,"▁အုန်းဆီ":6546,"▁နပ်စ်":6547,"▁တစ်ပြိုင်တည်း":6548,"▁လက်ချည်ပွဲ":6549,"▁သဘောမတူ":6550,"▁ကာယကံရှင်":6551,"▁လွှမ်းမိုးမှု":6552,"▁ဓမ္မတာ":6553,"▁ခြင်ဆေးခွေ":6554,"▁လှုံ့ဆော်မှု":6555,"▁အလောတကြီး":6556,"▁လူပါးဝ":6557,"▁အဆောက်အဦး":6558,"▁သတ္တဝါ":6559,"▁ဇီဇာကြောင်":6560,"▁ဓာတ်အားခ":6561,"▁ပုတီးစိပ်":6562,"▁ပလတ်စတစ်":6563,"▁မချစ်စု":6564,"▁အန်းဒရိုက်":6565,"▁သဝန်တို":6566,"▁သီအိုရီ":6567,"▁ပြက္ခဒိန်":6568,"▁ဘူးညွှန့်":6569,"▁ကိုရိုနာ":6570,"▁ဒရိုက်ဗ်":6571,"▁ဝဘ်ဆိုဒ်":6572,"▁စိတ်နှလုံး":6573,"▁ယေဘုယျ":6574,"▁ပေါတောတော":6575,"▁လူရွှင်တော်":6576,"▁နှနာရီ":6577,"▁လက်ဆင့်ကမ်း":6578,"▁ရင်းရင်းနှီးနှီး":6579,"▁အာဆီယံ":6580,"▁နိုင်ငံကူးလက်မှတ်":6581,"▁မိုးလေဝသ":6582,"▁အကျိုးခံစားခွင့်":6583,"▁ကောင်းကောင်းမွန်မွန်":6584,"▁ပရိုဂရမ်းမင်း":6585,"▁ချမ်းသာကြွယ်ဝမှု":6586,"▁အကြီးအကျယ်":6587,"▁ခပ်သွက်သွက်":6588,"▁ခါးပိုက်နှိုက်":6589,"ကစား":6590,"ကရက်":6591,"ခေ":6592,"ခိုင်း":6593,"ခရင်":6594,"ခန္ဓာ":6595,"ဂုတ်":6596,"ဂရီ":6597,"ဂွီ":6598,"ငတ်":6599,"စ့်":6600,"စိုင်း":6601,"စတာ":6602,"ဆဲ":6603,"ဆို့":6604,"ဇက်":6605,"ဇီး":6606,"ဇွန်":6607,"ဇဝင်":6608,"ညင်":6609,"တဆ":6610,"တုပ်":6611,"တုတ်":6612,"တလဲ":6613,"တစိုက်":6614,"တသန့်":6615,"ထိန်":6616,"နိ":6617,"နတ်":6618,"နိုက်":6619,"နောင့်":6620,"နွယ်":6621,"နုံ့":6622,"ပုတ်":6623,"ပွန်း":6624,"ပျားရည်":6625,"ဖား":6626,"ဖိန်း":6627,"ဗယ်":6628,"ဗိုက်":6629,"ဘွန်း":6630,"မုန်း":6631,"မလည်":6632,"မဆက်":6633,"မဖြစ်":6634,"မပွား":6635,"မထင်":6636,"မျာ":6637,"ယုံ":6638,"ယဉ်း":6639,"ရဝ":6640,"ရမ်":6641,"ဝိုင်":6642,"သန":6643,"သိမ်":6644,"သတ္တ":6645,"ဟစ်":6646,"ဟောင်း":6647,"အူ":6648,"အက်":6649,"အလောက်":6650,"အကြေး":6651,"အကာ":6652,"အမိ":6653,"အနှစ်":6654,"အပတ်":6655,"အုံ့":6656,"အယွင်း":6657,"အလျောက်":6658,"ဥစ္စာ":6659,"ုအထ":6660,"့ခ်":6661,"့ကြောင့်":6662,"ှမ်း":6663,"၎င်း":6664,"▁၎င်း":6665,"▁တဝ":6666,"▁တုံ":6667,"▁တသီး":6668,"▁တပြေး":6669,"▁တုန့်ပြန်":6670,"▁ပလာ":6671,"ိုငြ":6672,"▁လီ":6673,"▁လပိုင်း":6674,"▁လရောင်":6675,"▁မု":6676,"▁မွ":6677,"▁မုတ်":6678,"▁မတော်":6679,"▁မော့":6680,"▁မတန်တ":6681,"▁မသိမ":6682,"ောပတ်":6683,"▁အုံ":6684,"▁အညာ":6685,"▁အညစ်":6686,"▁ကရင်":6687,"▁ကပ္":6688,"▁ကဖိန်း":6689,"▁ရသ":6690,"▁ရွ":6691,"▁ရွဲ့":6692,"▁ရအောင်":6693,"▁သမ်း":6694,"▁သုတ":6695,"▁သထက်":6696,"ေးမှိန်":6697,"▁ဘွား":6698,"▁ခတ်":6699,"▁ခွေ":6700,"▁ခမျာ":6701,"▁စဲ":6702,"▁စင်း":6703,"▁စိပ်":6704,"▁စလုပ်":6705,"▁စွန်း":6706,"▁စပါယ်":6707,"▁မှော်":6708,"▁မှေးမှိန်":6709,"▁တွေဝေ":6710,"▁ဖာ":6711,"▁ဖဲ":6712,"▁ဖို":6713,"▁ဖီး":6714,"▁ဖွန်":6715,"▁ဖနောင့်":6716,"▁နေစရာ":6717,"▁နေပြည်":6718,"▁နေရိပ်":6719,"▁ထွား":6720,"▁ထိန်":6721,"▁ထောပတ်":6722,"▁ဆွ":6723,"▁တောထွက်":6724,"ောင်းမ":6725,"ချိ":6726,"ချွတ်":6727,"ချမ်းသာ":6728,"▁ချာ":6729,"▁ချပ်":6730,"ော်လာ":6731,"ော်မုန်း":6732,"▁ကိုလာ":6733,"▁ပဲနို့":6734,"▁ပေးစား":6735,"ကြံ":6736,"▁တစ်စု":6737,"▁တစ်ပွဲ":6738,"▁တစ်ရွာ":6739,"▁လိုက်လိုက်":6740,"▁ရင်မော":6741,"ပြူး":6742,"▁ဒို့":6743,"▁ဒိုး":6744,"▁ဒကာ":6745,"▁ဒရိုင်ဘာ":6746,"▁အလေအ":6747,"▁အလျော့":6748,"▁လာထုတ်":6749,"▁ဝင်း":6750,"▁သွားတွေ့":6751,"▁ကျိုက်":6752,"▁ကျကျ":6753,"▁ကျိန်း":6754,"▁ကျပျောက်":6755,"▁အရော":6756,"▁ငုံ့":6757,"▁ငှါး":6758,"ိုက်လှဲ":6759,"▁ဟက်":6760,"▁ဟစ်":6761,"▁ဟမ်":6762,"▁ဟော်မုန်း":6763,"▁လေးသောင်း":6764,"▁ပြောစရာ":6765,"▁ပြောစကား":6766,"▁ဘာညာ":6767,"ရာပါ":6768,"ရာဝတီ":6769,"▁လေဖြတ်":6770,"▁လေထွက်":6771,"▁လေဆာ":6772,"ကျူ":6773,"ကျား":6774,"ကျဉ်း":6775,"▁အတိမ်":6776,"▁အလုပ်ပြုတ်":6777,"▁ဒီရေ":6778,"▁ဒီဂရီ":6779,"▁စိတ်ရှင်း":6780,"▁စိတ်ကြည်":6781,"▁စိတ်ထင်":6782,"▁ယောင်းမ":6783,"▁ကောင်းကင်":6784,"လိုအား":6785,"ရှစ်":6786,"ရှို့":6787,"ရှော့":6788,"▁လူတော်":6789,"▁လူရင်း":6790,"▁လူတွေ့":6791,"▁လူစာရင်း":6792,"▁လူချစ်":6793,"▁အောင်စာရင်း":6794,"တာတာ":6795,"တာရှည်":6796,"တာမင်":6797,"▁နှဲ":6798,"▁နှောက်ယှက်":6799,"▁ကိုယ်ခန္ဓာ":6800,"▁ပြန်စာ":6801,"▁ပြန်ဆုံ":6802,"▁အခိုး":6803,"▁အသန့်":6804,"▁လက်ပါ":6805,"▁လက်ရှည်":6806,"▁လက်ဘ်":6807,"▁လက်ဖွဲ့":6808,"▁လက်ရွေး":6809,"▁စားဖို":6810,"▁သေးငယ်":6811,"▁စာပြန်":6812,"▁မျို":6813,"▁အဆင်း":6814,"▁အဆမတန်":6815,"ဖြီး":6816,"ဖြောင့်":6817,"▁ညင်":6818,"▁အချိန်ယူ":6819,"▁အချိန်ဖြုန်း":6820,"▁ကြီးကျယ်":6821,"သာမှု":6822,"▁နောက်ကြောင်း":6823,"နှောင်":6824,"▁အကင်း":6825,"▁အကွာ":6826,"▁ရေပူ":6827,"▁ရေလမ်း":6828,"▁ရေကန်":6829,"▁ရေတိုက်":6830,"▁ရေရေ":6831,"▁ရေမောင်း":6832,"▁ရေတွက်":6833,"▁ရေဒီယို":6834,"မြိန်":6835,"▁အပြိုင်အ":6836,"▁နားငြ":6837,"▁အိမ်သုံး":6838,"▁ပိုစ့်":6839,"▁ယောက်ချို":6840,"▁ခြမ်း":6841,"ခြယ်":6842,"▁ရောထွေး":6843,"▁တက်စ်":6844,"▁တောင်တန်း":6845,"▁ဗြ":6846,"တင်ဘာ":6847,"▁တွေ့မြင်":6848,"▁အမြစ်":6849,"▁ထင်ရှား":6850,"▁အစို":6851,"▁အစွန်း":6852,"▁အထုတ်":6853,"▁ရာသက်":6854,"▁ရာဇဝင်":6855,"▁ဖုန်းမဆက်":6856,"လည်ခေါင်":6857,"▁မင်းဓမ္မ":6858,"▁ဆက်ဆက်":6859,"▁ဆက်နွယ်":6860,"▁နာကျည်း":6861,"▁နာတာရှည်":6862,"▁ချစ်ချစ်":6863,"▁ချစ်မြတ်နိုး":6864,"▁ပျော်စရာ":6865,"▁ခွင့်မဲ့":6866,"▁ခွင့်မပြု":6867,"▁ဝန်မခံ":6868,"▁ခင်ပွန်း":6869,"မှတ်တိုင်":6870,"▁ကုန်သည်":6871,"▁ပုံတင်":6872,"▁ရက်သတ္တ":6873,"▁ကြိုးစားပြ":6874,"▁အကြောင်းမပြန်":6875,"▁မီးပြတ်":6876,"▁မီးသွေး":6877,"▁မီးခြစ်":6878,"▁မီးရှို့":6879,"▁နေရာတကျ":6880,"ဝန်ပိုး":6881,"▁ထွက်စား":6882,"▁ထွက်ပေါ်":6883,"▁ဆေးခွင့်":6884,"▁ဆေးထည့်":6885,"▁ကားလမ်း":6886,"▁ကားဘီး":6887,"▁မျက်မြင်":6888,"▁မျက်တွင်း":6889,"▁မျက်စောင်း":6890,"▁အရာထင်":6891,"▁အရေးမ":6892,"▁ကလေးစရိတ်":6893,"▁လုပ်ငန်းသုံး":6894,"▁လမ်းခရီး":6895,"▁အဖုအထ":6896,"▁စီးကရက်":6897,"▁ရေးပြ":6898,"စဉ်သူ":6899,"▁ထုတ်ပြ":6900,"▁ထုတ်ဖော်":6901,"▁ကနေဒါ":6902,"▁ပတ်လည်":6903,"▁တန်ရာ":6904,"စုစာရင်း":6905,"▁ပေါ်လွင်":6906,"▁တာဝန်ကျ":6907,"▁ငါးပါး":6908,"▁ငါးပိ":6909,"▁မြင်သာမှု":6910,"▁လစာငွေ":6911,"▁ဗျူး":6912,"▁အာဘွား":6913,"▁အာနိ":6914,"▁ဆီဆိုင်":6915,"▁ဆီပြန်":6916,"▁အခါခါ":6917,"▁ထပ်တလဲ":6918,"လှိုက်လှဲ":6919,"▁နိုင်ငံရပ်":6920,"▁တွေးပူ":6921,"▁တိုးကောက်":6922,"▁တိုးရစ်":6923,"▁ကြောက်ကြောက်":6924,"▁ပြင်သစ်":6925,"▁ရှင်းထုတ်":6926,"▁ဝမ်းမ":6927,"▁ဝမ်းစာ":6928,"▁ဝမ်းစက်":6929,"▁သင်တန်းသူ":6930,"▁အောက်ထပ်":6931,"▁အောက်ခြေ":6932,"▁မိုးချုပ်":6933,"▁မိုးတိတ်":6934,"▁မိုးအုံ့":6935,"▁တောင်းခံ":6936,"▁ဖတ်ဖတ်":6937,"▁မြန်မာမှု":6938,"▁မြန်မာငွေ":6939,"▁မြန်မာစကား":6940,"▁မျှစ်":6941,"▁အသုံးကြမ်း":6942,"▁အသုံးမချ":6943,"▁မေ့ပျောက်":6944,"▁အနေနဲ့":6945,"▁ရယ်ပြ":6946,"ပျော့":6947,"▁ဂရုတစိုက်":6948,"▁ခါစ":6949,"▁အောင်မြင်ကျော်":6950,"▁ကာဗာ":6951,"▁ကျောင်းပိတ်":6952,"▁စာအုပ်ချုပ်":6953,"▁ကံကုန်":6954,"▁တိုက်ထုတ်":6955,"▁ကြိုမြင်":6956,"▁ငယ်ဘဝ":6957,"▁ပူတင်း":6958,"▁ကြုံကြုံ":6959,"▁ပညာပေး":6960,"▁ရန်စကား":6961,"တစ်စည်း":6962,"▁စုငွေ":6963,"▁ကျွေးမွေး":6964,"▁ရုပ်ခံ":6965,"▁ရုပ်သံ":6966,"▁ပျောက်ရှ":6967,"▁ခရီးစရိတ်":6968,"▁အော်ဆို":6969,"▁အော်ဟစ်":6970,"▁သက်သာရာ":6971,"▁မျက်နှာလွှဲ":6972,"စီးစီး":6973,"▁ထိုးတက်":6974,"▁ထိုးနှံ":6975,"▁ဆုမွန်":6976,"▁ဆုတံဆိပ်":6977,"▁ဆုလက်ဆောင်":6978,"▁ကျော်တက်":6979,"သီးဟင်း":6980,"▁စက်မှု":6981,"▁စက်ဝန်း":6982,"▁စက်တင်ဘာ":6983,"▁ရှေ့ရေး":6984,"▁ရှေ့တန်း":6985,"စပ်ဆုံး":6986,"▁စည်းစနစ်":6987,"▁စမ်းတဝါး":6988,"▁ဖြတ်လမ်း":6989,"▁မျှော်ကိုး":6990,"▁ငြိ":6991,"▁ငြိုငြ":6992,"▁တရားစွဲ":6993,"▁အမှန်ဆုံး":6994,"▁ပထမပိုင်း":6995,"▁ခေတ်ပျက်":6996,"သတ်ဆေး":6997,"▁အာရုံရောက်":6998,"▁အာရုံမစိုက်":6999,"ဖော်ဝါရီ":7000,"▁မူဝါဒ":7001,"▁အကြွေးတင်":7002,"▁စောန":7003,"▁ဖြည့်စရာ":7004,"▁အထိခိုက်":7005,"▁အပ်နှံ":7006,"▁ခဲယဉ်း":7007,"▁အရောင်းရဆုံး":7008,"စီစဉ်သူ":7009,"▁ရှစ်မိုင်":7010,"▁ဖယ်ရီကား":7011,"▁အမှားအယွင်း":7012,"ဝေဒနာ":7013,"▁ဗိုက်ပူ":7014,"▁ရိုက်ပြ":7015,"▁ဘောဖျက်":7016,"▁စုံညီ":7017,"▁စုံတွဲ":7018,"▁အလိုအလျောက်":7019,"▁အရောင်ထွက်":7020,"▁ဘေးထွက်":7021,"▁ဟင်းချို":7022,"▁ဟင်းသီးဟင်း":7023,"▁အွန်လိုင်းရှော့":7024,"▁သစ်သား":7025,"ာနည်":7026,"▁စိတ်ဝင်စားစရာ":7027,"▁အသားဟင်း":7028,"▁ပွဲစီစဉ်သူ":7029,"▁တွဲဖက်":7030,"▁ဆံပင်ဆိုင်":7031,"▁ပန်းသီး":7032,"▁စနစ်ကျ":7033,"▁ဝမ်းနည်းစရာ":7034,"▁ပြုံးရယ်":7035,"▁စောစောစီးစီး":7036,"▁ဆွေးနွေးခ":7037,"▁ဝမ်းသာစရာ":7038,"▁ကပ်ရောဂါ":7039,"▁သံချောင်း":7040,"▁အချက်ပြ":7041,"▁ပြတ်လပ်":7042,"▁ပြတ်တောက်":7043,"▁အခန်းဖော်":7044,"▁ငှားခ":7045,"▁တင်ပြချက်":7046,"▁ကောက်စား":7047,"▁ဝေခွဲ":7048,"▁သဘာဝတရား":7049,"▁လောကီ":7050,"▁ရင်းနှီးငွေ":7051,"▁ဖန်တီးသူ":7052,"▁ဘုရားပန်း":7053,"▁ခပ်ကင်း":7054,"▁ကေဘီ":7055,"▁လူငယ်လူ":7056,"အကျွံ":7057,"▁အိမ်ထောင်စုစာရင်း":7058,"▁အမြတ်ထုတ်":7059,"▁အရွယ်တင်":7060,"▁အရွယ်အစား":7061,"▁အိပ်ရာဝင်":7062,"▁ထိခိုက်နစ်နာ":7063,"▁အိုခေ":7064,"▁လကုန်ရက်":7065,"▁ကွန်ပလိန်း":7066,"▁ပုဇွန်":7067,"▁ဇာတ်ဝင်":7068,"▁ဇာတ်ညွှန်း":7069,"တင်းတင်း":7070,"အထိုက်":7071,"▁ဆန်ဈေး":7072,"▁မြင့်မြင့်":7073,"▁ဧရာဝတီ":7074,"▁အကောင့်ဖွင့်":7075,"▁အလိုက်အထိုက်":7076,"▁အပူရှပ်":7077,"▁ဖိနပ်စီး":7078,"▁ကမ္ဘာပတ်":7079,"▁သွေးတွင်း":7080,"▁ခန့်မှန်းချက်":7081,"▁မျက်လုံးပြူး":7082,"▁အေးအေးချမ်းချမ်း":7083,"မားမား":7084,"▁ဦးစားမပေး":7085,"▁ဗီတာမင်":7086,"▁ဒေတာဖိုင်":7087,"တိုရှင်း":7088,"▁အထောက်အပံ့":7089,"ပွါး":7090,"▁ခုနစ်ထောင်":7091,"▁ခုနစ်ဆယ်":7092,"▁ရှာဖွေရေး":7093,"▁အရက်သမား":7094,"▁ရေချိုးခန်း":7095,"▁အလွန်အကျွံ":7096,"▁မဲဖောက်":7097,"▁နံရံ":7098,"▁စိတ်ဓာတ်ကျခြင်း":7099,"▁ဘေဇင်":7100,"▁ဘတ်ဂျက်":7101,"▁ကြေညက်":7102,"▁ဖြူဝင်း":7103,"▁ဆိုလိုရင်း":7104,"ဖိနပ်":7105,"▁တစ်ဖက်သတ်":7106,"▁မှန်ကန်မှု":7107,"▁ကြက်ဥချက်":7108,"▁ကြက်ဥအကာ":7109,"▁သော့ချက်":7110,"▁မိတ္တူဆိုင်":7111,"▁မာလကာ":7112,"▁နှာချေ":7113,"▁စာပို့သမား":7114,"▁ပျော်ပျော်ပါးပါး":7115,"လူထု":7116,"▁ခေါ်ယူရေး":7117,"ကျယ်ကျယ်":7118,"▁ညံ့ဖျင်း":7119,"▁ဝင်ရောက်မှု":7120,"▁နုနု":7121,"▁ကျင့်ယူ":7122,"▁အသည်းယား":7123,"▁အင်ဂျင်ဝိုင်":7124,"▁ကြည်ဖြူ":7125,"▁အဆီပို":7126,"▁ဆေးရုံတက်":7127,"▁အပင်စိုက်":7128,"▁စာရွက်စာတမ်းကြေး":7129,"▁ဖေဖော်ဝါရီ":7130,"▁ရေနွေးကြမ်း":7131,"▁သက်သက်သာသာ":7132,"▁ထုတ်ပြန်ချက်":7133,"▁ဖေဖေ့":7134,"▁အပေါက်ဝ":7135,"▁အပေါက်ဆိုး":7136,"န္တာ":7137,"▁စတစ်ကီ":7138,"▁ရှောက်ပျားရည်":7139,"▁ကြီးကြီးမားမား":7140,"▁ပီကေ":7141,"▁အုပ်ထိန်း":7142,"▁ပါဝါပွိုင့်":7143,"▁ပေးသွင်းငွေ":7144,"▁မြေကြီး":7145,"▁ရာထူးတက်ရေး":7146,"▁လွတ်လပ်ခွင့်":7147,"ပြန့်ပြန့်":7148,"▁အသင်းအဖွဲ့":7149,"▁ခါးကိုက်":7150,"▁နှုတ်ဆက်စာ":7151,"▁စိတ်ရှုပ်ထွေး":7152,"▁ငါးရာ့":7153,"▁အတိုင်းအဆ":7154,"▁တည်ငြိမ်မှု":7155,"▁ရိုးရိုးရှင်းရှင်း":7156,"တားဘွန်း":7157,"▁တိပ်ကပ်":7158,"▁ဘီယူ":7159,"▁ဆောင်းပါး":7160,"▁ဝဋ်မလည်":7161,"▁ခိုးယူ":7162,"▁ခိုးကြည့်":7163,"▁စိတ်လှုပ်ရှားမှု":7164,"▁လန်းလန်း":7165,"▁အိုတီချိန်":7166,"▁လက်မထပ်":7167,"▁ပို့ဆောင်ရေး":7168,"▁သွက်လက်":7169,"▁သရဲကား":7170,"▁စမတ်ကျ":7171,"▁စမတ်ကျကျ":7172,"▁လေးလေးနက်နက်":7173,"▁ကွဲပြားမှု":7174,"▁အိုးနင်း":7175,"▁ထီထွင်":7176,"▁အချိုပွဲ":7177,"▁အချိုတည်း":7178,"▁ဈေးပေါပေါ":7179,"▁ဖရဲသီးစိတ်":7180,"▁မတ်လ":7181,"▁အူတို":7182,"▁ခုံမင်":7183,"▁စွဲဆောင်မှု":7184,"▁ဒေါက်ဖိနပ်":7185,"▁အလည်အပတ်":7186,"▁စိတ်ခံစားမှု":7187,"▁အနီးဆုံး":7188,"▁အနီးနား":7189,"▁အနီးကပ်":7190,"▁အနီးစပ်ဆုံး":7191,"▁ငယ်ရွယ်မှု":7192,"▁လမ်းညွှန်မှု":7193,"▁လမ်းညွှန်ချက်":7194,"▁အလဲအထပ်":7195,"▁ဝန်းရံ":7196,"▁ဆက်စပ်မှု":7197,"▁အဘိုး":7198,"▁သကြားလုံး":7199,"▁အကြွေစေ့":7200,"▁ရေသန့်စက်":7201,"▁ရောင်စုံ":7202,"▁ရောင်ပြန်":7203,"▁ချောင်လည်":7204,"▁ပြည်သူလူထု":7205,"▁ကြံ့ခိုင်မှု":7206,"▁အံမယ်":7207,"▁နေနေသာသာ":7208,"▁ချိုမြိန်":7209,"▁ဒေါင်းလုတ်":7210,"▁မွန်းကြပ်":7211,"▁ကယ်ရီ":7212,"▁ဒတ်စတော့":7213,"▁ပြီးမြောက်မှု":7214,"ခွက်နင်း":7215,"▁လယ်ယာ":7216,"▁လယ်ဗယ်":7217,"▁သွန်သင်":7218,"▁ထူထူ":7219,"▁ဘာသာပြန်စာအုပ်":7220,"▁စက်ဘီးစီး":7221,"▁စံနှုန်း":7222,"▁ငတ်ပြတ်":7223,"▁ကိုင်ဆောင်ခွင့်":7224,"▁လျှပ်စစ်ပစ္စည်း":7225,"▁ညောင်းညာ":7226,"▁အရှိတရား":7227,"▁တစ်ကိုယ်ရည်":7228,"▁အိပ်ယာထ":7229,"▁ဆွမ်းကပ်":7230,"▁အလင်းပြ":7231,"▁အလင်းရောင်":7232,"▁အကြောပြတ်":7233,"▁အကြောလျှော့":7234,"▁ဂစ်တာတီး":7235,"▁အကျယ်ကြီး":7236,"▁ဖေ့စ်ဘွတ်":7237,"▁အငြင်းမပွား":7238,"▁ပယ်ချ":7239,"▁ခုန်ထွက်":7240,"▁ချမ်းချမ်းသာ":7241,"▁နှစ်သစ်ကူး":7242,"▁အကြောက်ဆုံး":7243,"▁လျှာမကျိုး":7244,"▁ညီအစ်မ":7245,"▁တောက်လျှောက်":7246,"▁ခရမ်း":7247,"▁မှိုတက်":7248,"▁ဂါရဝ":7249,"▁ဇိမ်ပျက်":7250,"▁မတိုင်ခင်":7251,"▁စကော်လာ":7252,"▁တစ်ပုံကြီး":7253,"▁လူလည်ကျ":7254,"▁ရက်လိစ်":7255,"▁အရေးအကြောင်း":7256,"▁ကွာရှင်းခွင့်":7257,"▁ညွှန်ကြားချက်":7258,"▁ရှမ်းပြည်":7259,"▁ရေရာမှု":7260,"▁အထွက်နှုန်း":7261,"▁ဝါးတားဘွန်း":7262,"▁မကောင်းမှု":7263,"▁စက္ကူညှပ်":7264,"▁တွန်းအားပေး":7265,"ခေါက်ဆွဲ":7266,"▁အငတ်":7267,"▁ခမ်းခမ်းနား":7268,"▁ဒူးရင်း":7269,"▁အမှာစကား":7270,"▁ဥပုသ်နေ့":7271,"▁အညိုရောင်":7272,"▁နေရပ်လိပ်စာ":7273,"▁လိမ္မော်ရောင်":7274,"ထစ်ချ":7275,"▁ရိပ်မိ":7276,"▁ဖန်ခွက်":7277,"▁ဖရုံသီး":7278,"▁တစ်လက်စ":7279,"▁အလုံအလောက်":7280,"▁ဘဝင်မကျ":7281,"▁မိုးခြိမ်းသံ":7282,"▁သံပုရာရည်":7283,"▁လျစ်လျူရှု":7284,"▁စစချင်း":7285,"▁စိတ်သဘောထား":7286,"▁ယုန်သား":7287,"▁ပျံသန်း":7288,"▁ဂီတ":7289,"▁မျိုးဆက်သစ်":7290,"▁အကျဉ်းချုပ်":7291,"▁အောက်ကျို့":7292,"▁ကော်မတီ":7293,"▁ကျယ်ကျယ်ပြန့်ပြန့်":7294,"▁ဩဂုတ်":7295,"▁အငွေ့အသက်":7296,"▁ဖျတ်":7297,"▁နေဝင်ချိန်":7298,"▁အလတ်စား":7299,"▁အတိုက်အခံ":7300,"▁ပျို့အန်":7301,"▁ခြိမ်းခြောက်":7302,"▁လှိုက်လှိုက်လှဲ":7303,"▁ငွေလဲလှယ်":7304,"▁ဝန်ထုပ်ဝန်ပိုး":7305,"▁အာဇာနည်":7306,"▁ခေါင်းစည်းကြိုး":7307,"▁အကျိုးစီးပွား":7308,"▁ဇော်ဂျီ":7309,"▁ရိုက်ခတ်မှု":7310,"▁ပုစွန်ခြောက်":7311,"▁သွေးဝမ်းသွား":7312,"▁တစ်ကိုယ်ကောင်းဆန်":7313,"▁တစ်စိတ်တစ်ပိုင်း":7314,"▁တသီးတသန့်":7315,"▁တပြေးညီ":7316,"▁ပလာတာ":7317,"▁မတော်တဆ":7318,"▁မတန်တဆ":7319,"▁မသိမသာ":7320,"▁အညစ်အကြေး":7321,"▁နေပြည်တော်":7322,"▁တစ်စုတစ်စည်း":7323,"▁အလေအလွင့်":7324,"▁အတိမ်အနက်":7325,"▁လက်ရွေးစင်":7326,"▁စားဖိုမှူး":7327,"▁ရေရေရာရာ":7328,"▁အပြိုင်အဆိုင်":7329,"▁နားငြီး":7330,"▁ရာသက်ပန်":7331,"▁ရက်သတ္တပတ်":7332,"▁မျက်စောင်းထိုး":7333,"▁အဖုအထစ်":7334,"▁အာနိသင်":7335,"▁ဆီပြန်ဟင်း":7336,"▁ထပ်တလဲလဲ":7337,"▁နိုင်ငံရပ်ခြား":7338,"▁အောင်မြင်ကျော်ကြား":7339,"▁ကျောင်းပိတ်ရက်":7340,"▁စမ်းတဝါးဝါး":7341,"▁ငြိုငြင်":7342,"▁ဟင်းသီးဟင်းရွက်":7343,"▁ခပ်ကင်းကင်း":7344,"▁ကေဘီဇက်":7345,"▁လူငယ်လူရွယ်":7346,"▁မာလကာသီး":7347,"▁အုပ်ထိန်းမှု":7348,"▁အိုးနင်းခွက်နင်း":7349,"▁ချမ်းချမ်းသာသာ":7350,"▁ခမ်းခမ်းနားနား":7351,"▁ဩဂုတ်လ":7352,"▁လှိုက်လှိုက်လှဲလှဲ":7353,"ကော်":7354,"ကုတ်":7355,"ကလား":7356,"ကတိ":7357,"ဂိုး":7358,"ငှ":7359,"ငှက်":7360,"စင်း":7361,"စူး":7362,"စတော":7363,"ဆွေး":7364,"ဆန့်":7365,"ဆွမ်း":7366,"ဆွေးနွေး":7367,"ဇီ":7368,"ဇံ":7369,"ဇွန်း":7370,"ဇာတ်":7371,"ဇွတ်":7372,"ဇဲလ်":7373,"ညူ":7374,"တြ":7375,"တွေ":7376,"တိမ":7377,"တပတ":7378,"ထီ":7379,"ထ်":7380,"ထီး":7381,"ဒစ်":7382,"ဒူး":7383,"ဒိုင်":7384,"ဒရိုင်ဘာ":7385,"နောင်":7386,"ပပ":7387,"ပက်":7388,"ပဲ့":7389,"ပဒေ":7390,"ဖု":7391,"ဖုတ်":7392,"ဖျောက်":7393,"ဗန်း":7394,"ဘဝဲ":7395,"ဘန်းကင်း":7396,"မျ":7397,"မစ်":7398,"မန့်":7399,"မမာ":7400,"မရောက်":7401,"မွမ်း":7402,"မမြင်":7403,"မဖက်":7404,"မထွက်":7405,"မစမ်း":7406,"မဆာ":7407,"မသိမ်း":7408,"ယင်":7409,"ရော်":7410,"ဝံ":7411,"ဝတ္ထု":7412,"ဝှမ်း":7413,"သို့":7414,"သွမ်း":7415,"သရော":7416,"ဟဿ":7417,"ဟို":7418,"ဟား":7419,"ဟန်":7420,"ဟိုက်":7421,"ဟိန်း":7422,"အခြား":7423,"အခါ":7424,"အကမ်း":7425,"အညံ့":7426,"အတောက်":7427,"အိုင်အ":7428,"အမြစ်":7429,"အစွန်း":7430,"ဥပဒေ":7431,"ာန်":7432,"ာယာ":7433,"ာတု":7434,"ီလို":7435,"ုဘ":7436,"ေတ":7437,"ေဇာ":7438,"ေက္ခာ":7439,"ေသန":7440,"ေထီး":7441,"ွမ်":7442,"▁တဲ":7443,"▁တေး":7444,"▁တရေး":7445,"▁တပင်":7446,"▁တဖြုတ်":7447,"▁တေဇာ":7448,"▁ပင့်":7449,"▁ပုံး":7450,"▁ပုန်း":7451,"▁ပကတိ":7452,"ိုကင်":7453,"▁လွင့်":7454,"▁လမင်း":7455,"▁မတ":7456,"▁မွန်":7457,"▁မမြင်":7458,"▁မနား":7459,"▁အောင်း":7460,"▁အငံ":7461,"▁အဖြတ်":7462,"▁ကုပ်":7463,"▁ကရု":7464,"▁ကလပ်":7465,"▁ကိရိယာ":7466,"▁ကထိန်":7467,"▁ကီလို":7468,"ယ်ကြောင့်":7469,"▁ရလာဒ်":7470,"▁နော":7471,"▁နစ်":7472,"▁သင်း":7473,"▁သော်":7474,"▁သယံ":7475,"▁သမ္မာ":7476,"▁ပါပါ":7477,"▁ဘရာ":7478,"▁ဘော့":7479,"▁ဘလိုင်း":7480,"▁ဘိုကင်":7481,"စ်ချိုး":7482,"စ်လစ်":7483,"စ်ဂျစ်တယ်":7484,"ပ်နှံ":7485,"▁ပြား":7486,"▁ပြူး":7487,"▁စွယ်":7488,"▁စတမ်း":7489,"▁စကင်":7490,"▁စပယ်":7491,"▁စမီး":7492,"▁စမိုင်":7493,"▁စတေး":7494,"▁စခရင်":7495,"ွေသီး":7496,"ူးတွဲ":7497,"▁ဖွက်":7498,"▁ဖျင်":7499,"▁နေကာ":7500,"ီးမြှင့်":7501,"▁ထင်း":7502,"▁ထွင်း":7503,"▁ထိမိ":7504,"▁တောမီး":7505,"▁ကြယ်":7506,"ချပ်":7507,"▁ချဉ်း":7508,"ော်နံ့":7509,"ုံးဝင်":7510,"▁ကိုကာ":7511,"ိုးခြံ":7512,"▁ပဲဟင်း":7513,"▁ပေးကမ်း":7514,"▁ဖြဲ":7515,"ကြိုင်":7516,"ကြဉ်":7517,"▁သူရဲ":7518,"▁တစ်ဆက်":7519,"▁တစ်ပန်း":7520,"▁တစ်စက်":7521,"▁တစ်တော့":7522,"▁တစ်ကွက်":7523,"▁တစ်နိုင်":7524,"▁တစ်ချောင်း":7525,"▁တစ်ရုပ်":7526,"▁တစ်ဝှမ်း":7527,"▁လိုက်ပြ":7528,"▁လိုက်မှတ်":7529,"▁လိုက်ပွဲ":7530,"▁ရင်နာ":7531,"▁ရင်လေး":7532,"▁ရင်ပုံ":7533,"▁ရင်ကယ်":7534,"▁ဒဲ့":7535,"▁ဒိုင်":7536,"▁ဒွေး":7537,"▁ဒဂုံ":7538,"▁ဒစ်ဂျစ်တယ်":7539,"▁ဘယ်နှ":7540,"▁အလာ":7541,"▁အလေ":7542,"▁အလမ်း":7543,"▁အလဟဿ":7544,"▁ပြီးနောက်":7545,"▁ဝေါ":7546,"▁ကျူတာ":7547,"▁ကျစ်လစ်":7548,"▁အရိုက်":7549,"▁ငန်":7550,"▁ဟု":7551,"▁ဟောက်":7552,"▁ဟောင်":7553,"▁ဟမ်း":7554,"▁ဟွန်း":7555,"▁ပြောချ":7556,"▁လေဒီ":7557,"▁လေတိုက်":7558,"▁လေကြောင်း":7559,"ကျဲ":7560,"ကျော":7561,"ကျစ်":7562,"ကျန်းမာ":7563,"▁အလုပ်ရှာ":7564,"ည့်ခံ":7565,"▁စိတ်ကြီး":7566,"▁စိတ်လွတ်":7567,"▁စိတ်ဝမ်း":7568,"▁စိတ်သော":7569,"▁ယမ":7570,"▁ယပ်":7571,"▁ကောင်းစွာ":7572,"နေကျ":7573,"ရှီ":7574,"▁လူစုံ":7575,"▁လူချိန်း":7576,"▁နှလ":7577,"▁နှင်":7578,"▁နှပြား":7579,"▁ကိုယ်ရည်":7580,"▁ကိုယ်ဟန်":7581,"▁ပြန်လွှတ်":7582,"▁အခင်":7583,"▁အခွန်း":7584,"▁အခိုင်အ":7585,"▁အသိမိတ်":7586,"▁အသုဘ":7587,"ွန်လ":7588,"ကြီးဆုံး":7589,"ကြီးရွယ်":7590,"▁အားပြတ်":7591,"▁အားပြိုင်":7592,"▁လက်ပေါက်":7593,"▁လက်ကွက်":7594,"▁လက်မောင်း":7595,"▁စားချိန်":7596,"▁တို့စား":7597,"ိမ်ခံ":7598,"▁စာတမ်း":7599,"▁စာကြောင်း":7600,"▁စာပို":7601,"▁စာဖွဲ့":7602,"▁ဟုတ်သား":7603,"န့်ခွန်း":7604,"▁အဆစ်":7605,"▁မိန့်ခွန်း":7606,"▁နှစ်ကောင်":7607,"▁နှစ်ခြိုက်":7608,"▁ညည":7609,"▁ညကြီး":7610,"▁ညဆိုင်း":7611,"▁ညစောင့်":7612,"▁ညဉ့်":7613,"▁မြေး":7614,"▁မြည်":7615,"▁ပျာယာ":7616,"▁အချိန်မပေး":7617,"▁အချိန်အခါ":7618,"စာရိတ္တ":7619,"▁အကြုံ":7620,"▁သုံးထောင့်":7621,"▁ကြီးမှူး":7622,"▁ကြီးပြင်း":7623,"သာရ":7624,"▁နောက်ခံ":7625,"▁ဟာတာတာ":7626,"▁ရုံးနား":7627,"▁ရုံးသုံး":7628,"▁ရုံးတွင်း":7629,"▁ရုံးပတ":7630,"▁ရုံးပြေး":7631,"▁ရုံးလုပ်ငန်း":7632,"▁ရုံးအမိ":7633,"▁လောက်ငှ":7634,"▁ယူယူ":7635,"▁ယူနစ်":7636,"နှင်":7637,"နှက်":7638,"နှယ့်":7639,"▁အကိုက်":7640,"▁အကိုက်အ":7641,"▁နေ့စား":7642,"သူငယ်":7643,"▁ရေဝင်":7644,"▁ရေနစ်":7645,"▁ရေစီး":7646,"▁ရေသံ":7647,"▁ရေတို":7648,"▁ရေချို":7649,"▁ရေဗူး":7650,"▁ရေငတ်":7651,"▁ရေဘဝဲ":7652,"မြုပ်နှံ":7653,"▁နားချိန်":7654,"▁နားရွက်":7655,"▁နားဆင်":7656,"▁အိမ်ချက်":7657,"▁အိမ်တိုင်":7658,"လုံးချော":7659,"ွှေး":7660,"▁ယောက်ယောက်":7661,"▁သင်ရိုး":7662,"▁သင်္က":7663,"▁ခြိုးခြံ":7664,"▁နည်းပြ":7665,"▁လှော်":7666,"▁လှိမ့်":7667,"▁လှဒယ်":7668,"▁လှတပတ":7669,"ခြမ်း":7670,"▁ဗွက်":7671,"▁ဂက်စ်":7672,"▁ဂယောင်":7673,"▁ဂေါ့":7674,"▁တွေ့ရှိ":7675,"▁အမြောက်အ":7676,"▁အစောင့်":7677,"▁အထူ":7678,"▁အထိန်း":7679,"▁ဖုန်းသုံး":7680,"▁ဖုန်းသံ":7681,"လည်လည်":7682,"▁စီဗစ်":7683,"▁ဝင်လည်":7684,"▁ဝင်ဝင်":7685,"▁ဝင်စရာ":7686,"▁နာမကျ":7687,"▁နာ့စ်":7688,"▁နာနတ်":7689,"▁ချစ်ခြင်း":7690,"▁ငွေလှူ":7691,"▁ပျော်မွေ့":7692,"▁ဘဝတူ":7693,"▁ဘဝသမား":7694,"▁သတဲ့":7695,"▁သာသာယာ":7696,"▁ဈေးမကြီး":7697,"▁ဈေးဗန်း":7698,"ရင်ဟိုက်":7699,"▁ထိတွေ့":7700,"▁ဘဲဥ":7701,"▁ဆိုင်ခန်း":7702,"▁ပုံအပ်":7703,"▁ပုံကြမ်း":7704,"▁အကြောင်းရာ":7705,"▁အကြောင်းမဲ့":7706,"▁အကြောင်းအကျ":7707,"▁လုံးပါးပါး":7708,"▁အင်စတော":7709,"▁မီးနီ":7710,"▁မီးခိုး":7711,"▁မီးတောက်":7712,"▁စကားပုံ":7713,"ရှင်းဆုံး":7714,"▁ထွက်ပေါက်":7715,"▁ထွက်ခွ":7716,"မှန်ရိုက်":7717,"▁သက်ကြီးရွယ်":7718,"▁သေချာစွာ":7719,"▁ကြာဇံ":7720,"▁ဆေးလုံး":7721,"▁ဆေးဖိုး":7722,"▁ဆေးစစ်":7723,"▁ဆေးကု":7724,"▁ဆေးကျောင်း":7725,"▁ဆေးသုတ်":7726,"▁ကားငှား":7727,"▁ကားမှတ်တိုင်":7728,"▁ကားဒရိုင်ဘာ":7729,"▁မျက်ဝန်း":7730,"▁မျက်ရိုး":7731,"▁မျက်ခုံး":7732,"▁အကျွမ်း":7733,"▁အကျုံးဝင်":7734,"▁သောက်သောက်":7735,"▁အရာမထင်":7736,"ယာကွန်း":7737,"▁ကလေးကလား":7738,"ခြားခြား":7739,"အားနည်း":7740,"▁အဲယာကွန်း":7741,"▁ကျေးဇူးရှင်":7742,"▁ကျေးဇူးတရား":7743,"တူရွေး":7744,"▁အဖွင့်":7745,"▁ရောင်းဝယ်":7746,"▁အသက်ရှု":7747,"▁ရေးချ":7748,"▁ရေးနည်း":7749,"▁ရေးမှတ်":7750,"ဒီဒီ":7751,"▁ထုတ်ရက်":7752,"▁ထုတ်ပစ်":7753,"▁ကွာဟ":7754,"▁ကွာကျ":7755,"▁ကြားစကား":7756,"▁တာဝန်ချ":7757,"▁တာဝန်ချိန်":7758,"မင်းဟိန်း":7759,"ကိုလာ":7760,"▁ဘက်ပေါင်း":7761,"▁ပြောင်းဖူး":7762,"▁အခြမ်း":7763,"▁ဆီကြော်":7764,"▁ထပ်ထပ်":7765,"လက်န":7766,"လက်ပျောက်":7767,"▁လျှောက်တွေး":7768,"လှော်":7769,"လှောင်":7770,"▁ဆိုးဆေး":7771,"▁ဆိုးဆိုး":7772,"▁ဆိုးသွမ်း":7773,"▁ကြောက်မွေး":7774,"ရည်ကျ":7775,"ရည်ခေါက်ဆွဲ":7776,"ွင်ပြင်":7777,"▁ယုံယုံ":7778,"▁ဝမ်းဆက်":7779,"▁ဝမ်းမြောက်":7780,"▁ကူပွန်":7781,"▁အသစ်စက်":7782,"▁အောက်ခံ":7783,"▁အောက်တို":7784,"▁အောက်မေ့":7785,"▁ပြည့်နှက်":7786,"▁မိုးခို":7787,"▁မိုးစဲ":7788,"▁မြန်မာစာ":7789,"▁အသုံးလို":7790,"▁အသုံးတည့်":7791,"အေးချမ်း":7792,"▁ကျန်ရစ်":7793,"▁ဆုံးပါး":7794,"▁အနေတော်":7795,"▁မီလီ":7796,"▁အကျိုးမဲ့":7797,"▁အကျိုးပေး":7798,"▁ရယ်စရာ":7799,"▁မုန့်ဆိုင်":7800,"▁ပျက်ကျ":7801,"▁ပျက်ကပ်":7802,"▁အောင်မြင်ရေး":7803,"▁အမျိုးစုံ":7804,"▁ပင်ရင်း":7805,"▁ပင်ကိုယ်":7806,"▁အပြင်ထွက်":7807,"▁ပစ္စည်းဥစ္စာ":7808,"ဝေးဝေး":7809,"▁တန်ဖိုးဖြတ်":7810,"▁ကျောင်းနေ":7811,"▁ကျောင်းဝင်":7812,"▁ကျောင်းနား":7813,"▁တချို့တလေ":7814,"▁စစ်ရေး":7815,"▁စစ်တမ်း":7816,"▁စစ်အာဏာ":7817,"နီကုန်း":7818,"▁အမှီအ":7819,"လျှော":7820,"▁အသံတိတ်":7821,"▁တိုက်ဖျက်":7822,"▁ပူဆွေး":7823,"▁အပေါ်စီး":7824,"▁အပေါ်ထပ်":7825,"▁ပေါင်းဆေး":7826,"▁ပေါင်းစပ်":7827,"▁ရန်သူ":7828,"▁ရန်ပုံ":7829,"▁ရန်မဖြစ်":7830,"▁ခွဲခွာ":7831,"တီအက်စ်":7832,"▁နောက်ကျော":7833,"တစ်ပိုင်":7834,"ကြည်ကြည်":7835,"▁စုပုံ":7836,"▁စုဘူး":7837,"▁ပျော်ရွှင်စရာ":7838,"ကူဆုံး":7839,"▁အင်တာနယ်":7840,"▁ရုပ်လှ":7841,"▁ကော်ရည်ခေါက်ဆွဲ":7842,"▁သတင်းပေး":7843,"▁သတင်းထူး":7844,"▁ပျောက်ပျောက်":7845,"▁ခရီးလမ်း":7846,"▁ထိုင်ချ":7847,"▁မွေးရပ်":7848,"▁မျက်နှာပူ":7849,"▁မျက်နှာပေါက်":7850,"▁ရည်ညွှန်း":7851,"▁ထိုးကျ":7852,"▁ထိုးထိုး":7853,"▁ဆုငွေ":7854,"▁ဆုကြေး":7855,"လွှင့်":7856,"▁အပြစ်ဒဏ်":7857,"▁ဂျာ":7858,"▁ဂျို":7859,"▁ဂျာန":7860,"▁ဂျပု":7861,"ဆိုးဝါး":7862,"▁ဆယ့်ငါး":7863,"▁စီးပွားရေးသမား":7864,"အသင့်":7865,"အသိမ်း":7866,"▁စက်ချုပ်":7867,"▁စက်သုံး":7868,"▁စက်ရုပ်":7869,"▁ဇွန်လ":7870,"▁ရှေ့ဆုံး":7871,"▁အသိစိတ်":7872,"▁စည်းရုံး":7873,"▁စမ်းကြည့်":7874,"▁စမ်းစစ်":7875,"▁ခြောက်ရာ":7876,"သီချင်း":7877,"▁ရှောင်ကြဉ်":7878,"▁ရုံတင်":7879,"▁မျှော်ကြည့်":7880,"▁စိတ်ချစွာ":7881,"နွေးနွေး":7882,"▁ဆွဲစား":7883,"▁ဆွဲတင်":7884,"▁ဆွဲအား":7885,"▁ဆွဲကြိုး":7886,"▁ပတ်သက်မှု":7887,"▁ရွေးချယ်စရာ":7888,"▁တရားဥပဒေ":7889,"▁အမှန်အ":7890,"▁အိတ်စိုက်":7891,"▁အိတ်ခ်ျ":7892,"▁အိတ်ဇဲလ်":7893,"▁အဖြည့်ခံ":7894,"ငြမ်း":7895,"သေစာ":7896,"သေပေါက်":7897,"▁နီးနီး":7898,"▁လူကြီးဆန်":7899,"▁ဟိုဟို":7900,"▁အစည်းအဝေးခန်း":7901,"ဖော်ရွေ":7902,"▁မူမမှန်":7903,"▁အကြွေးယူ":7904,"▁အကြွေးစနစ်":7905,"▁ရဲစခန်း":7906,"▁အရောင်းဝန်ထမ်း":7907,"▁ကော်ဖီခွက်":7908,"▁ရှစ်သိန်း":7909,"▁အဓိကကျ":7910,"▁အကျင့်ပါ":7911,"▁အကျင့်ယုတ်":7912,"▁အကျင့်စာရိတ္တ":7913,"▁တိုးတက်ရေး":7914,"▁ကြက်သီး":7915,"▁ကြက်တူရွေး":7916,"▁နာမည်ကျော်":7917,"ဝေဝေ":7918,"▁ဗိုက်မဆာ":7919,"▁သီဆို":7920,"▁အနည်းစု":7921,"▁ရိုက်ကူး":7922,"▁အလိုကျ":7923,"▁အရောင်တူ":7924,"▁အရောင်ပိုင်း":7925,"▁ဟင်းအိုး":7926,"▁ဟင်းအနှစ်":7927,"▁သစ်လုပ်ငန်း":7928,"▁ပြေစာ":7929,"▁ပရိုမို":7930,"▁အတိုးချ":7931,"▁စိတ်မကူး":7932,"▁စိတ်မကောက်":7933,"▁အသားတင်":7934,"▁အသားမဲ":7935,"▁အသားကင်":7936,"▁အသားမည်း":7937,"▁အထူးအဆန်း":7938,"ခင်ခင်":7939,"▁ဝါကျ":7940,"▁ဝါဆို":7941,"▁ပွဲတက်":7942,"▁ယောက်ျားဆန်":7943,"▁ပြင်ဆင်မှု":7944,"▁နယ်ဖက်":7945,"▁နယ်ဘက်":7946,"▁နယ်မြို့":7947,"▁နယ်မြေ":7948,"▁ငိုကြွေး":7949,"မြန်မြန်":7950,"▁ရန်ကုန်တိုင်း":7951,"▁ပန်းပန်":7952,"▁ပန်းရောင်":7953,"▁မူးမော်":7954,"▁ညှီ":7955,"▁ညှိုး":7956,"▁ညှော်နံ့":7957,"▁ရီဝေဝေ":7958,"▁ဆော့စ်":7959,"▁ဆော့ဝဲ":7960,"▁ဂုဏ်ဆာ":7961,"▁ဂုဏ်သိ":7962,"▁ဂုဏ်ကျေးဇူး":7963,"▁ဖက်ခေါင်း":7964,"▁ဖက်ပြိုင်":7965,"တံခါး":7966,"▁အကြီးတန်း":7967,"▁အတော်ကြာ":7968,"▁ဖော်ဖော်ရွေ":7969,"▁ဝင်ငွေခွန်":7970,"▁တွက်နည်း":7971,"▁ဘုရင့်":7972,"▁ဆင်န":7973,"▁ဆင်ယင်":7974,"▁အိပ်ရေးဆတ်":7975,"▁ငှားစီး":7976,"▁အမြန်လမ်း":7977,"▁ကာကွယ်ရေး":7978,"▁တင်ပြမှု":7979,"▁ကောက်ကျစ်":7980,"ောင်တောင်":7981,"ောင်တောင်တောင်":7982,"▁အလေးပေး":7983,"▁ဝေဝါး":7984,"▁အလှူရှင်":7985,"▁ဒုက္ခသည်":7986,"▁အိုင်အို":7987,"▁အမှတ်စာရင်း":7988,"▁အမှတ်တံဆိပ်":7989,"▁ဓာတ်စာ":7990,"▁ဓာတ်ဆီ":7991,"▁ဓာတ်ငွေ့":7992,"▁ဓာတ်ဆား":7993,"▁အစာခြေ":7994,"▁အစာကျွေး":7995,"▁စိတ်ကူးပေါက်":7996,"ကိုယ်သွေး":7997,"▁ဝါသနာရှင်":7998,"▁ရင်းနှီးမှု":7999,"▁ရင်းနှီးမြုပ်နှံ":8000,"▁အရင်းခံ":8001,"▁ဘုရားစာ":8002,"▁ဘုရားစင်":8003,"▁ဘုရားကျောင်း":8004,"▁ခပ်မိုက်":8005,"▁ခပ်အေးအေး":8006,"▁ခပ်မြန်မြန်":8007,"▁ရင့်ရော်":8008,"▁နေထိုင်ခွင့်":8009,"▁အိမ်ထောင်ရှင်":8010,"▁အမြတ်အစွန်း":8011,"▁ဓာတု":8012,"▁အအေးပတ်":8013,"▁ချောက":8014,"▁လက်တွေ့ကျကျ":8015,"ခြုံခြုံ":8016,"▁မိန်းမသား":8017,"ချိုးမျှ":8018,"▁ဝယ်ယူသူ":8019,"▁လိမ်လိမ်":8020,"▁ပုလင်း":8021,"▁ပုခုံး":8022,"ခိုးဝှက်":8023,"▁ဧရိယာ":8024,"▁အကောင့်အပ်":8025,"▁မန်ကျည်း":8026,"▁အလိုက်သိ":8027,"▁အပူဒဏ်":8028,"▁သက်ဆိုင်သူ":8029,"▁ဖိနပ်ပြတ်":8030,"▁လွဲမှား":8031,"▁သွေးဆုံး":8032,"▁သွေးဆေး":8033,"▁သွေးခွဲ":8034,"▁သွေးယို":8035,"▁သွေးလှူ":8036,"▁သွေးပေါင်":8037,"▁စာဖတ်အား":8038,"▁မြန်မာနိုင်ငံသား":8039,"စိစိ":8040,"လယ်ဒိုင်":8041,"▁ခြေချုပ်":8042,"▁မွေးနေ့ပွဲ":8043,"ဇာတ":8044,"▁လခစား":8045,"▁အမြင်ကျယ်":8046,"▁ဆုံးဖြတ်ချက်ချ":8047,"▁အဆိုးအညံ့":8048,"▁အထက်ပါ":8049,"▁အထက်တန်း":8050,"▁မျက်လုံးကန်း":8051,"▁ကစားစရာ":8052,"ဟာလ":8053,"▁နည်းပညာပိုင်း":8054,"▁တိုင်ပင်ခ":8055,"▁တိုင်ပင်ဆွေးနွေး":8056,"သင်းနံ့":8057,"္ကျား":8058,"▁ကူးပြောင်း":8059,"▁အတင်းတုပ်":8060,"▁လွှဲချ":8061,"▁စိုက်ပျိုး":8062,"▁စိတ်ပူစရာ":8063,"▁မောင်းနှင်":8064,"▁အရပ်ရပ်":8065,"▁လှမ်းခေါ်":8066,"▁ဥပေက္ခာ":8067,"▁ကန်စွန်း":8068,"▁ကန်တော်ကြီး":8069,"▁ကန်ဇွန်း":8070,"▁ပါးပါး":8071,"▁ဆူပူ":8072,"▁ဆူရှီ":8073,"▁အရက်သေစာ":8074,"▁လက်စလက်န":8075,"▁ပြုပြင်ရေး":8076,"▁အိတ်ရှ်အာအိုင်အ":8077,"ကင်ဆာ":8078,"▁ကင်းမဲ့":8079,"▁ကင်းလွတ်":8080,"▁ငြိမ်ခံ":8081,"ဂတ်ဝမ်း":8082,"▁အဝေးဆုံး":8083,"▁ယောင်္ကျား":8084,"▁နှိပ်နယ်":8085,"မျှတ":8086,"▁စာမေးပွဲကြေး":8087,"▁မောပန်း":8088,"▁ဝက်ဝံ":8089,"▁ကျယ်လောင်":8090,"▁ထူးခြားမှု":8091,"▁အထင်မှား":8092,"▁အကြမ်းခံ":8093,"▁အကြမ်းထည်":8094,"▁အကြမ်းမဖက်":8095,"▁အီးစီ":8096,"▁အလွယ်ကူဆုံး":8097,"▁ကျက်သရေ":8098,"▁ကတိခံ":8099,"▁ကတိပေး":8100,"▁ကတိစကား":8101,"▁ဂျပန်နိုင်ငံ":8102,"▁သောကရောက်":8103,"▁အေဂျင်စီခ":8104,"ဘက်ခ်":8105,"▁တိုကင်":8106,"▁ဝိုင်းပြော":8107,"▁ထောက်ခံမှု":8108,"▁မိတ္တူစက်":8109,"▁မာမာ":8110,"▁မာယာ":8111,"▁မာကျော":8112,"▁နှာဗူး":8113,"▁အဆောင်မှူး":8114,"▁လှည့်စား":8115,"▁ရင်းနှီးမြှပ်နှံ":8116,"လူခင်":8117,"ကြွကြွ":8118,"▁ဝိတ်ထိန်း":8119,"▁ဝိတ်မချ":8120,"▁ခေါ်ယူမှု":8121,"▁အမျိုးသားနေ့":8122,"▁ထိုင်းကား":8123,"▁ထိုင်းငွေ":8124,"▁အပြီးအ":8125,"▁အက်ရှင်":8126,"▁အက်ဒစ်":8127,"▁အသင့်စား":8128,"▁အနိုင်ကျင့်":8129,"▁ဉာဏ်ပညာ":8130,"▁နုဖတ်":8131,"▁ကျင့်သား":8132,"▁နှလုံးရောဂါ":8133,"▁အတည်တကျ":8134,"▁အဆီဓာတ်":8135,"▁အဆီပြန်":8136,"▁ပျက်ကွက်မှု":8137,"▁ခဲဆံဗူး":8138,"▁အမှုန့်":8139,"▁စရိတ်ငြိမ်း":8140,"▁တစ်နေရာရာ":8141,"▁ဆင်းရဲတွင်း":8142,"▁ကိုယ်ချင်းစာတရား":8143,"▁အနှေး":8144,"▁အနှိမ်ခံ":8145,"▁ဆောက်တည်":8146,"▁ရုန်းမထွက်":8147,"▁ရပ်တည်မှု":8148,"▁ကွိုင်":8149,"▁သွင်းကုန်":8150,"▁သွင်းဂိုး":8151,"▁အပိုင်းအခြား":8152,"▁လှလှပပ":8153,"▁ထူးချွန်သူ":8154,"▁ဝိုင်ဖိုင်စက်":8155,"▁တီရှပ်":8156,"▁ချီးမွမ်း":8157,"▁ရှယ်ယာဈေး":8158,"▁မိုတီ":8159,"▁ကြမ်းပြင်":8160,"▁အရစ်ရှည်":8161,"ပီယူ":8162,"▁နှေးကွေး":8163,"▁နှေးနှေး":8164,"▁ဦးဆောင်သူ":8165,"▁ကြီးကြီးကျယ်ကျယ်":8166,"▁အစစ်မှန်":8167,"▁မိုဘိုင်းမန်းနီး":8168,"▁မိုဘိုင်းဘန်းကင်း":8169,"▁ပီဇာ":8170,"▁ပီပီ":8171,"▁ညာဘက်":8172,"▁မြေဈေး":8173,"▁မြေပုံ":8174,"▁မြေနီကုန်း":8175,"▁မြေသင်းနံ့":8176,"▁ပါးစပ်ဖျား":8177,"▁အမျှော်အမြင်":8178,"▁တစ်သက်စာ":8179,"▁ကြက်ကြော်ဆိုင်":8180,"▁ကြော်ငြာစာ":8181,"▁သုံးသပ်ချက်":8182,"▁ကုသိုလ်စိတ်":8183,"▁အတွေးအမြင်":8184,"▁ဒုတိယပိုင်း":8185,"▁လက်ဆေးရေ":8186,"▁သုံးစွဲသူ":8187,"▁နယ်ပြန်သွား":8188,"▁လေယာဉ်လက်မှတ်":8189,"▁လေယာဉ်မောင်":8190,"▁တည်ငြိမ်သူ":8191,"▁တည်ငြိမ်စွာ":8192,"▁ရိုးရိုးသားသား":8193,"▁အင်းတော်ကြီး":8194,"▁အန်တီ့":8195,"▁အက်စ်အမ်":8196,"▁သစ္စာဖောက်":8197,"▁ဘိုင်ကျ":8198,"▁ဘိုင်ဝမ်း":8199,"▁ခိုးချ":8200,"▁ခိုးကြောင်":8201,"▁စပ်စပ်":8202,"▁စိတ်လှုပ်ရှားစရာ":8203,"▁မြတ်မင်းဟိန်း":8204,"▁နိုင်ငံသားကတ်":8205,"▁ရီမိုင်း":8206,"လင်ဒါ":8207,"လင်လင်":8208,"▁လေလံဈေး":8209,"▁အိုတီကြေး":8210,"▁ဆန္ဒပြ":8211,"▁ဆန္ဒပြု":8212,"▁နှာခေါင်းစည်း":8213,"▁အဟမ်း":8214,"▁ဖြစ်နိုင်ချေ":8215,"▁စိတ်ပါပါ":8216,"▁အဆူမခံ":8217,"▁အစိုးရိမ်":8218,"ညံ့ညံ့":8219,"▁မှီငြမ်း":8220,"▁စာသင်ခန်း":8221,"▁အရာရှိချုပ်":8222,"▁လိမ်းဆေး":8223,"▁ထီထိုး":8224,"▁အော်ဒါတင်":8225,"▁ဖရဲသီးကင်း":8226,"▁မတ်မတ်":8227,"▁အူကြောင်ကြောင်":8228,"▁ကြပ်ကြပ်":8229,"▁အလည်သွား":8230,"▁အတည်ပြုချက်":8231,"▁ထောင်ကျ":8232,"▁ဆားဗစ်":8233,"▁အဆိုပါ":8234,"▁တိုက်ဆိုင်မှု":8235,"▁အပျင်းကြီး":8236,"▁စိတ်ပါဝင်စားမှု":8237,"▁အဘယ်ကြောင့်":8238,"▁နူးနူး":8239,"▁ယဉ်ယဉ်":8240,"▁အခက်ကြုံ":8241,"▁အသုံးအဆောင်":8242,"▁အသုံးအစွဲ":8243,"▁ဘုရားရှိခိုးသံ":8244,"ညှာ":8245,"ညှိုး":8246,"▁ရိုင်းရိုင်း":8247,"▁ဖမ်းခေါ်":8248,"▁ဖမ်းဆီး":8249,"▁ခုနှစ်ဆယ်":8250,"▁ခုနှစ်ဆယ့်":8251,"▁ရေသန့်ဘူး":8252,"▁သေဆုံးမှု":8253,"▁ရှုခင်း":8254,"▁ကြွားဝါ":8255,"▁ချောင်ကျ":8256,"▁နှစ်ရာ့":8257,"▁ပြည်သူ့":8258,"ထန်ထန်":8259,"▁အမွေရ":8260,"▁ကုဒ်ဘူး":8261,"▁မုန့်ဟင်းခါးဆိုင်":8262,"▁ဆန်းစစ်ချက်":8263,"▁ကဲ့သို့":8264,"▁ကဒ်ပြား":8265,"▁သိမ်မွေ့":8266,"▁ပျော့ကွက်":8267,"▁စိတ်ကူးယဉ်ဆန်":8268,"▁တွန်းပို့":8269,"▁အနှစ်သာရ":8270,"▁ထူထောင်":8271,"▁စာနာမှု":8272,"▁ခြံခုန်":8273,"▁ပူပူနွေးနွေး":8274,"▁နွေးထွေးမှု":8275,"တတ်မှု":8276,"▁တပူးတွဲ":8277,"▁မှောင်ခို":8278,"▁ဖေ့ဘွတ်":8279,"▁လက်သန့်ဆေး":8280,"▁ဦးရေပြား":8281,"▁အိပ်စက်မှု":8282,"▁ဗမာစာ":8283,"▁ဗမာဆေး":8284,"▁လမ်းမကြုံ":8285,"▁လမ်းမလျှောက်":8286,"▁ဇွဲဆု":8287,"▁ဖြည့်စွက်စာ":8288,"▁ငြိမ်းချမ်းရေး":8289,"မျက်မှန်":8290,"ရွှေထီး":8291,"▁လောင်းရိပ်":8292,"▁ဘောင်မဝင်":8293,"▁ဘူးသီးစိတ်":8294,"▁ရှေးထုံး":8295,"▁တစ်ပတ်ရစ်":8296,"▁ကျဉ်းကျဉ်း":8297,"▁အိပ်ယာဝင်":8298,"▁ခွဲစိတ်ခန်း":8299,"▁မွှေးကြိုင်":8300,"▁အကဲဖြတ်မှု":8301,"နဲနဲ":8302,"▁ပွပွ":8303,"▁အသိုင်းဝိုင်း":8304,"▁နှစ်သက်ရာ":8305,"▁အဆိပ်အတောက်":8306,"▁ကင်ဆာရောဂါ":8307,"▁ရင်ဖွင့်ဖော်":8308,"▁အရေခွံ":8309,"▁ညည်းညူ":8310,"တံ့တံ့":8311,"▁မှိုချိုးမျှ":8312,"▁ချွဲကျပ်":8313,"▁ကွာခြားချက်":8314,"▁အတွင်းရေးမှူးရုံး":8315,"▁ပန်းချီဆရာ":8316,"ဖျန်း":8317,"▁ကွင်းလယ်ဒိုင်":8318,"▁အရေးအကြီးဆုံး":8319,"▁ညီမျှမှု":8320,"▁ခေါင်းစဉ်တပ်":8321,"▁ဆုချီးမြှင့်":8322,"▁တည်တည်တံ့တံ့":8323,"▁စွပ်ပြုတ်":8324,"▁ဗဟိုပြု":8325,"▁ညွှန်ကြားရေးမှူး":8326,"▁စွက်ဖက်မှု":8327,"▁တိရစ္ဆာန်ရုံ":8328,"ထုံးစံ":8329,"▁ပွတ်တိုက်မှု":8330,"▁ထွေပြား":8331,"▁နှစ်နှစ်ခြိုက်":8332,"စိမ့်စိမ့်":8333,"▁မကောင်းကြောင်း":8334,"▁မကောင်းဆိုးဝါး":8335,"▁စူပုတ်":8336,"▁စောင်းပြော":8337,"▁စနှိုက်မ":8338,"▁ဖြောင့်ဖြူး":8339,"▁ဆိုလာမီး":8340,"▁ငဲ့ညှာ":8341,"▁အားတက်သရော":8342,"▁တကာ့":8343,"▁အာလူးကြော်":8344,"▁ဂျီပီယူ":8345,"▁အရှိန်အ":8346,"▁ဓလေ့ထုံးစံ":8347,"▁စွန့်စားမှု":8348,"▁ဘုန်းကြီးကျောင်း":8349,"▁ဗိုင်းရပ်စ်ပိုး":8350,"▁ပိုးသတ်ဆေး":8351,"▁ခမ်းနား":8352,"▁ပြန့်ကျဲ":8353,"▁ထွန်းကား":8354,"▁ပေါများမှု":8355,"▁ရေစစ်နည်း":8356,"▁တောင်ကြီးမြို့":8357,"▁ကြာမြင့်စွာ":8358,"▁နက်နက်နဲနဲ":8359,"▁ဆိုက်ကားဆရာ":8360,"▁တွယ်ကပ်":8361,"▁ဟန်းမိတ်":8362,"▁အပေးအကမ်း":8363,"▁ဖွင့်ဆိုချက်":8364,"▁တိုက်ခိုက်မှု":8365,"▁ကိုးရီးယားကား":8366,"▁ဇာတိ":8367,"▁ဇာတိမ":8368,"▁စွဲလမ်းမှု":8369,"▁ပြုံးပြုံးရွှင်ရွှင်":8370,"တန်တန်":8371,"▁လော့အင်":8372,"▁ရိပ်သာ":8373,"▁နတ်သမီး":8374,"▁နွားနို့":8375,"▁ဘောက်စ်":8376,"▁ဘောက်ချာ":8377,"▁ဘလော့ဂါ":8378,"▁စွတ်ပြော":8379,"▁ဖန်စီ":8380,"▁မျဉ်းပြိုင်":8381,"▁တက်တက်ကြွကြွ":8382,"▁အထပ်ထပ်":8383,"▁ဝန်ကြီးဌာန":8384,"▁သံပုရာသီး":8385,"▁လိပ်ပြာလုံ":8386,"▁ရှည်ရှည်ဝေးဝေး":8387,"▁လိင်ဆက်ဆံ":8388,"▁ပူးပေါင်းဆောင်ရွက်မှု":8389,"▁ကမ်းလှမ်းမှု":8390,"▁လျစ်လျူရှူ":8391,"▁ကွေ့ကောက်":8392,"▁ဘယ့်နှယ့်":8393,"▁ကြိမ်းသေပေါက်":8394,"▁ချူဆီ":8395,"▁အောင်ပွဲခံ":8396,"▁လက်တစ်ကမ်း":8397,"▁ဗောက်ပျောက်":8398,"▁တာဝန်မယူ":8399,"▁တာဝန်မကျေ":8400,"▁ဇီးရွက်":8401,"▁ထူးထူးဆန်းဆန်း":8402,"▁ထူးထူးခြားခြား":8403,"▁လုံလုံခြုံခြုံ":8404,"▁အပူအပင်":8405,"▁ဆန်းဆန်းပြားပြား":8406,"▁ကွန့်မြူး":8407,"▁မူးယစ်ဆေးဝါး":8408,"လိုင်စင်":8409,"▁ကီးဘုတ်":8410,"▁ရွေ့လျား":8411,"▁သွယ်သွယ်":8412,"▁ခိုက်ရန်":8413,"▁ခေါင်ရည်":8414,"▁ပြာကျ":8415,"▁ကျေးလက်":8416,"▁ကျန်းကျန်းမာ":8417,"▁စိတ်ပြေလက်ပျောက်":8418,"▁စာကလေးကြော်":8419,"▁အပေါစား":8420,"▁ဆိုင်ဖွင့်ပွဲ":8421,"▁ကွဲကွဲပြားပြား":8422,"▁အတင်းအဖျင်း":8423,"▁ဆန်းကြယ်မှု":8424,"▁ပိန်ပိန်ပါးပါး":8425,"▁ပြင်းပြင်းထန်ထန်":8426,"▁အသီးအရွက်ကြော်":8427,"ညင်သာသာ":8428,"▁တဝိုက်":8429,"▁မွမွ":8430,"▁မုတ်သ":8431,"▁မော့ကြည့်":8432,"▁အုံထူ":8433,"▁အညာသူ":8434,"▁ကဖိန်းဓာတ်":8435,"▁သုတေသန":8436,"▁ဘွားတော်":8437,"▁စင်းလုံးချော":8438,"▁စပါယ်ရှယ်":8439,"▁မှော်ဘီ":8440,"▁ဖာရင်ဟိုက်":8441,"▁ဖွန်ကြောင်":8442,"▁ချာချာလည်":8443,"▁ဒကာခံ":8444,"▁ငုံ့ကြည့်":8445,"▁လူချစ်လူခင်":8446,"▁ညင်ညင်သာသာ":8447,"▁ကြီးကျယ်ခမ်းနား":8448,"▁အကွာအဝေး":8449,"▁ချစ်ချစ်ခင်ခင်":8450,"▁အရေးမပါ":8451,"▁တန်ရာတန်":8452,"▁ငါးပါးသီလ":8453,"▁ဝမ်းမနည်း":8454,"▁ရောင်ပြန်ဟပ်":8455,"▁နှစ်သစ်ကူးပွဲ":8456,"ဇွတ်ထိုး":8457,"▁တပင်ရွှေထီး":8458,"▁မမြင်မစမ်း":8459,"▁မနားတမ်း":8460,"▁ကရုဏာ":8461,"▁သယံဇာတ":8462,"▁စွယ်စုံ":8463,"▁စကင်ကဲ":8464,"▁စပယ်ယာ":8465,"▁နေကာမျက်မှန်":8466,"▁တောမီးလောင်":8467,"▁ချဉ်းကပ်":8468,"▁ကိုကာကိုလာ":8469,"▁သူရဲကောင်း":8470,"▁တစ်ဆက်တည်း":8471,"▁တစ်ပန်းသာ":8472,"▁တစ်နိုင်တစ်ပိုင်":8473,"▁ရင်ပုံသား":8474,"▁ဒွေးတော်":8475,"▁စိတ်ကြီးဝင်":8476,"▁စိတ်ဝမ်းကွဲ":8477,"▁စိတ်သောက":8478,"▁ကိုယ်ရည်ကိုယ်သွေး":8479,"▁အခိုင်အမာ":8480,"▁အသိမိတ်ဆွေ":8481,"▁လက်ပေါက်ကပ်":8482,"▁စာပိုဒ်":8483,"▁ညဉ့်နက်":8484,"▁ပျာယာခတ်":8485,"▁ရုံးပတွေသီး":8486,"▁ရုံးအမိန့်":8487,"▁အကိုက်အခဲ":8488,"▁သင်္ကေတ":8489,"▁ဂေါ့ဖ်":8490,"▁အထိန်းအသိမ်း":8491,"▁နာမကျန်း":8492,"▁သာသာယာယာ":8493,"▁ဈေးဗန်းခင်း":8494,"▁အကြောင်းအကျိုး":8495,"▁ထွက်ခွါ":8496,"▁သက်ကြီးရွယ်အို":8497,"▁ကြာဇံကြော်":8498,"▁ဘက်ပေါင်းစုံ":8499,"▁ယုံယုံကြည်ကြည်":8500,"▁အသစ်စက်စက်":8501,"▁အောက်တိုဘာ":8502,"▁စစ်အာဏာရှင်":8503,"▁အမှီအခို":8504,"▁တိုက်ဖျက်ရေး":8505,"▁ရန်ပုံငွေ":8506,"▁ဂျာနယ်":8507,"▁အိတ်ခ်ျအာ":8508,"▁ဟိုဟိုဒီဒီ":8509,"▁ပရိုမိုရှင်း":8510,"▁ဂုဏ်သိက္ခာ":8511,"▁ဖက်ခေါင်းအုံး":8512,"▁ဖော်ဖော်ရွေရွေ":8513,"▁ဘုရင့်နောင်":8514,"▁ဆင်ယင်မှု":8515,"▁ခပ်မိုက်မိုက်":8516,"▁လိမ်လိမ်မာမာ":8517,"▁ကန်ဇွန်းဥ":8518,"▁အိတ်ရှ်အာအိုင်အက်စ်":8519,"▁အက်စ်အမ်အက်စ်":8520,"▁ဘိုင်ဝမ်းဂတ်ဝမ်း":8521,"▁ခိုးကြောင်ခိုးဝှက်":8522,"▁နူးနူးညံ့ညံ့":8523,"▁တပူးတွဲတွဲ":8524,"▁ဖေ့ဘွတ်ခ်":8525,"▁မှိုချိုးမျှစ်ချိုး":8526,"▁နှစ်နှစ်ခြိုက်ခြိုက်":8527,"▁ကျန်းကျန်းမာမာ":8528,"ကော":8529,"ကိတ်":8530,"ကရာ":8531,"ကတော်":8532,"ကေ့":8533,"ကော့":8534,"ကပင်":8535,"ကအောက်":8536,"ခရာ":8537,"ငူ":8538,"ငင်":8539,"ငိုင်":8540,"ငုံ့":8541,"ငေါ့":8542,"ငှါး":8543,"စက":8544,"စောင်":8545,"စလို":8546,"စိမ်":8547,"စွယ်":8548,"စွတ်":8549,"စပို့":8550,"စွပ်":8551,"ဆူး":8552,"ဆမ်း":8553,"ဆိန်":8554,"ဆလာ":8555,"ဇန":8556,"ညောင်":8557,"ညဏ်":8558,"တေ":8559,"တွား":8560,"တိန်":8561,"တေ့":8562,"တလည်":8563,"တွင်":8564,"တနိုး":8565,"ထော်":8566,"ထွန်":8567,"ထရိုက်":8568,"ဒီး":8569,"ဒုန်း":8570,"ဒေါင်း":8571,"ဒမီ":8572,"နိုင်း":8573,"နွင်း":8574,"နွဲ့":8575,"ပံ":8576,"ပဆုံး":8577,"ပလီ":8578,"ဖုံ":8579,"ဖလှယ်":8580,"ဗုန်း":8581,"ဘဲ":8582,"ဘင်":8583,"ဘယ်":8584,"ဘုံ":8585,"ဘယာ":8586,"ဘယ်လ်":8587,"မက":8588,"မလို":8589,"မတော်":8590,"မဆောင်":8591,"မသား":8592,"မလဲ":8593,"မတက်":8594,"မပါး":8595,"မရွှင်":8596,"မပူ":8597,"မနား":8598,"မစီး":8599,"မထုတ်":8600,"မကြာ":8601,"မကွက်":8602,"မောင်တ":8603,"မမီ":8604,"မဆန်":8605,"မဆပ်":8606,"မဖွား":8607,"မကွဲ":8608,"မလျှော်":8609,"မကု":8610,"မတည့်":8611,"ယမ်း":8612,"ရုန်း":8613,"ရသမ":8614,"ရွဲ့":8615,"ရဖူ":8616,"လလ":8617,"ဝမ်":8618,"ဝန္တာ":8619,"သသ":8620,"သု":8621,"သွေ":8622,"သော့":8623,"သဘာ":8624,"သပ္ပါယ်":8625,"သွပ်":8626,"သဖာ":8627,"သဘင်":8628,"ဟိုး":8629,"ဟုန်":8630,"အီး":8631,"အိုင်":8632,"အချ":8633,"အဆုံး":8634,"အလုပ်":8635,"အတက်":8636,"အမင်း":8637,"အပြန်":8638,"အလမ်း":8639,"အဆင်":8640,"အမြန်":8641,"အပြင်":8642,"အခိုက်":8643,"အမတ်":8644,"အလင်":8645,"အလွှား":8646,"အမော်":8647,"အရွှေ့":8648,"အယ်လ်":8649,"အလလ":8650,"ဥနီ":8651,"ါတု":8652,"ာ်း":8653,"ာပူ":8654,"ာချေ":8655,"ာအမ်မ်":8656,"ုး":8657,"ုဇန":8658,"ူလာ":8659,"ူလိုင်":8660,"ူစွယ်":8661,"ံပယ်":8662,"့န်":8663,"္တာ":8664,"္ဒါ":8665,"္ခရာ":8666,"ျင်း":8667,"ှဲ့":8668,"▁တလေး":8669,"▁တစိုက်":8670,"▁တခါ":8671,"▁တလျှောက်":8672,"▁တမူ":8673,"▁တဆင့်":8674,"▁တအောင့်":8675,"▁တစေး":8676,"▁တဖွဲ":8677,"▁တဂွီ":8678,"▁တနုံ့":8679,"▁တထစ်ချ":8680,"▁တတွေ":8681,"▁တစိမ့်စိမ့်":8682,"▁တဇွတ်ထိုး":8683,"▁ပရောက်":8684,"▁ပခု":8685,"▁ပလိုက်":8686,"▁ပခုံး":8687,"▁ပလိန်း":8688,"ိုထောင်":8689,"ိုလှောင်":8690,"▁လန်":8691,"▁လပ်":8692,"▁လူး":8693,"▁လချုပ်":8694,"▁လထွက်":8695,"▁လပေါင်း":8696,"▁လဆန်း":8697,"▁လျင်":8698,"▁လမသာ":8699,"င်လည်":8700,"င်ကောင်":8701,"▁မား":8702,"▁မကျ":8703,"▁မခြ":8704,"▁မွတ်":8705,"▁မပျက်":8706,"▁မပျော်":8707,"▁မယား":8708,"▁မတန်":8709,"▁မသိ":8710,"▁မရိုး":8711,"▁မပြောင်း":8712,"▁မကြောက်":8713,"▁မအေးချမ်း":8714,"▁မဆလာ":8715,"ောဖလှယ်":8716,"▁အုတ်":8717,"▁အဘက်":8718,"▁အညွှန်း":8719,"▁အအမ်း":8720,"▁ကွဲ့":8721,"▁ကစီ":8722,"▁ကသိ":8723,"▁ကချင်":8724,"▁ကလိ":8725,"ယ်လီ":8726,"▁ရော်":8727,"▁ရတက်":8728,"▁ရခါ":8729,"ားလွှား":8730,"▁နဲ":8731,"▁နမ်း":8732,"▁နိုက်":8733,"▁နွမ်း":8734,"▁နံ့":8735,"▁သမာ":8736,"▁သရီး":8737,"▁သယောင်":8738,"▁သရေစာ":8739,"▁သွင်ပြင်":8740,"▁သရဖူ":8741,"▁သိုလှောင်":8742,"▁ပါရာ":8743,"▁ပါဆင်":8744,"▁ဘိုး":8745,"▁ဘရိတ်":8746,"▁ဘိုင့်":8747,"▁ဘလူး":8748,"▁ဘဒို":8749,"င်းဆဲ":8750,"▁ခရို":8751,"▁ခွီ":8752,"စ်ထရီ":8753,"စ်တောက်":8754,"▁ပြခန်း":8755,"▁ပြတိုက်":8756,"▁လိုသုံး":8757,"▁လိုတိုရှင်း":8758,"▁စထ":8759,"▁စေး":8760,"▁စလောက်":8761,"▁စိမ့်":8762,"▁စကပ်":8763,"▁စသည်":8764,"▁စတို":8765,"▁စပွ":8766,"▁စပီ":8767,"▁စလွယ်":8768,"▁စတန့်":8769,"▁စပွန်":8770,"▁စတိတ်":8771,"▁စနောက်":8772,"▁တာယာ":8773,"▁မှဲ့":8774,"▁မှိုင်":8775,"▁မှိန်":8776,"▁မှုန်":8777,"ူးအလဲ":8778,"▁ဖု":8779,"▁ဖွ":8780,"▁ဖွဲ":8781,"▁ဖွာ":8782,"▁ဖလှယ်":8783,"▁ဖျာ":8784,"▁နေအေး":8785,"▁နေအိမ်":8786,"▁နေမဝင်":8787,"▁နေမပူ":8788,"ီးနှ":8789,"▁ထု":8790,"▁ထန်":8791,"▁ထန်း":8792,"▁ထွာ":8793,"▁ဆတ်":8794,"▁ဆိပ်":8795,"▁ဆွယ်":8796,"▁ဆေ့":8797,"▁ဆွံ့":8798,"▁ဆလင်ဒါ":8799,"ုံလေ":8800,"ောက်က":8801,"ောက်ချ":8802,"ောက်ကောက်":8803,"▁ဘူးပင်":8804,"▁တောဇီး":8805,"▁ရှူး":8806,"▁မှာစား":8807,"▁ကြို့":8808,"▁ကြောင်တောင်တောင်":8809,"ိုင်လာ":8810,"ိုင်နဲ့":8811,"ချ်":8812,"ချား":8813,"ချော်":8814,"ချတုံ":8815,"န်းမမာ":8816,"ုံးပျ":8817,"ုံးမဝင်":8818,"▁ကိုင်း":8819,"▁ရှိထ်":8820,"▁ပဲကြီး":8821,"▁ပဲများ":8822,"▁ပဲခြမ်း":8823,"▁ပေးဝေ":8824,"▁ပေးဆောင်မှု":8825,"▁ပေးချေး":8826,"▁မယ်မယ်":8827,"▁ဖြည်":8828,"ကြွေ":8829,"ကြုတ်":8830,"မ်းပုံ":8831,"မ်းမြေ့":8832,"▁တစ်သား":8833,"▁တစ်ရက်":8834,"▁တစ်မူ":8835,"▁တစ်ရစ်":8836,"▁တစ်ဘွဲ့":8837,"▁တစ်ထစ်ချ":8838,"▁လိုက်လည်":8839,"▁လိုက်ပတ်":8840,"▁လိုက်ခ်":8841,"▁လုပ်လက်":8842,"▁လုပ်ကွက်":8843,"▁လုပ်စမ်း":8844,"▁လုပ်ထုံး":8845,"▁ရင်သွေး":8846,"▁ရင်တုန်":8847,"▁ရင်ဖုံး":8848,"ပြစ်":8849,"ပြုံး":8850,"ပြူတာ":8851,"ပြူလာ":8852,"▁ဒေး":8853,"▁ဒုတ်":8854,"▁ဒုန်း":8855,"▁ဒင်နာ":8856,"▁ဒရမ်":8857,"▁ဘယ်သန်":8858,"▁ဖြစ်မြောက်":8859,"▁ဖြစ်ရိုး":8860,"▁အလူးအလဲ":8861,"▁လာဘ်":8862,"▁ဝတ္":8863,"▁ဝသီ":8864,"▁ဝတုတ်":8865,"▁ဆိုဖာ":8866,"▁သွားထုတ်":8867,"▁သွားပြင်":8868,"▁သွားဖုံး":8869,"▁ကျို":8870,"▁ကျိုင်း":8871,"▁ကျွန်း":8872,"▁ကျင်လည်":8873,"▁အရံ":8874,"▁ငံ":8875,"▁ငုံ":8876,"▁ငမ်း":8877,"▁ငေါက်":8878,"▁ငှဲ့":8879,"ိုက်တန့်":8880,"▁ဟိမ":8881,"▁လေးဘက်":8882,"▁ထားစရာ":8883,"မှုန်း":8884,"▁ပြောသံ":8885,"▁ပြောမယ်":8886,"▁ဘာ့":8887,"▁ဘာဘီ":8888,"▁ဘာ့ကြောင့်":8889,"ရာအို":8890,"▁လေဖိ":8891,"▁လေလွင့်":8892,"ကျိ":8893,"ကျမ်း":8894,"ကျဉ်":8895,"ကျဆေး":8896,"ကျုံ့":8897,"ကျွံ":8898,"ကျာ်း":8899,"▁အတုံး":8900,"▁အလုပ်တက်":8901,"▁အလုပ်သွား":8902,"▁အလုပ်သွင်း":8903,"▁အလုပ်ပိတ်":8904,"▁အလုပ်ကြမ်း":8905,"▁အလုပ်မဝင်":8906,"▁သိနား":8907,"▁သိပ္":8908,"▁သိတတ်မှု":8909,"ည့်နက်":8910,"စားမှု":8911,"စားသောက်":8912,"စားချေ":8913,"▁စိတ်လေး":8914,"▁စိတ်မာ":8915,"▁စိတ်တူ":8916,"▁စိတ်နှစ်":8917,"▁စိတ်စွဲ":8918,"▁စိတ်လျှော့":8919,"▁စိတ်လော":8920,"▁စိတ်လန်း":8921,"▁စိတ်ခွန်":8922,"▁စိတ်ပြောင်း":8923,"▁စိတ်ထိ":8924,"▁စိတ်ဝေဒနာ":8925,"▁စိတ်အချ":8926,"▁ယင်း":8927,"▁ယတြ":8928,"▁ယွမ်":8929,"▁ယုဇန":8930,"▁ယင်ကောင်":8931,"▁ယိုင်နဲ့":8932,"▁ကောင်းကွက်":8933,"▁ပေါပေါ":8934,"နေနည်း":8935,"ရှေး":8936,"ရှိုး":8937,"ရှောင်":8938,"ရှိန်":8939,"▁အမောင်း":8940,"▁အမိုး":8941,"▁အမွှာ":8942,"▁မလွယ်":8943,"▁လူခံ":8944,"▁လူညာ":8945,"▁လူပြတ်":8946,"▁လူလူ":8947,"▁လူညံ့":8948,"▁လူငှား":8949,"▁လူစွမ်း":8950,"▁လူသိမ":8951,"▁လူကျွံ":8952,"▁အောင်လ":8953,"တာတီး":8954,"▁နှင်း":8955,"▁နှောင်း":8956,"▁နှယ့်":8957,"▁နှံ့":8958,"▁နှအုပ်":8959,"▁နှဗူး":8960,"▁နှီးနှ":8961,"▁ကိုယ်တော်":8962,"▁ကိုယ်ကာ":8963,"▁ကိုယ်စွမ်း":8964,"▁အခံ":8965,"▁အခိုင်း":8966,"▁အခွံ":8967,"▁အခိုက်တန့်":8968,"▁အသတ်":8969,"▁အသောက်အ":8970,"ကြီးလောင်း":8971,"▁အချွဲ":8972,"▁အချိန်း":8973,"▁အချိတ်အ":8974,"▁အားဝင်":8975,"▁အားအား":8976,"▁အားပြု":8977,"▁အားယား":8978,"▁အားသန်":8979,"▁အားပြည့်":8980,"ဦးစွာ":8981,"မှုဆောင်":8982,"▁လက်ပြ":8983,"▁လက်ချက်":8984,"▁လက်တံ":8985,"▁လက်ဆွဲ":8986,"▁လက်စွဲ":8987,"▁လက်သင့်":8988,"▁လက်ချိုး":8989,"▁လက်ချောင်း":8990,"▁လက်ဝယ်":8991,"▁လက်လွတ်":8992,"▁လက်ခတ်":8993,"▁လက်နံ":8994,"▁လက်ဖျား":8995,"▁လက်ညှိုး":8996,"▁လက်စားချေ":8997,"▁ဦးဦး":8998,"▁သေးပေါက်":8999,"▁ပေါ့ဆ":9000,"▁ပေါ့သေး":9001,"▁တို့ဟူး":9002,"▁ကိုယ့်ကိုယ်":9003,"▁စာတင်":9004,"▁စာစု":9005,"▁စာစီ":9006,"▁စာတိုက်":9007,"▁စာမူ":9008,"▁စာမပြန်":9009,"▁ဟုတ်တိ":9010,"▁မိဖု":9011,"ဖြာ":9012,"▁နှစ်လ":9013,"▁နှစ်လို":9014,"▁နှစ်ဖက်":9015,"▁နှစ်ဖွဲ့":9016,"▁ညက်":9017,"▁ညနက်":9018,"▁ညဈေး":9019,"▁ညည့်နက်":9020,"▁မြက်":9021,"▁မြုပ်":9022,"▁မြိန်":9023,"▁ပျဉ်း":9024,"ရေးရာ":9025,"ရေးကတ်":9026,"▁အကြွား":9027,"▁အကြင်နာ":9028,"▁အကြုံးမဝင်":9029,"တော်ယာဉ်":9030,"▁သုံးဆ":9031,"▁သုံးသုံး":9032,"▁ကြီးမြတ်":9033,"▁ဝယ်စရာ":9034,"▁ဝယ်ဖတ်":9035,"▁ဝယ်သောက်":9036,"▁ဝယ်လိုအား":9037,"သာဆုံး":9038,"▁ခုခံ":9039,"▁နောက်တန်း":9040,"▁နောက်ရက်":9041,"▁နောက်ကြော":9042,"▁ထဲထဲ":9043,"▁ရုံးစာ":9044,"▁ရုံးသူ":9045,"▁ရုံးယူ":9046,"▁ရုံးသား":9047,"▁ရုံးလမ်း":9048,"▁ရုံးလစ်":9049,"▁ယူအက်စ်":9050,"▁ယူကျူ":9051,"▁အိပ်ခန်း":9052,"နှပ်":9053,"▁အကင်":9054,"▁အကူး":9055,"▁အက္ခရာ":9056,"▁နေ့ချင်း":9057,"▁နေ့သစ်":9058,"သူဌေး":9059,"▁ရေတက်":9060,"▁ရေဓာတ်":9061,"▁ရေပန်း":9062,"▁ရေခမ်း":9063,"▁ရေပြာ":9064,"▁ရေလျှံ":9065,"▁ရေသပ္ပါယ်":9066,"နေ့ခင်း":9067,"နာကျ":9068,"လေးရှင်း":9069,"လေးတကျ":9070,"မြီး":9071,"▁အပြောင်":9072,"▁နားချ":9073,"▁နားပါး":9074,"▁နားအေး":9075,"▁နားမခံ":9076,"▁နားရှုပ်":9077,"▁နားဖောက်":9078,"▁နားအူ":9079,"▁အိမ်ဈေး":9080,"▁အိမ်လည်":9081,"▁အိမ်ပြင်":9082,"▁အိမ်ပြောင်း":9083,"▁ပိုလျှံ":9084,"လုံးကြီး":9085,"လုံးလုံး":9086,"လာဟာလ":9087,"လာဥနီ":9088,"ဆောင်ခ":9089,"ဆောင်တိုင်":9090,"သားဟင်း":9091,"▁ဒါ့":9092,"▁ဒါ့ကြောင့်":9093,"▁လှေ":9094,"▁လှံ":9095,"▁လှန်":9096,"▁လှန်း":9097,"လောက်လောက်":9098,"▁တက်ဈေး":9099,"▁တက်စရာ":9100,"▁တက်လှမ်း":9101,"မာချိုး":9102,"မာ့ခ်":9103,"▁တောင်ထိပ်":9104,"ဈေးတန်း":9105,"▁ဗန်း":9106,"▁ဗလောင်":9107,"▁ဂိုး":9108,"▁ဂိုထောင်":9109,"▁တွေ့တွေ့":9110,"▁တွေ့ကရာ":9111,"▁အများသား":9112,"▁အများသုံး":9113,"▁အများအားဖြင့်":9114,"▁အစဖော်":9115,"▁အစိုင်အ":9116,"▁အစပျိုး":9117,"▁အစအဆုံး":9118,"▁အထောင်း":9119,"▁ဖုန်းလိုင်း":9120,"▁ဖုန်းဆင်း":9121,"▁တကောက်ကောက်":9122,"မဲ့တော":9123,"▁စီရင်":9124,"▁ဝင်ကြေး":9125,"▁ဝင်ရိုက်":9126,"▁ဝင်တိုက်":9127,"▁ဝင်ပြိုင်":9128,"▁ဝင်ဖြေ":9129,"▁ဝင်လု":9130,"▁နာယူ":9131,"ချင်းဆိုင်":9132,"ချင်းကပ်":9133,"▁ချစ်ဆုံး":9134,"▁ချစ်မကြီး":9135,"▁ငွေရှာ":9136,"▁ငွေထည်":9137,"▁မျိုးစိတ်":9138,"▁မျိုးကွဲ":9139,"▁ဝန်လေး":9140,"▁ခင်တွယ်":9141,"▁ခင်မောင်တ":9142,"▁ဘဝကြီး":9143,"▁ဘဝပေး":9144,"▁ဘဝနေနည်း":9145,"▁လျှံ":9146,"▁သာလွန်":9147,"▁ဈေးသင့်":9148,"▁ဈေးတန်တန်":9149,"ွင်းမချ":9150,"▁ထိပါး":9151,"▁ဆိုင်ထိုင်":9152,"▁ဘယ်လောက်လောက်":9153,"မှတ်တမ်း":9154,"▁ကုန်တိုက်":9155,"▁ကုန်ချော":9156,"▁ကုန်ခမ်း":9157,"လုပ်နည်း":9158,"▁ပုံချ":9159,"▁ပုံကူး":9160,"▁ပုံရိပ်":9161,"▁ပုံတုံး":9162,"▁ရက်ရှည်":9163,"▁ရက်ကော":9164,"▁အကြောင်းစုံ":9165,"▁အကြောင်းဖန်":9166,"▁အကြောင်းကိစ္စ":9167,"▁ပိုက်ဆံပြတ်":9168,"▁အင်စတော့":9169,"▁မီးဖြတ်":9170,"▁မီးကြိုး":9171,"▁မီးကျွမ်း":9172,"▁မီးခွက်":9173,"▁မီးမဖွား":9174,"▁နေရာချ":9175,"▁တစ်ခုလပ်":9176,"▁စကားဝိုင်း":9177,"▁စကားထစ်":9178,"▁ထွက်စာ":9179,"▁ထွက်သက်":9180,"ဝင်ဝင်":9181,"▁သက်ရှိ":9182,"▁တင်မြောက်":9183,"▁သဘောမထား":9184,"▁သဘောသဘာ":9185,"▁ကြာပန်း":9186,"▁ကြာချိန်":9187,"▁ကြာအင်း":9188,"▁ဆေးပူ":9189,"▁ဆေးဖက်":9190,"▁ဆေးမပေး":9191,"▁ဆေးဖျန်း":9192,"▁ဆေးဘဲ":9193,"▁ဆေးမကု":9194,"▁ဆေးမှတ်တမ်း":9195,"▁ဝန်ထမ်းရေးရာ":9196,"▁အရင်ဦးဆုံး":9197,"▁ကားပျက်":9198,"▁ကားမစီး":9199,"▁ရှာလကာ":9200,"▁မျက်လှ":9201,"▁မျက်ကြည်":9202,"▁မျက်ခြေ":9203,"▁အကျဆုံး":9204,"များများ":9205,"တန်းမကျ":9206,"ရင်းပေါင်း":9207,"ယာကြိုး":9208,"ရောက်ဆုံး":9209,"▁ဖူးဖူး":9210,"▁လုပ်ငန်းစု":9211,"▁လမ်းရှင်း":9212,"▁လမ်းပန်း":9213,"▁လမ်းကြော":9214,"▁ကျေးဇူးကန်း":9215,"▁ပို့သ":9216,"▁စီးရီး":9217,"▁စီးစီး":9218,"▁စီးတီး":9219,"▁ရောင်းထုတ်":9220,"▁ရောင်းမကောင်း":9221,"▁အသက်ဝင်":9222,"▁အသက်သာဆုံး":9223,"ငံ့":9224,"ငံစပ်":9225,"▁ရေးဖွဲ့":9226,"▁ထုတ်နည်း":9227,"▁ထုတ်ခွင့်":9228,"▁ထုတ်ထုတ်":9229,"▁ထုတ်လွှတ်":9230,"▁ထုတ်သုံး":9231,"▁ထုတ်ပယ်":9232,"▁ထုတ်လွှင့်":9233,"ညီထွေ":9234,"▁အမြဲမပြတ်":9235,"▁ပတ်သတ်":9236,"▁ပတ်စပို့":9237,"▁ချက်ခြင်း":9238,"▁တန်ပြန်":9239,"▁တန်ဆာ":9240,"▁တန်ဆောင်တိုင်":9241,"▁ကြားဖြတ်":9242,"▁ကြားဖူး":9243,"သက်သက်":9244,"မြင်သာ":9245,"▁ပေါ်ပြူလာ":9246,"▁ငါးစာ":9247,"▁ငါးဆယ့်":9248,"▁ငါးမျှ":9249,"▁ငါးခြောက်":9250,"▁ခဏတစ်":9251,"ဗျုး":9252,"▁မြင်ရောင်":9253,"▁ဖြေလျှော့":9254,"▁ဖြေလျော့":9255,"▁သတိလစ်":9256,"▁အာပူ":9257,"▁အာပေါက်":9258,"▁အာကာ":9259,"▁အာဝါ":9260,"ဆက်သွယ်":9261,"▁မှန်မကွဲ":9262,"▁ဆီထမင်း":9263,"▁ထပ်ဆောင်း":9264,"▁ပိတ်ပင်":9265,"▁ပိတ်ဆို့":9266,"▁ခေါင်းစား":9267,"▁ခေါင်းမာ":9268,"▁ခေါင်းပူ":9269,"▁ခေါင်းလိမ်း":9270,"▁ခေါင်းငုံ့":9271,"▁ခေါင်းမလျှော်":9272,"▁ခေါင်းရှောင်":9273,"လက်ပတ်":9274,"▁အန္တာ":9275,"▁အေးတိ":9276,"▁လျှောက်လုပ်":9277,"▁လျှောက်ထား":9278,"▁လျှောက်လျှောက်":9279,"▁လျှောက်ဝယ်":9280,"လှေ":9281,"လှိုင်း":9282,"▁သားကြီး":9283,"▁သားငယ်":9284,"▁နိုင်ငံတော်":9285,"ပါးအေး":9286,"▁တိုးရင်းပေါင်း":9287,"▁ဖွင့်ဟ":9288,"▁ဖွင့်ပြ":9289,"▁ဖွင့်ထုတ်":9290,"▁ကြောက်စရာ":9291,"▁ကြောက်စိတ်":9292,"▁ပြင်ဆိုင်":9293,"▁ဆရာတော်":9294,"ရည်ယို":9295,"▁အကောင်းသား":9296,"ကျင်ဆုံး":9297,"▁ဝမ်းလျှော":9298,"▁ထမင်းဖိုး":9299,"▁ထမင်းရည်":9300,"▁ထမင်းနပ်":9301,"▁ထမင်းဆာ":9302,"▁ထမင်းကျွေး":9303,"▁ထမင်းဟင်း":9304,"▁ထမင်းသုပ်":9305,"▁ထမင်းဖြူ":9306,"▁သင်တန်းချိန်":9307,"▁အောက်သွား":9308,"▁အောက်စီ":9309,"▁အောက်တန်းမကျ":9310,"▁မိုးကြိုး":9311,"▁မိုးပြာ":9312,"▁မိုးသည်း":9313,"ငွေယူ":9314,"▁ဖတ်စာအုပ်":9315,"▁မှန်းဆ":9316,"▁မြန်မာမုန့်":9317,"▁မျှမျှတ":9318,"▁အခြေချ":9319,"▁အခြေပြု":9320,"အေးစက်":9321,"▁ကျန်ရှိ":9322,"ဂျူ":9323,"▁ဆုံးခန်း":9324,"▁အနေထား":9325,"▁အနေများ":9326,"ဒါး":9327,"စုံစုံ":9328,"ရွှင်ဆုံး":9329,"ရွှင်လန်း":9330,"▁အကျိုးတူ":9331,"▁အကျိုးယုတ်":9332,"▁အကျိုးဆောင်ခ":9333,"▁ရယ်ရယ်":9334,"▁မုန့်တီ":9335,"▁မုန့်ဆမ်း":9336,"▁ပျက်သု":9337,"▁အမျိုးတော်":9338,"▁ကာရာအို":9339,"▁ပင်မ":9340,"▁ကောင်မ":9341,"▁အပြင်အဆင်":9342,"ဆယ်ရေး":9343,"▁ပစ္စည်းစစ်":9344,"▁တန်ဖိုးကျ":9345,"▁တန်ဖိုးမဲ့":9346,"▁တန်ဖိုးတက်":9347,"▁ကျောင်းဆင်း":9348,"▁ကျောင်းစရိတ်":9349,"▁ကျောင်းပြေး":9350,"▁ကျောင်းလခ":9351,"▁စစ်ခွင့်":9352,"▁စစ်မေး":9353,"▁စစ်တိုက်":9354,"▁စစ်တပ်":9355,"▁အစ်ကိုကြီး":9356,"နီဖောင်း":9357,"▁စာအုပ်စင်":9358,"▁ဝတ်ဝတ်":9359,"သွားလမ်း":9360,"▁တစ်ယောက်အိပ်":9361,"လျှာပူ":9362,"▁အသံဖျောက်":9363,"▁ကူညီမှု":9364,"▁ကိုယ်တိုင်ကိုယ်":9365,"▁စာရင်းတင်":9366,"▁စာရင်းရှင်း":9367,"▁စာရင်းကောက်":9368,"▁ကြိုရောက်":9369,"▁ကြိုပြော":9370,"▁အလှပဆုံး":9371,"▁ငယ်သူငယ်":9372,"ကိုင်ပုံ":9373,"▁ပူဆာ":9374,"▁ပူပန်မှု":9375,"ဖြတ်မှု":9376,"▁ရပ်နား":9377,"▁စုစောင်း":9378,"▁သူငယ်တန်း":9379,"▁အင်တာဗျုး":9380,"▁ရုပ်တူ":9381,"▁ရုပ်ထွက်":9382,"▁ရုပ်တည်":9383,"▁ရုပ်သေး":9384,"▁ရုပ်ကြမ်း":9385,"▁ရုပ်ရင့်":9386,"▁ရုပ်တည်တည်":9387,"▁ရုပ်ဝတ္ထု":9388,"▁ရာထူးကြီး":9389,"▁ကော်ပို":9390,"နားဝ":9391,"နားကပ်":9392,"▁ဘာသာမပြန်":9393,"▁သတင်းပေါက်":9394,"လမ်းကြောင်း":9395,"▁အစားမ":9396,"▁မကြီးကြီး":9397,"▁ခရီးဆုံး":9398,"▁ခရီးသည်":9399,"▁အခွင့်ရေး":9400,"▁အခွင့်သင့်":9401,"▁အော်ခေါ်":9402,"▁အော်တို":9403,"▁အော်ဂဲ":9404,"▁ထိုင်မသိမ်း":9405,"▁ထိုင်ဝမ်":9406,"▁မွေးစာရင်း":9407,"▁မွေးရာပါ":9408,"▁စီးပွားရှာ":9409,"▁များများစားစား":9410,"▁မျက်နှာပန်း":9411,"▁မျက်နှာပုံ":9412,"▁မျက်နှာလိုက်":9413,"▁မျက်နှာသုတ်":9414,"▁မျက်နှာချင်းဆိုင်":9415,"▁ဆုလာဒ်":9416,"ပေါက်ပေါက်":9417,"▁ပြဿဒါး":9418,"▁အတွင်းခံ":9419,"▁လိုင်းပျက်":9420,"▁အပြစ်မမြင်":9421,"▁လျှော့တွက်":9422,"▁ကျော်လွန်":9423,"▁လွှားလွှား":9424,"▁စိုးမိုး":9425,"▁စိုးရွံ့":9426,"▁ဂျီး":9427,"▁ဂျီအ":9428,"▁ဂျယ်လီ":9429,"▁ဂျမ်းပုံ":9430,"▁ဆယ့်ခြောက်":9431,"▁ဆယ့်ကိုး":9432,"သီးသန့်":9433,"▁စက်လှေ":9434,"▁တည်ခင်း":9435,"▁ဇစ်":9436,"▁ဇကာ":9437,"▁ဇူလိုင်":9438,"▁ဇောက်ချ":9439,"▁မေဂျာ":9440,"▁မေမြို့":9441,"▁မီတင်ချိန်":9442,"▁အရည်ပျော်":9443,"▁အရည်ရွှ":9444,"▁စည်းစည်း":9445,"▁စည်းဘောင်":9446,"▁စည်းနှောင်":9447,"ဆင်လက်":9448,"ဆင်ဆင်":9449,"▁သတ်ဖြတ်မှု":9450,"▁ခြောက်ခြား":9451,"▁ခြောက်ကပ်":9452,"▁ခြောက်သောင်း":9453,"▁ရှောင်ထွက်":9454,"▁ရိုးမ":9455,"▁ဖြတ်ကူး":9456,"▁ဖြတ်ထိုး":9457,"▁ဖြတ်လျှောက်":9458,"▁စိတ်ချမ်းမြေ့":9459,"▁တိုင်ပြော":9460,"▁ဆွဲခေါ်":9461,"▁ဆွဲဆွဲ":9462,"▁ဆွဲဆန့်":9463,"▁ဆွဲငင်":9464,"▁ရွေးချယ်ပွဲ":9465,"▁တရားခံ":9466,"▁တရားပေါက်":9467,"▁ပထမဦးစွာ":9468,"▁ခေတ္တ":9469,"▁အိတ်ဖောင်း":9470,"▁အဖြုန်း":9471,"▁ဆယ်ချီ":9472,"▁ခေတ်ပညာ":9473,"▁ကိုင်ဆောင်မှု":9474,"▁အာရုံလွင့်":9475,"▁နီးရာ":9476,"ရပ်ဝန်း":9477,"▁အကြွေးပေး":9478,"▁အကြွေးနစ်":9479,"▁ရဲတိုင်":9480,"ရဲရဲ":9481,"▁ဖြည့်သွင်း":9482,"▁ဖြည့်တွေး":9483,"ရှားပါးပါး":9484,"▁အထိနာ":9485,"▁အထိအခိုက်":9486,"▁အထိရောက်ဆုံး":9487,"ပိုင်ရှင်":9488,"▁ကော်ဖီစေ့":9489,"▁ရှစ်သောင်း":9490,"▁ပေါက်စ":9491,"▁ပစ်မထုတ်":9492,"မည်ရရ":9493,"▁မိတ်ပျက်":9494,"▁အကျင့်ဆိုး":9495,"▁ကြက်ဆီ":9496,"▁ကြက်တောင်":9497,"▁အတွေးလွန်":9498,"ဝေဂ":9499,"▁အရှင်း":9500,"▁ရိုက်ချက်":9501,"▁ရိုက်ပေါက်":9502,"▁ရိုက်ထုတ်":9503,"▁ရိုက်နှိပ်":9504,"▁ဘောပွဲ":9505,"▁စုံစုံ":9506,"▁အချစ်ကား":9507,"▁အချစ်စမ်း":9508,"▁အချစ်ရူး":9509,"▁ဘေးပတ်":9510,"▁ဘေးဆွဲ":9511,"▁ဘေးအိမ်":9512,"▁ဘေးအန":9513,"▁ဘေးဘယာ":9514,"▁ဘေးမဲ့တော":9515,"▁ဘေးချင်းကပ်":9516,"▁ဆံရှည်":9517,"▁ဆံထုံး":9518,"▁အကြံကောင်း":9519,"စိတ်ယုတ်":9520,"▁မင်ဖျက်":9521,"▁စီစဉ်ဆောင်ရွက်":9522,"▁ဟင်းကျက်":9523,"▁ဟင်းလျ":9524,"နှစ်အလလ":9525,"▁အဆင့်မြှင့်":9526,"▁သစ်သီး":9527,"▁ပြေပျောက်":9528,"▁ပြေပြစ်":9529,"▁ပုံစံတူ":9530,"ဘာဂါ":9531,"▁စာချုပ်သမား":9532,"▁စိတ်မလုံ":9533,"▁အသားကျ":9534,"▁အသားကုန်":9535,"▁အသားရည်":9536,"▁အသားရောင်":9537,"▁အထူးတလည်":9538,"▁ဝါဝင်":9539,"▁ဝါဒီ":9540,"▁ဝါတွင်း":9541,"▁ဝါကျွတ်":9542,"▁ဝါခေါင်":9543,"▁ပွဲကြည့်":9544,"▁ယောက်ျားမဆန်":9545,"▁ပြင်ဆင်ရေး":9546,"▁နယ်စပ်":9547,"▁နယ်ချဲ့":9548,"▁စိတ်ညစ်မှု":9549,"▁နေ့လည်နေ့ခင်း":9550,"▁ရန်ကုန်မြို့":9551,"▁ဆံပင်ပေါင်း":9552,"▁ပန်းပင်":9553,"▁ပန်းခြံ":9554,"▁ပန်းခူး":9555,"▁မူးနောက်":9556,"▁မူးရူး":9557,"▁ဘဏ်စာအုပ်":9558,"▁ဘဏ်စာရင်း":9559,"▁ဘဏ်ကဒ်":9560,"ပတ်တိ":9561,"▁ချေးငှါး":9562,"▁စီအာအမ်မ်":9563,"▁ပြောင်းလဲမှု":9564,"▁ဥာဏ်":9565,"▁ရီမော":9566,"▁ရီလေးရှင်း":9567,"▁ခေါက်မုန့်":9568,"▁ပြုံးပျော်":9569,"▁ပြုံးဖြီး":9570,"▁ပြုံးစိစိ":9571,"စောစော":9572,"▁ဖက်စ်စ":9573,"▁ဖက်ထုပ်":9574,"▁ဖက်ထမင်း":9575,"▁မြို့လည်ခေါင်":9576,"▁မေတ္တာပို့":9577,"တံတား":9578,"▁လုံချည်":9579,"▁ဘွဲ့ယူ":9580,"▁ချမ်းသာမှု":9581,"▁အကြီးပိုင်း":9582,"▁ဆွေးနွေးမှု":9583,"ချမ်းမှု":9584,"▁ဖိသံ":9585,"▁ဖိဘက်ခ်":9586,"▁အတော်လေး":9587,"▁ကပ်ရပ်":9588,"▁ကပ်ဘေး":9589,"▁ဖော်ထုတ်":9590,"▁သံလမ်း":9591,"▁သံတောင်":9592,"▁သံအမတ်":9593,"▁သံဝေဂ":9594,"▁တင်းနစ်":9595,"▁တပ်ဖွဲ့":9596,"▁ဆင်မြန်း":9597,"ခ်ဒေါင်း":9598,"▁ပြတ်တောင်း":9599,"▁ပြတ်စဲ":9600,"▁နှုတ်တိုက်":9601,"ဆာလှုံ":9602,"▁အပိုပစ္စည်း":9603,"▁နားမယောင်":9604,"ပြည်နယ်":9605,"▁အလေးနက်":9606,"▁ဝေဖာ":9607,"▁အလှူကောက်":9608,"▁ဒုက္ခမရောက်":9609,"ဝါ့ခ်":9610,"▁အိုင်ဒီ":9611,"▁အိုင်ဖုန်း":9612,"▁အိုင်အီး":9613,"▁ဓာတ်ရောင်":9614,"▁ဓာတ်မီး":9615,"▁ဓာတ်မှန်ရိုက်":9616,"▁ဓာတ်မတည့်":9617,"▁အစာကြေ":9618,"▁အစာရေစာ":9619,"▁ရွာချ":9620,"▁ထောက်ထား":9621,"▁လက်ဖက်နှပ်":9622,"▁လေးစားစွာ":9623,"▁သဘာဝကျကျ":9624,"သပ်သပ်":9625,"အာပီ":9626,"အာဇီ":9627,"▁ကောလိပ်":9628,"▁ကောရက်ရှင်":9629,"▁ကောလာဟာလ":9630,"▁ဖောက်ဖျက်":9631,"က်စ်အမ်":9632,"▁အရင်းနှီး":9633,"▁ဆောင်ရွက်မှု":9634,"▁ဆောင်ရွက်ချက်":9635,"▁ဘုရားဆွမ်း":9636,"▁ခပ်ရိုး":9637,"▁ခပ်ပေါ့":9638,"▁ခပ်သိမ်း":9639,"▁ခပ်ရင့်":9640,"▁ခပ်လှုပ်":9641,"▁ခပ်မာမာ":9642,"▁ခပ်တင်းတင်း":9643,"▁ခပ်စောစော":9644,"▁ရှင်သန်ချိန်":9645,"▁ရှင်သန်ခွင့်":9646,"▁မိုက်လုံးကြီး":9647,"▁ကေဘယ်လ်":9648,"▁ရင့်ထော်":9649,"▁အခွန်ခ":9650,"▁အခွန်ဖြတ်":9651,"▁အခွန်ကောက်":9652,"▁အခွန်ရုံး":9653,"▁အိပ်မငိုက်":9654,"ဆီလွှာ":9655,"အကျဉ်း":9656,"▁ကိုဗစ်ရောဂါ":9657,"▁အမြတ်တနိုး":9658,"▁ဓါတု":9659,"▁အအေးတိုက်":9660,"▁ရှားစောင်း":9661,"▁အသေးစိပ်":9662,"▁မကြာမီ":9663,"▁မကြာမကြာ":9664,"▁အိပ်ရာပြင်":9665,"▁လိမ်ပြော":9666,"▁ကွန်ဒို":9667,"▁ကွန်ယက်":9668,"▁ကွန်ပြူတာ":9669,"▁ပုဆိုး":9670,"▁ပုသိမ်":9671,"▁ပုဆိန်":9672,"▁ဇာတ်ပို့":9673,"▁ဇာတ်ကောင်":9674,"▁ရိုးသားသူ":9675,"▁ရိုးသားစွာ":9676,"▁ဒဏ်ခံ":9677,"▁ဒဏ်ခတ်":9678,"▁ပြေးမြင်":9679,"▁ပြေးထွက်":9680,"▁ပြေးဆွဲ":9681,"▁ပြေးလွှား":9682,"▁အမှိုက်စ":9683,"▁အမှိုက်အိတ်":9684,"▁မုန်းတီး":9685,"▁နေပူဆာလှုံ":9686,"▁ဆန်အိုး":9687,"▁အသုံးပြုမှု":9688,"ဘီဘီ":9689,"▁အလိုက်သင့်":9690,"ရိုးကျ":9691,"▁အပူနာ":9692,"▁အပူပင်":9693,"▁အပူလောင်":9694,"▁သက်ဆိုင်မှု":9695,"▁ဖိနပ်ချွတ်":9696,"▁ကမ္ဘာမြေ":9697,"ရေစီ":9698,"▁လွဲချော်":9699,"▁လိပ်ခေါင်း":9700,"▁သွေးအေး":9701,"▁သွေးပူ":9702,"▁သွေးဆင်း":9703,"▁သွေးစည်း":9704,"▁သွေးချို":9705,"▁အနာကျက်":9706,"▁အနာတရ":9707,"▁ခြေမ":9708,"▁ခြေချ":9709,"▁ခြေထိုး":9710,"▁ခြေဖျား":9711,"▁မွေးနေ့လက်ဆောင်":9712,"▁ပေပါ":9713,"▁ရှည်လျား":9714,"▁အပျောက်":9715,"▁ယူနီကုတ်":9716,"▁ပြုလုပ်မှု":9717,"▁ခရီးသွားလာ":9718,"▁အဆုံးရှုံး":9719,"▁မင်္ဂလာဈေး":9720,"▁နက်နဲ":9721,"▁နက်ဝါ့ခ်":9722,"▁ချုပ်ခ":9723,"တိုးတက်":9724,"မားရေး":9725,"မားကတ်":9726,"▁ကစားဝိုင်း":9727,"▁ရှုပ်ပွ":9728,"▁အလုပ်အမှုဆောင်":9729,"▁အားမလို":9730,"▁အားမရှိ":9731,"▁အားမလျှော့":9732,"▁အားမလိုအား":9733,"▁မိတ်ဆွေဖွဲ့":9734,"မဲမဲ":9735,"▁ရွှီး":9736,"▁ထမ်းပိုး":9737,"▁ဗီဒို":9738,"▁ဗီနိုင်း":9739,"▁နေ့လယ်ပိုင်း":9740,"မိုးထပ်":9741,"▁ကူးယူ":9742,"▁ကူးထည့်":9743,"▁အပြောင်းအရွှေ့":9744,"▁အနံ့ပြင်း":9745,"▁စိုက်ကြည့်":9746,"▁စိတ်ပူပန်":9747,"▁အချိန်ပိုင်းအလုပ်":9748,"စွာဘု":9749,"▁မောင်းချ":9750,"▁မောင်းထုတ်":9751,"▁ပြည်နယ်":9752,"▁အရပ်ဒေသ":9753,"▁တည်ဆောက်ပုံ":9754,"▁ဥပဓိ":9755,"▁ဦးစားပေးမှု":9756,"▁ကန်ထရိုက်":9757,"▁နံပါတ်စဉ်":9758,"▁ပါးဖောင်း":9759,"▁ပါးချိုင့်":9760,"▁ဆူဆူ":9761,"▁အရက်ဆိုင်":9762,"▁အရက်မူး":9763,"▁အဓိပ္ပါယ်ရ":9764,"▁အပြစ်တင်မှု":9765,"▁ဂုဏ်ယူစရာ":9766,"ဟင်းချို":9767,"▁ကင်းစင်":9768,"▁အိပ်မက်ကြီး":9769,"▁အဝေးပြေး":9770,"▁ရှက်စရာ":9771,"▁အလွန်အမင်း":9772,"▁သက်တမ်းကုန်":9773,"▁သက်တမ်းစေ့":9774,"▁ယောင်ချာချာ":9775,"▁ကွန်ပျူတာခန်း":9776,"▁ကွန်ပျူတာဘွဲ့":9777,"▁နံပြား":9778,"▁သီးသီးသန့်":9779,"▁ဘေထုပ်":9780,"▁ရှုံးမဲမဲ":9781,"▁ယာထွန်":9782,"▁တက္ကဆီ":9783,"▁မျက်စိကြောင်":9784,"▁မျက်စိမှိတ်":9785,"▁တန်ဖိုးထားမှု":9786,"▁လိုင်းကားခ":9787,"▁မောဟ":9788,"▁ဘတ်ငွေ":9789,"▁ကြေမွ":9790,"▁ဖျက်စီး":9791,"▁လူ့ဘောင်":9792,"▁မရမက":9793,"▁လုပ်ကိုင်စားသောက်":9794,"▁အကြမ်းဆုံး":9795,"▁အကြမ်းခဲ":9796,"▁တောင်းဆိုမှု":9797,"▁တောင်းဆိုချက်":9798,"▁လက်ဖက်ရည်ဖိုး":9799,"▁အီးဗ":9800,"▁အီးအာပီ":9801,"▁ချိန်ညှ":9802,"▁ကျက်စား":9803,"▁ပြောဆိုမှု":9804,"▁မိတ္ထီ":9805,"▁ဖုန်းခေါ်သံ":9806,"▁မှန်ကန်စွာ":9807,"▁ကြက်ဥဟင်း":9808,"▁ကြက်ဥချဉ်":9809,"▁ဂျပန်ပြည်":9810,"▁တိုတောင်း":9811,"▁ဝိုင်းထု":9812,"▁ဝိုင်းဖွဲ့":9813,"▁နှိုးဆော်":9814,"▁မြှုပ်နှံ":9815,"▁မြှူစွယ်":9816,"▁ဆိုင်ကယ်သမား":9817,"▁ဖိတ်ကြား":9818,"▁ဝိုင်ယာကြိုး":9819,"▁နှာရည်ယို":9820,"▁ဝိတ်မတက်":9821,"▁ကျပ်ဖိုး":9822,"▁ကျပ်တည်း":9823,"▁တားဂတ်":9824,"▁မှတ်တမ်းစာအုပ်":9825,"▁အက်ဖ်":9826,"▁သယ်ယူ":9827,"▁သယ်လာ":9828,"▁ဒီဇယ်":9829,"▁အနိုင်ရ":9830,"▁အနိုင်နိုင်":9831,"ရိက်":9832,"ရံခါ":9833,"▁နုနယ်":9834,"▁ခွေးစိတ်":9835,"▁ခွေးအူ":9836,"▁အမည်ပေါက်":9837,"ဆိတ်ဆိတ်":9838,"ဖန်ရံခါ":9839,"▁ကြည်ညို":9840,"▁အသီးကင်း":9841,"▁ရေခဲရည်":9842,"▁ရေခဲခြစ်":9843,"▁ခွဲခြားမှု":9844,"မတ်မတ်":9845,"▁အမှုထမ်း":9846,"▁စရိတ်စက":9847,"▁ဧည့်ခန်း":9848,"▁ဧည့်ဝတ်":9849,"▁မည်မည်ရရ":9850,"▁အနှောင်း":9851,"▁အနှုတ်":9852,"▁ရောင်းချခွင့်":9853,"▁တိကျမှု":9854,"တပ်စ်":9855,"▁စာရေးမ":9856,"▁စာရေးသူ":9857,"▁မှတ်ပုံတင်နံပါတ်":9858,"▁ကျားကွက်":9859,"▁ကျားထိုး":9860,"▁ဂိမ်းကစား":9861,"▁ထူးချွန်ဆု":9862,"▁တီလေး":9863,"▁သေသေသပ်သပ်":9864,"လစ်အက်":9865,"▁ရူးခါ":9866,"▁ရူးကြောင်ကြောင်":9867,"▁ရူးသွပ်":9868,"▁ကြမ်းကြုတ်":9869,"▁ချော့သိပ်":9870,"▁သန်လျင်":9871,"▁ချိုးဖောက်":9872,"▁အကြံပေးချက်":9873,"▁ယာဉ်မောင်းလိုင်စင်":9874,"ပီတီ":9875,"ပီဒီး":9876,"▁စည်ပင်":9877,"▁စိတ်ရှည်ရှည်":9878,"▁စားသောက်မှု":9879,"▁ခြင်သံ":9880,"ခြောက်ခြား":9881,"▁အခွန်ဆောင်သူ":9882,"▁အုပ်အုပ်":9883,"▁ထီးဆောင်း":9884,"▁မြေပြင်":9885,"▁မြေဆီလွှာ":9886,"▁ဗီဇာကဒ်":9887,"▁အမျှင်":9888,"▁စွန့်ပစ်မှု":9889,"▁စွန့်ပစ်ရေး":9890,"▁တစ်သက်လုံး":9891,"▁အဆက်အစပ်":9892,"▁မိုးအေးအေး":9893,"▁ခါးဖက်":9894,"▁ကြော်ငြာခ":9895,"▁မျက်ရည်မကျ":9896,"▁မျက်ရည်ဝဲ":9897,"▁ကုသိုလ်ကံ":9898,"▁စင်ကြယ်":9899,"▁ချေဖျက်":9900,"▁ချေမှုန်း":9901,"▁စိတ်အေးချမ်းမှု":9902,"▁အစုံအလင်":9903,"▁အဖိုးကြီး":9904,"▁အသိအမှတ်ပြုမှု":9905,"▁သင်္ကြန်ရက်":9906,"ပုဒ်":9907,"ပုပု":9908,"▁ပန်ကြား":9909,"▁တယ်လီဖုန်း":9910,"▁အရွက်သုပ်":9911,"▁လေယာဉ်စီး":9912,"▁လေယာဉ်ကွင်း":9913,"▁ခင်မင်ရင်းနှီး":9914,"▁ငြိမ်းငြိမ်း":9915,"▁ချီးကျူးမှု":9916,"ပတိန်":9917,"လန်းဆန်း":9918,"▁တိပ်ပိတ်":9919,"▁အင်းလေး":9920,"▁ဘီသဖာ":9921,"▁ဆောင်းဦး":9922,"▁ဆောင်းခို":9923,"▁ချည်နှောင်":9924,"▁ဝဋ်လိုက်":9925,"▁အလုပ်ဝင်စ":9926,"▁ဈေးဝယ်ထွက်":9927,"▁ထုတ်လုပ်ရေး":9928,"▁တာဝန်ကျေပွန်":9929,"▁ထောက်ပံ့မှု":9930,"▁အားမနာတမ်း":9931,"▁အံ့ဖွယ်":9932,"▁သစ္စာတရား":9933,"▁ခိုးရာပါ":9934,"▁တစ်ချိန်လုံး":9935,"▁ကျောရိုး":9936,"▁ကျောခိုင်း":9937,"▁မြတ်စွာဘု":9938,"ခြံမြေ":9939,"▁မီးပုံးပျ":9940,"▁အာဏာပြ":9941,"▁အာဏာသိမ်း":9942,"▁ခေါက်ဆွဲကြော်":9943,"▁ရွှေချ":9944,"▁ရွှေကျင်":9945,"▁ရွှေရောင်":9946,"▁ရွှေတံဆိပ်":9947,"▁ရွှေနားကပ်":9948,"▁သီတင်းကျွတ်ပွဲ":9949,"▁လေလံဆွဲ":9950,"▁မြဲမြဲ":9951,"▁ဆင်ခြေဆင်လက်":9952,"▁အားကစားသမား":9953,"▁ညှိနှိုင်းမှု":9954,"▁လက်မလျှော့":9955,"▁ဘောလုံးကန်":9956,"▁နှာခေါင်းနှိုက်":9957,"▁မီးပလပ်ခုံ":9958,"▁နောင်ရေး":9959,"▁နောင်တော်":9960,"▁အပျော်ကြံ":9961,"▁အပျော်ရွှင်ဆုံး":9962,"▁လှည်းကူး":9963,"▁အံ့ဩဖွယ်":9964,"▁အချဉ်သုပ်":9965,"▁မြည်းစမ်း":9966,"▁ဂိတ်ဆုံး":9967,"▁လမ်းညွန်":9968,"▁မုန်လာဥနီ":9969,"▁အိုးဖုတ်":9970,"▁ဖျောက်ပစ်":9971,"▁ကျောက်ကပ်":9972,"▁ကျောက်ရောဂါ":9973,"▁ကျောက်စိမ်း":9974,"▁ကျောက်မြောင်း":9975,"▁ပေါ့ပါးလန်းဆန်း":9976,"▁ဂုဏ်ပြုစကား":9977,"▁ကြေညာချက်":9978,"▁အူတက်":9979,"▁အူရောင်":9980,"▁အူမကြီး":9981,"▁အူဒူး":9982,"▁အူလည်လည်":9983,"▁အူအတက်":9984,"▁အူလမ်းကြောင်း":9985,"▁ခိုင်ခိုင်":9986,"▁ဖောင်တင်":9987,"▁ဖောင်ဖွဲ့":9988,"▁ရှော့ပ်":9989,"▁ချွေးပေါက်":9990,"▁ရင်ခုန်သံ":9991,"▁အလည်ရောက်":9992,"▁ကျရှုံးသူ":9993,"▁ညွှန်ပြ":9994,"▁ဂွတ်နိုက်":9995,"▁အနီးအနား":9996,"▁ပြည့်ပြည့်စုံစုံ":9997,"▁ပျိုးထောင်မှု":9998,"▁ရွှင်မြူး":9999,"▁ရွှင်ရွှင်လန်း":10000,"▁ဆားခါး":10001,"▁ဖြန့်ဖြူး":10002,"▁ငပိချက်":10003,"▁အိပ်ရှ်အာပိုင်း":10004,"▁အပျင်းထူ":10005,"▁ကြေးပြား":10006,"▁ကြေးရုပ်":10007,"▁အလျင်စလို":10008,"▁အလျင်အမြန်":10009,"▁ဆက်စပ်ပစ္စည်း":10010,"▁အယူလွဲ":10011,"▁လိုရင်းတိုရှင်း":10012,"▁ကြွက်တက်":10013,"▁ယောကျာ်း":10014,"▁ဆေးထိုးအပ်":10015,"▁ကြက်ခြေနီ":10016,"▁အကောက်ခွန်ငွေ":10017,"▁အော့အန်":10018,"▁နို့တိုက်":10019,"▁နို့အုံ":10020,"▁ရှူသွင်း":10021,"▁အတန်းချိန်":10022,"▁အတန်းဖော်":10023,"▁သေဆုံးသူ":10024,"▁စမ်းသပ်မှု":10025,"▁ပန်းကန်ခွက်":10026,"▁ချောချောမောမော":10027,"▁ဒေသကြီး":10028,"▁ဒေသခံ":10029,"လတ်ပိုင်း":10030,"▁ရောင်ကိုင်း":10031,"▁ရောင်ရမ်း":10032,"▁ရောင်ခြည်":10033,"▁စရံချ":10034,"▁ချောင်ပိတ်":10035,"▁ကျဆင်းမှု":10036,"▁လေးနက်မှု":10037,"ကျေးကျေး":10038,"▁လှောင်ပြုံး":10039,"▁အထည်ချုပ်":10040,"▁လည်ပတ်မှု":10041,"▁အကြမ်းဖျင်း":10042,"အဆစ်":10043,"▁သရုပ်မဆောင်":10044,"▁ပြိုကျ":10045,"▁စောက်တင်း":10046,"▁ကြွေဆင်း":10047,"▁ချိုစိမ့်":10048,"▁အမွေတောင်း":10049,"▁ကုလားမ":10050,"▁ပြတ်သားမှု":10051,"▁ကယ်ဆယ်ရေး":10052,"▁ကြွယ်ဝမှု":10053,"▁အရှေ့ဘက်":10054,"▁လယ်သာ":10055,"▁လယ်သူဌေး":10056,"▁အနှစ်ထုပ်":10057,"▁အနှစ်နှစ်အလလ":10058,"▁သုပ်စား":10059,"▁ပေါင်သား":10060,"▁စာနာစိတ်":10061,"▁ဟာသကား":10062,"▁ခြံတံခါး":10063,"▁မှားယွင်းမှု":10064,"▁ပူပူစပ်စပ်":10065,"▁စောဒကတက်":10066,"▁နွေလည်ခေါင်":10067,"▁စံချိန်":10068,"▁မှောင်မိုက်":10069,"▁ကြံရည်":10070,"▁ကြံဖန်":10071,"▁ကိုရီးယားကား":10072,"▁ဟဲဟိုး":10073,"▁အသွားအပြန်":10074,"▁မိတ်ကပ်ဆရာ":10075,"▁ပြိုင်ပွဲဝင်":10076,"▁ပွင့်လင်းမှု":10077,"▁သံသယဝင်":10078,"▁လျှပ်စစ်မီး":10079,"▁ပါရမီဖြည့်":10080,"▁လက်သန့်သန့်":10081,"▁အပန်းပြေ":10082,"▁အပန်းမကြီး":10083,"▁ဗမာပြည်":10084,"▁ငွေချေးယူ":10085,"▁ဇွဲကပင်":10086,"▁ငြိမ်းချမ်းမှု":10087,"▁တုန်ယမ်း":10088,"▁ဆီးစပ်":10089,"▁ဘူးသီးကြော်":10090,"▁ကြိတ်မှိတ်":10091,"▁ကြိတ်ကြွေ":10092,"▁အရိုးရှင်းဆုံး":10093,"▁အရိုးအဆစ်":10094,"▁ကိုယ်စားပြု":10095,"▁အထာကျ":10096,"▁ပရိသတ်ကြီး":10097,"ညံညံ":10098,"▁ပွိုင့်":10099,"▁ပါတီဝင်":10100,"▁ဘော်ဒီ":10101,"▁စိုပြေ":10102,"▁အလျှံပယ်":10103,"▁အသုပ်ဆိုင်":10104,"▁တိတ်တိတ်ဆိတ်ဆိတ်":10105,"▁သုခ":10106,"▁ခုတ်ဖြတ်":10107,"▁ခွန်းတ":10108,"▁စိမ်းကား":10109,"▁စိမ်းစိမ်း":10110,"▁စိမ်းစို":10111,"▁ဆွမ်းစား":10112,"▁ဆွမ်းလောင်း":10113,"▁ဆွမ်းကြီးလောင်း":10114,"▁အကြောလွဲ":10115,"မြို့နယ်":10116,"▁ဂစ်တာသံ":10117,"▁အကျယ်မချ":10118,"▁အကန့်အသန့်":10119,"▁စိစစ်ရေးကတ်":10120,"မရွံ့":10121,"လျော့လျော့":10122,"▁လစ်ဟင်း":10123,"▁မဲ့ရွဲ့":10124,"▁ခုန်ဆင်း":10125,"▁လိုလားချက်":10126,"▁ငရုတ်ကောင်း":10127,"▁ငရုတ်စုံ":10128,"▁ညည်းတွား":10129,"▁လျှာရှည်":10130,"▁ကြက်သွန်နီ":10131,"▁အရှက်ကွဲ":10132,"▁ဝဋ်ကြွေးဆပ်":10133,"▁ဖွံ့ဖြိုးတိုးတက်":10134,"▁မတရားမှု":10135,"▁သွားတိုက်ဆေး":10136,"▁နှစ်သိမ့်ဆု":10137,"▁ချစ်ခင်မှု":10138,"▁အဖတ်မတင်":10139,"▁သမားရိုးကျ":10140,"▁စည်းလုံးမှု":10141,"▁လေ့ကျင့်ရေးကွင်း":10142,"▁ပန်းချီဆွဲ":10143,"▁ငြိမ်သက်မှု":10144,"▁ဆီးချိုသမား":10145,"▁အနုပညာရှင်":10146,"ညွှန်းတမ်း":10147,"▁ကွမ်းစား":10148,"▁ချဉ်ငံစပ်":10149,"▁ရင်မနာ":10150,"▁ရင်မခုန်":10151,"▁ဟိုးလေးတကျ":10152,"▁ယုတ်ညံ့":10153,"▁အမဲသား":10154,"▁အမဲရောင်":10155,"▁အပြာရင့်":10156,"▁အပြေးသမား":10157,"▁အပြေးအလွှား":10158,"▁ကွာရှင်းစာချုပ်":10159,"▁အာရုံကြောရောဂါ":10160,"▁ဆူညံသံ":10161,"▁ထုပ်ပိုးမှု":10162,"▁ဗဟိုဘဏ်":10163,"▁တူးပင်":10164,"ချဉ်သီး":10165,"ချဉ်စပ်":10166,"▁ဝါးစား":10167,"▁မိတ္တူကူးစက်":10168,"ဂိုရသမ":10169,"▁တီးတိန်":10170,"▁စောင်းမြောင်း":10171,"▁ဆော်ဩ":10172,"▁ဖြောင့်ဖြောင့်":10173,"▁ကျူးကျော်":10174,"▁ငဲ့ကြည့်":10175,"▁ရေဘေးသင့်":10176,"▁ခြစ်ခြစ်":10177,"▁ကြက်သားစိမ်း":10178,"▁ကင်းရှင်းရေး":10179,"▁ကြေကွဲမှု":10180,"▁ဧည့်ခံရေး":10181,"▁စင်ကာပူနိုင်ငံ":10182,"▁အငန်":10183,"▁ဘူမိ":10184,"▁ဘူစတာ":10185,"▁ခမ်းခြောက်":10186,"▁စပါးစိုက်":10187,"▁ကြွရောက်":10188,"▁စိတ်ကျဝေဒနာ":10189,"▁အမူးသမား":10190,"▁လူရာမဝင်":10191,"▁ကိုယ်ကျင့်သီလ":10192,"▁ငွေပေးငွေယူ":10193,"▁လျှောက်မသွား":10194,"▁လျှောက်မလိုက်":10195,"▁ညနေခင်းဈေး":10196,"▁ဆံပင်ညှပ်ဆိုင်":10197,"▁ဒဏ်ကြေးဆောင်":10198,"▁မည်သူ့":10199,"▁သပ်ရပ်စွာ":10200,"▁ဖွဲ့စည်းပုံ":10201,"▁ဆိုက်ကားနင်း":10202,"▁ငှက်ပျောတုံး":10203,"▁နီနီ":10204,"▁သဲကွဲ":10205,"▁သဲတုန်":10206,"▁ပြစ်တင်":10207,"▁ဖောလစ်အက်":10208,"▁ဝီကီ":10209,"▁ငပျင်းမ":10210,"▁ဟန်းဆက်":10211,"▁အမ်ပီတီ":10212,"▁ပျံ့လွင့်":10213,"▁ကျော်ကြားမှု":10214,"▁ဇာတာ":10215,"▁ဇာတ်သိမ်းပိုင်း":10216,"▁လိမ္မော်ရည်":10217,"▁လိမ္မော်သီး":10218,"▁စုတ်ပြတ်သတ်":10219,"▁ငရုတ်သီးကြော်":10220,"▁မျက်စိမလည်":10221,"▁လိုက်လျောညီထွေ":10222,"ညွှတ်":10223,"တုံချတုံ":10224,"▁လော့ခ်ဒေါင်း":10225,"▁မှင်ထိပ်":10226,"▁ဖိုက်တာ":10227,"▁ဖိုက်ဘာ":10228,"▁ဖိုက်ဘီဘီ":10229,"▁ဖရုံပင်":10230,"▁တစ်ပြိုင်နက်":10231,"▁ဖြစ်ပွားမှု":10232,"▁အလုံပိတ်":10233,"▁ကျိန်စာ":10234,"▁ငေးကြည့်":10235,"▁ငေးမော":10236,"▁ငလျင်လှုပ်":10237,"▁နှပ်ကော်":10238,"▁အဆုတ်ကင်ဆာ":10239,"▁မြင်းကျား":10240,"▁မြစ်ကူး":10241,"▁မြစ်ချောင်း":10242,"▁အချိန်မတော်":10243,"▁အချိန်မမီ":10244,"▁အထပ်မြင့်":10245,"▁ဝန်ကြီးချုပ်":10246,"▁သဘောမပေါက်":10247,"▁ခြောက်သွေ့မှု":10248,"▁ကြည်ကြည်လင်လင်":10249,"▁အုပ်ချုပ်ရေး":10250,"▁ချိုသာစွာ":10251,"▁ကမ်းလှမ်းချက်":10252,"▁အမိန့်အာဏာ":10253,"▁စူပါဗိုက်":10254,"▁စူပါမားကတ်":10255,"▁စွန့်ဦးတီထွင်သူ":10256,"မိတ်ဆွေ":10257,"▁ပက်ကေ့":10258,"▁မကွေးတိုင်း":10259,"▁ရံဖန်ရံခါ":10260,"▁ဘူတာရုံ":10261,"▁ဆိတ်သားဟင်း":10262,"▁ကြိမ်းမောင်း":10263,"▁လုပ်ပုံကိုင်ပုံ":10264,"▁စိတ်ပုပ်စိတ်ယုတ်":10265,"▁လက်တစ်ဆစ်":10266,"▁အကယ်ဒမီ":10267,"▁တောင်တက်လမ်း":10268,"▁ဂီတာတီး":10269,"▁အစဉ်လိုက်":10270,"▁ပို့ချချက်":10271,"▁တန်ခိုးရှင်":10272,"နစ်နာနာ":10273,"▁မေ့မေ့လျော့လျော့":10274,"▁ကော်မရှင်":10275,"▁ဇီးရိုး":10276,"▁သီလယူ":10277,"▁သီလရှင်":10278,"▁လုံလုံလောက်လောက်":10279,"▁အပူအစပ်":10280,"▁သင်္ဘောသား":10281,"▁ကွန့်မန့်":10282,"▁မွှေကြော်":10283,"▁မွှေနှောက်":10284,"▁စေ့စေ့စပ်စပ်":10285,"▁ဆွေမျိုးမိတ်ဆွေ":10286,"▁ဥယျာဉ်ခြံမြေ":10287,"▁ဒေါင်းလုဒ်ချ":10288,"▁အငှားချ":10289,"▁အငှားဆိုင်":10290,"▁နန်းဆန်":10291,"▁နုံးချိ":10292,"▁သိုးမည်း":10293,"▁ခေါင်မိုးထပ်":10294,"▁ထစ်ခနဲ":10295,"▁ပဲပြုတ်သုပ်":10296,"▁ဖြန်းဆေး":10297,"▁ဝံ့ရဲ":10298,"▁ဆိုင်းငံ့":10299,"▁ကျန်းမားရေး":10300,"▁အတန်အသင့်":10301,"▁အမယ်လေး":10302,"▁ရေနံတွင်း":10303,"▁အပေါဆုံး":10304,"▁အစွဲအလမ်း":10305,"▁စီးဆင်းမှု":10306,"▁လစာထုတ်ရက်":10307,"▁ပေါင်းတင်နည်း":10308,"▁ဂုဏ်ထူးမှတ်":10309,"▁အတင်းအကြပ်":10310,"▁နှလုံးခုန်နှုန်း":10311,"▁သင်္ကြန်ပွဲတော်":10312,"▁အယ်လ်ပိုင်း":10313,"▁အယ်လ်ဂိုရသမ":10314,"▁အားစိုက်ထုတ်မှု":10315,"▁ဘူးညွှန့်ကြော်":10316,"စိုင်းစိုင်း":10317,"အက်ဖ်":10318,"▁တုံပြန်":10319,"▁တုံကင်":10320,"▁လီတာ":10321,"▁လီဆယ်":10322,"▁မုဆိုး":10323,"▁မု့န်":10324,"▁ကပ္ပလီ":10325,"▁ကပ္ပတိန်":10326,"▁ခွေခွေ":10327,"▁ဖဲရိုက်":10328,"▁ဖီးလ်":10329,"▁ကျိန်းသေ":10330,"▁ဟက်နည်း":10331,"▁ဟက်ခ်":10332,"▁ဟစ်စ်ထရီ":10333,"▁ဟမ်ဘာဂါ":10334,"▁လေဆာပစ်":10335,"ရှစ်ပ်":10336,"▁ရေပူစမ်း":10337,"▁အိမ်သုံးပစ္စည်း":10338,"▁အမြစ်ပြတ်":10339,"▁ဆက်နွယ်မှု":10340,"▁ငါးပိချက်":10341,"▁ရုပ်သံလိုင်း":10342,"▁ငြိစွန်း":10343,"▁အွန်လိုင်းရှော့ပင်":10344,"▁သံချောင်းခေါက်":10345,"▁ဇာတ်ဝင်ခန်း":10346,"▁ဇာတ်ဝင်သီချင်း":10347,"▁ဧရာဝတီတိုင်း":10348,"န္တာရ":10349,"▁လန်းလန်းဆန်းဆန်း":10350,"▁ထီထွင်သူ":10351,"▁ဖရဲသီးစိတ်သည်":10352,"▁ခရမ်းစွဲ":10353,"▁ခရမ်းချဉ်သီး":10354,"▁စကော်လာရှစ်":10355,"▁ဒူးရင်းသီး":10356,"▁ဒူးရင်းယို":10357,"▁ဖျတ်လတ်":10358,"▁ဖျတ်ခနဲ":10359,"▁အာဇာနည်နေ့":10360,"▁တစ်ကိုယ်ကောင်းဆန်မှု":10361,"▁မတော်တဆမှု":10362,"မျော":10363,"▁တရေးနိုး":10364,"▁မတုန်း":10365,"▁မွန်မြတ်":10366,"▁နစ်နစ်နာနာ":10367,"▁သမ္မာအာဇီ":10368,"▁ဘရာဇီး":10369,"▁ဘော့စ်":10370,"▁စတေးတပ်စ်":10371,"▁ဖျင်ထည်":10372,"▁ဒဲ့ပြော":10373,"▁ဝေါဟာရ":10374,"▁ဟွန်းတီး":10375,"▁ယမကာ":10376,"▁ယပ်တောင်":10377,"▁နှင်ထုတ်":10378,"▁အခင်ဆုံး":10379,"▁အဆစ်အမြစ်":10380,"▁ရေစီးကြောင်း":10381,"▁ရေချိုငါး":10382,"▁သင်ရိုးညွှန်းတမ်း":10383,"▁အမြောက်အများ":10384,"▁နာနတ်သီး":10385,"▁အကျွမ်းကျင်ဆုံး":10386,"အားနည်းရပ်ဝန်း":10387,"▁ကွာဟမှု":10388,"▁ဆီကြော်မုန့်":10389,"▁ကျောင်းနေဖက်":10390,"▁ကျောင်းဝင်ခွင့်":10391,"▁မွေးရပ်မြေ":10392,"▁ဂျာကြီး":10393,"▁စက်သုံးဆီ":10394,"▁အမှန်အမှား":10395,"▁ဆင်နွဲ":10396,"▁အိုင်အိုအက်စ်":10397,"▁ဓာတ်ဆားရည်":10398,"▁ရင်းနှီးမြုပ်နှံမှု":10399,"▁ဓာတုဆေး":10400,"▁ချောကလက်":10401,"▁မန်ကျည်းသီး":10402,"▁သွေးဆုံးချိန်":10403,"▁ဥပေက္ခာပြု":10404,"▁ကင်းလွတ်ခွင့်":10405,"▁ဝက်ဝံရုပ်":10406,"▁ရင်းနှီးမြှပ်နှံမှု":10407,"▁အပြီးအစီး":10408,"▁ပီပီသသ":10409,"▁အင်းတော်ကြီးကန်":10410,"▁ယဉ်ယဉ်ကျေးကျေး":10411,"▁ရိုင်းရိုင်းစိုင်းစိုင်း":10412,"▁အရှိန်အဟုန်":10413,"▁ဇာတိမာန်":10414,"▁ကျေးလက်ဒေသ":10415,"▁မုတ်သုံလေ":10416,"▁တန်ရာတန်ကြေး":10417,"▁ထွက်ခွါခွင့်":10418,"▁အောက်တိုဘာလ":10419,"ဝန္တာတော":10420,"အယ်လ်တီအက်စ်":10421,"▁တလေးတစား":10422,"▁တစိုက်မတ်မတ်":10423,"▁တဖွဲဖွဲ":10424,"▁တဂွီဂွီ":10425,"▁တနုံ့နုံ့":10426,"▁ပရောက်ဂျက်":10427,"▁ပခုက္ကူ":10428,"▁မားကတ်":10429,"▁မကျန်းမမာ":10430,"▁မခြွင်းမချ":10431,"▁မပျက်မကွက်":10432,"▁မပျော်မရွှင်":10433,"▁မသိစိတ်":10434,"▁မရိုးမသား":10435,"▁မပြောင်းမလဲ":10436,"▁မကြောက်မရွံ့":10437,"ောဖလှယ်ပွဲ":10438,"▁အုတ်မြစ်":10439,"▁အဘက်ဘက်":10440,"▁အအမ်းခံ":10441,"▁ကစီဓာတ်":10442,"▁ကသိကအောက်":10443,"▁ရခါစ":10444,"▁နွမ်းပါး":10445,"▁သမာဓိ":10446,"▁သရီးပင်":10447,"▁သယောင်ယောင်":10448,"▁သိုလှောင်ခန်း":10449,"▁ပါဆင်နယ်":10450,"▁ဘိုင့်ဘိုင်":10451,"▁ဘလူးတု":10452,"▁ခရိုနီ":10453,"▁စတိုခန်း":10454,"▁စပွိုင်လာ":10455,"▁စပီကာ":10456,"▁စတန့်ထွင်":10457,"▁စပွန်ဆာ":10458,"▁ဆိပ်ကမ်း":10459,"▁ဆွယ်တာ":10460,"▁ဆေ့ဂတ်":10461,"▁ဆွံ့အ":10462,"▁တောဇီးရွက်":10463,"▁ကြို့ထိုး":10464,"▁ပဲကြီးလှော်":10465,"▁မယ်မယ်ရရ":10466,"▁လုပ်လက်စ":10467,"▁လုပ်ထုံးလုပ်နည်း":10468,"▁ဒုတ်ထိုး":10469,"▁ဒုန်းဒုန်း":10470,"▁ဒရမ်မာချိုး":10471,"▁လာဘ်စားမှု":10472,"▁သွားဖုံးရောင်":10473,"▁ကျိုင်းတုံ":10474,"▁ဟိမဝန္တာတော":10475,"▁လေးဘက်နာ":10476,"▁ဘာဘီကျူ":10477,"▁လေဖိအားနည်းရပ်ဝန်း":10478,"▁သိနားလည်":10479,"▁သိပ္ပံ":10480,"▁စိတ်ခွန်အား":10481,"▁စိတ်ထိခိုက်":10482,"▁စိတ်အချရဆုံး":10483,"▁ယတြာချေ":10484,"▁ပေါပေါများများ":10485,"▁လူလူချင်း":10486,"▁လူစွမ်းကောင်း":10487,"▁လူသိများ":10488,"▁လူကျွံဘော":10489,"▁နှံ့စပ်":10490,"▁နှီးနှောဖလှယ်ပွဲ":10491,"▁ကိုယ်ကာယ":10492,"▁အသောက်အစား":10493,"▁အချိန်းအချက်":10494,"▁အချိတ်အဆက်":10495,"▁လက်သင့်ခံ":10496,"▁လက်ဖျားခါ":10497,"▁ပေါ့သေးသေး":10498,"▁စာမူကြမ်း":10499,"▁ဟုတ်တိပတ်တိ":10500,"▁မိဖုရား":10501,"▁နှစ်ဖက်တိပ်":10502,"▁ပျဉ်းမနား":10503,"▁ထဲထဲဝင်ဝင်":10504,"▁ရုံးယူနီဖောင်း":10505,"▁ယူအက်စ်ဘီ":10506,"▁ယူကျူ့":10507,"▁နေ့ချင်းပြန်":10508,"▁ရေပြာအိုင်":10509,"▁ရေသပ္ပါယ်ပွဲ":10510,"▁နားအေးပါးအေး":10511,"▁ဗလောင်ဆူ":10512,"▁အစိုင်အခဲ":10513,"▁ဖုန်းဆင်းကဒ်":10514,"▁ခင်မောင်တိုး":10515,"▁ရက်ကောဒင်း":10516,"▁သဘောသဘာဝ":10517,"▁ဆေးဖက်ဝင်":10518,"▁ဆေးဘဲဥ":10519,"▁ရှာလကာရည်":10520,"▁မျက်လှည့်":10521,"▁မျက်ကြည်လွှာ":10522,"▁မျက်ခြေမပြတ်":10523,"▁လမ်းပန်းဆက်သွယ်":10524,"▁စီးတီးမာ့ခ်":10525,"▁တန်ဆာခ":10526,"▁ကြားဖူးနားဝ":10527,"▁ငါးမျှား":10528,"▁ခဏတစ်ဖြုတ်":10529,"▁အာပူလျှာပူ":10530,"▁အာကာသ":10531,"▁အာဝါသ":10532,"▁ခေါင်းလိမ်းဆီ":10533,"▁အန္တာရယ်":10534,"▁အေးတိအေးစက်":10535,"▁အောက်စီဂျင်":10536,"▁မျှမျှတတ":10537,"▁ရယ်ရယ်မောမော":10538,"▁ပျက်သုဉ်း":10539,"▁ကာရာအိုကေ":10540,"▁ကိုယ်တိုင်ကိုယ်ကျ":10541,"▁ငယ်သူငယ်ချင်း":10542,"▁ရုပ်သေးရုပ်":10543,"▁ရုပ်ဝတ္ထုပစ္စည်း":10544,"▁ကော်ပိုရိက်":10545,"▁အော်ဂဲနစ်":10546,"▁ဂျီအက်စ်အမ်":10547,"▁အရည်ရွှမ်း":10548,"▁စည်းစည်းလုံးလုံး":10549,"▁ဖြတ်ထိုးဥာဏ်":10550,"▁ခေတ်ပညာတတ်":10551,"▁ကြက်ဆီထမင်း":10552,"▁ကြက်တောင်ရိုက်":10553,"▁ဘေးပတ်ဝန်းကျင်":10554,"▁ဘေးဆွဲအိတ်":10555,"▁ဘေးအန္တရာယ်":10556,"▁ဟင်းလျာ":10557,"▁ဥာဏ်မီ":10558,"▁ရီလေးရှင်းရှစ်ပ်":10559,"▁ဖက်စ်စလတီ":10560,"▁ဖက်ထုပ်ရွက်":10561,"▁တပ်ဖွဲ့ဝင်":10562,"▁အိုင်အီးအယ်လ်တီအက်စ်":10563,"▁ဓာတ်ရောင်ခြည်":10564,"▁ကောရက်ရှင်ပန်":10565,"▁ဘုရားဆွမ်းတော်":10566,"▁ခပ်ရိုးရိုး":10567,"▁ခပ်ပေါ့ပေါ့":10568,"▁ခပ်ရင့်ရင့်":10569,"▁ခပ်လှုပ်လှုပ်":10570,"▁ဓါတုပစ္စည်း":10571,"▁ရှားစောင်းလက်ပတ်":10572,"▁အားမလိုအားမရ":10573,"▁ဆူဆူညံညံ":10574,"▁သီးသီးသန့်သန့်":10575,"▁ချိန်ညှိ":10576,"▁မိတ္ထီလာ":10577,"▁ကြက်ဥချဉ်ရည်":10578,"▁ဧည့်ဝတ်ကျေ":10579,"▁ရူးသွပ်မှု":10580,"ပီဒီးယား":10581,"▁ငြိမ်းငြိမ်းချမ်းချမ်း":10582,"▁ဘီသဖာ့စ်":10583,"▁ဆောင်းခိုငှက်":10584,"▁မြတ်စွာဘုရား":10585,"▁မီးပုံးပျံ":10586,"▁ရွှင်ရွှင်လန်းလန်း":10587,"▁ပန်းကန်ခွက်ယောက်":10588,"▁တုန်ယမ်းဟင်းချို":10589,"▁အကျယ်မချဲ့":10590,"▁စိစစ်ရေးကတ်ပြား":10591,"▁ဟိုးလေးတကျော်":10592,"▁ခြစ်ခြစ်တောက်":10593,"▁ဖောလစ်အက်ဆစ်":10594,"▁ဝီကီပီဒီးယား":10595,"▁နှပ်ကော်ဖီ":10596,"▁စူပါဗိုက်ဆာ":10597,"▁ပက်ကေ့ချ်":10598,"▁အယ်လ်ဂိုရသမ်":10599,"▁သမ္မာအာဇီဝ":10600,"▁မခြွင်းမချန်":10601,"▁လမ်းပန်းဆက်သွယ်ရေး":10602}